#define STIM_W_SIZE 16384
// weights [32 x 2 x 8 x 3 x 3 x 4]
L2_DATA uint8_t ne16_weights[] = {
  0xd6,
  0xa8,
  0xda,
  0x13,
  0x2a,
  0xa9,
  0x2a,
  0x6a,
  0x44,
  0xb7,
  0x40,
  0x7f,
  0xca,
  0x1f,
  0xb0,
  0x8e,
  0xcd,
  0xb7,
  0x43,
  0xb4,
  0xe6,
  0x68,
  0x4b,
  0x71,
  0xc6,
  0x92,
  0x16,
  0xbd,
  0x84,
  0x07,
  0x48,
  0x0f,
  0x86,
  0x35,
  0x8b,
  0x7a,
  0x4e,
  0x7a,
  0x8b,
  0x34,
  0x0c,
  0xb4,
  0x3c,
  0xe6,
  0x3b,
  0xaa,
  0xdb,
  0xa3,
  0x30,
  0xd6,
  0x2d,
  0x0e,
  0x27,
  0xb9,
  0xbe,
  0x2a,
  0xb0,
  0x9a,
  0x3f,
  0xca,
  0x96,
  0xbd,
  0xe1,
  0x07,
  0xd2,
  0xc3,
  0xdd,
  0x59,
  0xf6,
  0xbc,
  0xf6,
  0xb3,
  0xa6,
  0x1c,
  0xc7,
  0xfb,
  0xbd,
  0x67,
  0x81,
  0x23,
  0x13,
  0x4c,
  0x67,
  0xe1,
  0xe4,
  0xed,
  0xeb,
  0x2f,
  0x16,
  0xfd,
  0xd0,
  0xc5,
  0x54,
  0x7b,
  0x43,
  0x02,
  0x28,
  0x21,
  0x49,
  0xb5,
  0x41,
  0xb0,
  0xe7,
  0x0d,
  0x0f,
  0x19,
  0x5d,
  0x46,
  0x01,
  0xfc,
  0xe3,
  0x64,
  0x8d,
  0x97,
  0x0a,
  0xc6,
  0xf8,
  0x71,
  0x50,
  0x79,
  0x6c,
  0x61,
  0x1e,
  0x66,
  0x3c,
  0xab,
  0xac,
  0x08,
  0xa3,
  0xec,
  0xe7,
  0x7d,
  0x11,
  0xdc,
  0x65,
  0xb6,
  0xbb,
  0x5d,
  0x65,
  0x0e,
  0x67,
  0xcd,
  0xdd,
  0x30,
  0xf8,
  0x05,
  0x39,
  0x89,
  0xca,
  0x85,
  0xb3,
  0x60,
  0x86,
  0x38,
  0x45,
  0xff,
  0xef,
  0xc4,
  0xeb,
  0x01,
  0x60,
  0xd0,
  0x75,
  0xe3,
  0x6b,
  0x36,
  0x0b,
  0x38,
  0xb8,
  0x8a,
  0xfe,
  0xd7,
  0xf0,
  0xfd,
  0xed,
  0x0c,
  0x2f,
  0xcf,
  0xef,
  0xd9,
  0x07,
  0xc7,
  0x5a,
  0x06,
  0x90,
  0x6a,
  0xca,
  0x44,
  0x5c,
  0x23,
  0x8b,
  0x0b,
  0xe9,
  0x51,
  0x6c,
  0x7b,
  0x03,
  0xf2,
  0x29,
  0x34,
  0x00,
  0xd8,
  0x5f,
  0xd7,
  0x35,
  0xed,
  0xf5,
  0x00,
  0x4e,
  0xcf,
  0xa9,
  0x4b,
  0x8f,
  0xe7,
  0x12,
  0x40,
  0x91,
  0xca,
  0x0b,
  0xe6,
  0xfd,
  0x23,
  0x8b,
  0x0d,
  0x1e,
  0xae,
  0x8a,
  0x84,
  0xfc,
  0x8d,
  0x96,
  0xcb,
  0x4f,
  0x67,
  0xa1,
  0x28,
  0xda,
  0x12,
  0x0a,
  0xff,
  0xb1,
  0x30,
  0x56,
  0xb4,
  0x70,
  0x19,
  0xed,
  0xbf,
  0x7f,
  0xb5,
  0xb4,
  0x98,
  0x02,
  0xdc,
  0x74,
  0x02,
  0x1a,
  0x2a,
  0xa9,
  0x2a,
  0x6a,
  0x44,
  0xb7,
  0x48,
  0x7f,
  0xca,
  0x4f,
  0xb0,
  0x8e,
  0xcd,
  0xb7,
  0x43,
  0xb4,
  0x66,
  0x68,
  0x4b,
  0x71,
  0xcc,
  0x92,
  0x16,
  0xcd,
  0x84,
  0x07,
  0x48,
  0xcc,
  0x21,
  0xc1,
  0x00,
  0x79,
  0x4e,
  0x7a,
  0x8b,
  0x34,
  0x0c,
  0xb4,
  0x3a,
  0xe6,
  0x3b,
  0xca,
  0xdb,
  0xa3,
  0x30,
  0xd2,
  0x2d,
  0x0e,
  0x97,
  0xb9,
  0xbe,
  0x2a,
  0xb5,
  0x9a,
  0x3f,
  0xaa,
  0x96,
  0xbd,
  0xe1,
  0x5c,
  0xd3,
  0x91,
  0x05,
  0x59,
  0xf6,
  0xbc,
  0xb6,
  0xb3,
  0xa6,
  0x1c,
  0xc9,
  0xfb,
  0xbd,
  0x27,
  0x81,
  0x23,
  0x13,
  0x49,
  0x67,
  0xe1,
  0x34,
  0xed,
  0xeb,
  0x2f,
  0x16,
  0xfd,
  0xd0,
  0xb5,
  0x54,
  0x7b,
  0x43,
  0xc4,
  0xb5,
  0x0f,
  0x0f,
  0xb4,
  0x41,
  0xb0,
  0x17,
  0x0d,
  0x0f,
  0x19,
  0x5b,
  0x46,
  0x01,
  0x8c,
  0xe3,
  0x64,
  0x8d,
  0x9e,
  0x0a,
  0xc6,
  0x58,
  0x71,
  0x50,
  0x79,
  0x69,
  0x61,
  0x1e,
  0x86,
  0x3c,
  0xab,
  0xac,
  0x79,
  0xf9,
  0x3c,
  0x0b,
  0x70,
  0x11,
  0xdc,
  0x55,
  0xb6,
  0xbb,
  0x5d,
  0x63,
  0x0e,
  0x67,
  0x0d,
  0xdd,
  0x30,
  0xf8,
  0x0b,
  0x39,
  0x89,
  0x5a,
  0x85,
  0xb3,
  0x60,
  0x82,
  0x38,
  0x45,
  0x6f,
  0xef,
  0xc4,
  0xeb,
  0xbc,
  0xaa,
  0x0e,
  0x02,
  0xe8,
  0x6b,
  0x36,
  0x3b,
  0x38,
  0xb8,
  0x8a,
  0xf4,
  0xd7,
  0xf0,
  0xed,
  0xed,
  0x0c,
  0x2f,
  0xc2,
  0xef,
  0xd9,
  0xb7,
  0xc7,
  0x5a,
  0x06,
  0x90,
  0x6a,
  0xca,
  0x44,
  0x5c,
  0x23,
  0x8b,
  0x41,
  0x5c,
  0x30,
  0x0a,
  0x78,
  0x03,
  0xf2,
  0x19,
  0x34,
  0x00,
  0xd8,
  0x50,
  0xd7,
  0x35,
  0xed,
  0xf5,
  0x00,
  0x4e,
  0xc8,
  0xa9,
  0x4b,
  0xbf,
  0xe7,
  0x12,
  0x40,
  0x9e,
  0xca,
  0x0b,
  0xf6,
  0xfd,
  0x23,
  0x8b,
  0x16,
  0x58,
  0x6d,
  0x0b,
  0x87,
  0xfc,
  0x8d,
  0xe6,
  0xcb,
  0x4f,
  0x67,
  0xaf,
  0x28,
  0xda,
  0x12,
  0x0a,
  0xff,
  0xb1,
  0x37,
  0x56,
  0xb4,
  0xc0,
  0x19,
  0xed,
  0xbf,
  0x75,
  0xb5,
  0xb4,
  0x08,
  0x02,
  0xdc,
  0x74,
  0xe9,
  0xa7,
  0x92,
  0x04,
  0x1c,
  0x12,
  0x0c,
  0xb3,
  0x68,
  0xf2,
  0x28,
  0xd1,
  0x9c,
  0x48,
  0x01,
  0x6e,
  0x1a,
  0xcf,
  0xa3,
  0x36,
  0xc4,
  0x89,
  0x8e,
  0xfa,
  0x1c,
  0x96,
  0x08,
  0xf7,
  0xd3,
  0xd1,
  0xb2,
  0xe5,
  0x8b,
  0x04,
  0x85,
  0x06,
  0x35,
  0x1d,
  0x59,
  0x63,
  0x69,
  0x85,
  0x38,
  0xde,
  0x2f,
  0x8f,
  0xa3,
  0xcb,
  0x03,
  0xee,
  0x2c,
  0x27,
  0x7f,
  0x44,
  0x85,
  0xbb,
  0xbb,
  0xfb,
  0x9c,
  0xe2,
  0x2c,
  0x41,
  0x3f,
  0xec,
  0x01,
  0x83,
  0x63,
  0x0d,
  0x5c,
  0xfb,
  0xf0,
  0x9a,
  0x5b,
  0xe1,
  0xa9,
  0xdd,
  0x5d,
  0xd2,
  0x13,
  0xbc,
  0xf2,
  0x26,
  0x3d,
  0xcd,
  0xb5,
  0xd8,
  0x6a,
  0xa6,
  0x56,
  0x7d,
  0xc8,
  0x8e,
  0x2c,
  0x3f,
  0x9f,
  0x58,
  0x7c,
  0xe5,
  0x02,
  0x05,
  0x97,
  0xcf,
  0xb3,
  0x3f,
  0xa1,
  0x9a,
  0x48,
  0x9a,
  0xf3,
  0x10,
  0x5b,
  0x21,
  0x8b,
  0x97,
  0x7f,
  0x49,
  0xd5,
  0xfb,
  0x6b,
  0x9d,
  0xaf,
  0xc5,
  0xa6,
  0x14,
  0xd8,
  0x10,
  0x29,
  0xe1,
  0xb3,
  0xab,
  0x95,
  0x0b,
  0xab,
  0xea,
  0x20,
  0xe4,
  0x33,
  0x22,
  0x24,
  0xd0,
  0x5f,
  0x5c,
  0x84,
  0x2c,
  0x61,
  0x2d,
  0x27,
  0x8e,
  0xbc,
  0x74,
  0x96,
  0x40,
  0xbd,
  0x08,
  0xae,
  0x3d,
  0xcf,
  0xd4,
  0x27,
  0xcb,
  0xff,
  0xba,
  0xa6,
  0x00,
  0xc4,
  0x05,
  0xa3,
  0x58,
  0x82,
  0x84,
  0x9b,
  0x30,
  0x14,
  0xfc,
  0x26,
  0x9f,
  0xa2,
  0x60,
  0xb2,
  0xcf,
  0x95,
  0x9c,
  0x18,
  0x16,
  0x63,
  0x2b,
  0xe5,
  0x1d,
  0x23,
  0xa1,
  0xac,
  0xed,
  0x8c,
  0xe9,
  0xb2,
  0x05,
  0x81,
  0xd5,
  0xb6,
  0xdf,
  0xa7,
  0x81,
  0xc1,
  0x14,
  0x54,
  0x94,
  0xee,
  0x8d,
  0xa1,
  0x0a,
  0xb0,
  0xcc,
  0xbc,
  0xf0,
  0x14,
  0x12,
  0x98,
  0x0b,
  0x96,
  0x3d,
  0xa3,
  0xc1,
  0x8e,
  0xd5,
  0xec,
  0xe8,
  0x13,
  0x05,
  0x7e,
  0x2a,
  0x49,
  0x21,
  0x5c,
  0x7f,
  0x3e,
  0xeb,
  0xab,
  0x2b,
  0x51,
  0x72,
  0x5e,
  0xd5,
  0x4f,
  0x33,
  0x4b,
  0x0f,
  0xeb,
  0xed,
  0x47,
  0xf4,
  0x69,
  0xc2,
  0x5c,
  0x3e,
  0x71,
  0x2a,
  0x13,
  0x17,
  0xed,
  0x0a,
  0xb4,
  0x68,
  0xf2,
  0xd8,
  0xd1,
  0x9c,
  0x48,
  0x0b,
  0x6e,
  0x1a,
  0xbf,
  0xa3,
  0x36,
  0xc4,
  0x85,
  0x8e,
  0xfa,
  0xec,
  0x96,
  0x08,
  0xf7,
  0xd8,
  0xd1,
  0xb2,
  0x15,
  0x8b,
  0x04,
  0x85,
  0xab,
  0x48,
  0x36,
  0x0b,
  0x6a,
  0x69,
  0x85,
  0xa8,
  0xde,
  0x2f,
  0x8f,
  0xac,
  0xcb,
  0x03,
  0x3e,
  0x2c,
  0x27,
  0x7f,
  0x4c,
  0x85,
  0xbb,
  0xcb,
  0xfb,
  0x9c,
  0xe2,
  0x24,
  0x41,
  0x3f,
  0xfc,
  0x01,
  0x83,
  0x63,
  0x7b,
  0xa3,
  0xef,
  0x0c,
  0x9e,
  0x5b,
  0xe1,
  0x89,
  0xdd,
  0x5d,
  0xd2,
  0x11,
  0xbc,
  0xf2,
  0x26,
  0x3d,
  0xcd,
  0xb5,
  0xd6,
  0x6a,
  0xa6,
  0xb6,
  0x7d,
  0xc8,
  0x8e,
  0x20,
  0x3f,
  0x9f,
  0x68,
  0x7c,
  0xe5,
  0x02,
  0xbd,
  0xfc,
  0xda,
  0x01,
  0x37,
  0xa1,
  0x9a,
  0xf8,
  0x9a,
  0xf3,
  0x10,
  0x58,
  0x21,
  0x8b,
  0x37,
  0x7f,
  0x49,
  0xd5,
  0xfa,
  0x6b,
  0x9d,
  0x3f,
  0xc5,
  0xa6,
  0x14,
  0xd4,
  0x10,
  0x29,
  0xb1,
  0xb3,
  0xab,
  0x95,
  0x86,
  0xe6,
  0xb7,
  0x00,
  0xee,
  0x33,
  0x22,
  0xe4,
  0xd0,
  0x5f,
  0x5c,
  0x80,
  0x2c,
  0x61,
  0x2d,
  0x27,
  0x8e,
  0xbc,
  0x73,
  0x96,
  0x40,
  0xfd,
  0x08,
  0xae,
  0x3d,
  0xc4,
  0xd4,
  0x27,
  0x4b,
  0xff,
  0xba,
  0xa6,
  0xb1,
  0x86,
  0x3f,
  0x01,
  0x55,
  0x82,
  0x84,
  0x9b,
  0x30,
  0x14,
  0xfc,
  0x22,
  0x9f,
  0xa2,
  0xe0,
  0xb2,
  0xcf,
  0x95,
  0x9d,
  0x18,
  0x16,
  0x13,
  0x2b,
  0xe5,
  0x1d,
  0x26,
  0xa1,
  0xac,
  0xed,
  0x8c,
  0xe9,
  0xb2,
  0x47,
  0x64,
  0x38,
  0x04,
  0xd7,
  0xa7,
  0x81,
  0xd1,
  0x14,
  0x54,
  0x94,
  0xea,
  0x8d,
  0xa1,
  0x2a,
  0xb0,
  0xcc,
  0xbc,
  0xfd,
  0x14,
  0x12,
  0x28,
  0x0b,
  0x96,
  0x3d,
  0xa3,
  0xc1,
  0x8e,
  0xc5,
  0xec,
  0xe8,
  0x13,
  0x7e,
  0x14,
  0x2d,
  0x0d,
  0x28,
  0x5c,
  0x7f,
  0x2e,
  0xeb,
  0xab,
  0x2b,
  0x5d,
  0x72,
  0x5e,
  0xd5,
  0x4f,
  0x33,
  0x4b,
  0x02,
  0xeb,
  0xed,
  0xc7,
  0xf4,
  0x69,
  0xc2,
  0x59,
  0x3e,
  0x71,
  0x1a,
  0x13,
  0x17,
  0xed,
  0x89,
  0xeb,
  0xd2,
  0x0a,
  0x8a,
  0x64,
  0xb3,
  0xbb,
  0xf4,
  0xc7,
  0x0e,
  0x60,
  0x4a,
  0xa2,
  0xc5,
  0x41,
  0x02,
  0xf9,
  0x4d,
  0xa2,
  0x38,
  0x47,
  0x44,
  0x15,
  0x0e,
  0xff,
  0x9f,
  0x3e,
  0xb3,
  0x13,
  0x27,
  0x58,
  0xac,
  0x35,
  0x96,
  0x09,
  0x37,
  0xfa,
  0xce,
  0xc6,
  0xcd,
  0xca,
  0xf6,
  0xdf,
  0x10,
  0x8c,
  0xbb,
  0xbe,
  0x11,
  0xda,
  0x22,
  0x61,
  0xcc,
  0xdc,
  0xa7,
  0x0e,
  0x54,
  0xf7,
  0x50,
  0x72,
  0xd2,
  0x50,
  0x0c,
  0x79,
  0x5d,
  0x53,
  0x15,
  0x09,
  0xcb,
  0xaf,
  0x1d,
  0x09,
  0xfc,
  0xec,
  0xc4,
  0xa8,
  0x71,
  0xa4,
  0xe4,
  0x43,
  0xf6,
  0xaa,
  0xa1,
  0xb3,
  0x23,
  0xc8,
  0x03,
  0xa3,
  0x75,
  0x6a,
  0x56,
  0xff,
  0x56,
  0x02,
  0x36,
  0xe2,
  0x43,
  0x7d,
  0xf7,
  0x0a,
  0x68,
  0x7e,
  0x0b,
  0x99,
  0x80,
  0x76,
  0x01,
  0x76,
  0x8d,
  0x66,
  0x0e,
  0x0a,
  0x09,
  0xba,
  0x99,
  0x27,
  0x9c,
  0x96,
  0x5c,
  0x20,
  0x77,
  0x55,
  0xaa,
  0xf2,
  0x03,
  0x71,
  0xd7,
  0xfa,
  0xec,
  0xb3,
  0x0a,
  0x02,
  0x6b,
  0xf8,
  0x13,
  0xc8,
  0xac,
  0xdc,
  0xc8,
  0x62,
  0x9d,
  0xf3,
  0xb8,
  0xa1,
  0x1e,
  0xb2,
  0x50,
  0xcb,
  0x6c,
  0xf9,
  0xb5,
  0x7f,
  0xa9,
  0xa3,
  0xf2,
  0x59,
  0x7e,
  0x31,
  0xe3,
  0xdc,
  0x01,
  0xbb,
  0xcb,
  0x0d,
  0x44,
  0x86,
  0x43,
  0x3f,
  0x2c,
  0xd1,
  0x01,
  0xd9,
  0x4d,
  0x27,
  0x06,
  0x47,
  0x14,
  0x1d,
  0x8b,
  0xe7,
  0x7d,
  0x7b,
  0xcf,
  0x6c,
  0x2b,
  0x0e,
  0xb2,
  0x0e,
  0xc2,
  0x5c,
  0x50,
  0x40,
  0x84,
  0x6d,
  0xdc,
  0x01,
  0x47,
  0xd1,
  0xd2,
  0xbb,
  0x0c,
  0x5f,
  0x49,
  0xf2,
  0x09,
  0x27,
  0x3a,
  0x6e,
  0xd8,
  0xad,
  0x4e,
  0xab,
  0x6c,
  0xe8,
  0xff,
  0x2d,
  0xfc,
  0xb6,
  0xed,
  0xeb,
  0x46,
  0xa4,
  0x1c,
  0xb0,
  0x64,
  0xef,
  0xcc,
  0x00,
  0xb8,
  0x2e,
  0xad,
  0x45,
  0xf3,
  0xa0,
  0xb6,
  0x0d,
  0xf6,
  0xd8,
  0xd5,
  0x91,
  0xaf,
  0x52,
  0xb1,
  0x54,
  0x93,
  0x17,
  0x00,
  0xd2,
  0x03,
  0x59,
  0x15,
  0x14,
  0xb9,
  0xdb,
  0xab,
  0x4f,
  0x9b,
  0x10,
  0x33,
  0x0f,
  0xb5,
  0xf4,
  0xc7,
  0xfe,
  0x60,
  0x4a,
  0xa2,
  0xc2,
  0x41,
  0x02,
  0x39,
  0x4d,
  0xa2,
  0x38,
  0x4b,
  0x44,
  0x15,
  0x8e,
  0xff,
  0x9f,
  0x3e,
  0xb1,
  0x13,
  0x27,
  0xd8,
  0xac,
  0x35,
  0x96,
  0x68,
  0x6a,
  0x60,
  0x0b,
  0xc3,
  0xcd,
  0xca,
  0x06,
  0xdf,
  0x10,
  0x8c,
  0xbe,
  0xbe,
  0x11,
  0xaa,
  0x22,
  0x61,
  0xcc,
  0xd8,
  0xa7,
  0x0e,
  0x64,
  0xf7,
  0x50,
  0x72,
  0xdb,
  0x50,
  0x0c,
  0xb9,
  0x5d,
  0x53,
  0x15,
  0xe3,
  0x00,
  0x67,
  0x01,
  0x0c,
  0xfc,
  0xec,
  0x34,
  0xa8,
  0x71,
  0xa4,
  0xe2,
  0x43,
  0xf6,
  0x7a,
  0xa1,
  0xb3,
  0x23,
  0xcf,
  0x03,
  0xa3,
  0xb5,
  0x6a,
  0x56,
  0xff,
  0x5a,
  0x02,
  0x36,
  0x12,
  0x43,
  0x7d,
  0xf7,
  0x3d,
  0x52,
  0x6d,
  0x08,
  0x9f,
  0x80,
  0x76,
  0x31,
  0x76,
  0x8d,
  0x66,
  0x0c,
  0x0a,
  0x09,
  0xca,
  0x99,
  0x27,
  0x9c,
  0x92,
  0x5c,
  0x20,
  0xb7,
  0x55,
  0xaa,
  0xf2,
  0x03,
  0x71,
  0xd7,
  0xea,
  0xec,
  0xb3,
  0x0a,
  0x13,
  0xb8,
  0x95,
  0x0f,
  0xc4,
  0xac,
  0xdc,
  0xf8,
  0x62,
  0x9d,
  0xf3,
  0xbc,
  0xa1,
  0x1e,
  0xf2,
  0x50,
  0xcb,
  0x6c,
  0xfa,
  0xb5,
  0x7f,
  0x09,
  0xa3,
  0xf2,
  0x59,
  0x7c,
  0x31,
  0xe3,
  0xec,
  0x01,
  0xbb,
  0xcb,
  0x25,
  0x4c,
  0x3f,
  0x04,
  0x3f,
  0x2c,
  0xd1,
  0xc1,
  0xd9,
  0x4d,
  0x27,
  0x07,
  0x47,
  0x14,
  0x9d,
  0x8b,
  0xe7,
  0x7d,
  0x74,
  0xcf,
  0x6c,
  0x3b,
  0x0e,
  0xb2,
  0x0e,
  0xc1,
  0x5c,
  0x50,
  0x10,
  0x84,
  0x6d,
  0xdc,
  0x45,
  0x73,
  0xea,
  0x0d,
  0xbf,
  0x0c,
  0x5f,
  0x09,
  0xf2,
  0x09,
  0x27,
  0x3d,
  0x6e,
  0xd8,
  0xed,
  0x4e,
  0xab,
  0x6c,
  0xe3,
  0xff,
  0x2d,
  0x3c,
  0xb6,
  0xed,
  0xeb,
  0x40,
  0xa4,
  0x1c,
  0x40,
  0x64,
  0xef,
  0xcc,
  0x6f,
  0x40,
  0x25,
  0x0d,
  0x40,
  0xf3,
  0xa0,
  0xb6,
  0x0d,
  0xf6,
  0xd8,
  0xd2,
  0x91,
  0xaf,
  0x12,
  0xb1,
  0x54,
  0x93,
  0x1b,
  0x00,
  0xd2,
  0xc3,
  0x59,
  0x15,
  0x14,
  0xbf,
  0xdb,
  0xab,
  0xbf,
  0x9b,
  0x10,
  0x33,
  0x90,
  0xbf,
  0xda,
  0x02,
  0xa6,
  0x06,
  0xb6,
  0x26,
  0x3a,
  0xfa,
  0x4e,
  0x34,
  0xc2,
  0xc8,
  0xb5,
  0x9d,
  0xb5,
  0x91,
  0x55,
  0x15,
  0x27,
  0xd3,
  0x89,
  0xec,
  0x51,
  0x37,
  0xcd,
  0x27,
  0xb5,
  0xbd,
  0x4c,
  0xe2,
  0x41,
  0x56,
  0xef,
  0x06,
  0x0e,
  0x70,
  0x16,
  0xea,
  0x0f,
  0x5d,
  0xdd,
  0x20,
  0xcd,
  0xe6,
  0xa4,
  0x7e,
  0xa6,
  0x68,
  0x63,
  0x78,
  0xb0,
  0x1a,
  0xc4,
  0x88,
  0x86,
  0x8f,
  0x7b,
  0x8d,
  0x45,
  0x0f,
  0x2e,
  0x0a,
  0x2e,
  0xd9,
  0xb4,
  0x0d,
  0x23,
  0xd5,
  0x86,
  0x6b,
  0x5d,
  0xa2,
  0xfb,
  0x36,
  0x85,
  0xd4,
  0x95,
  0x98,
  0xb5,
  0x6b,
  0xd0,
  0x87,
  0x45,
  0xdd,
  0xa2,
  0x4e,
  0x20,
  0xa2,
  0xaa,
  0x1c,
  0x5c,
  0xae,
  0x2e,
  0xa4,
  0x4c,
  0x0a,
  0xb6,
  0x0d,
  0x81,
  0x5b,
  0xf9,
  0x78,
  0x0f,
  0x56,
  0xef,
  0xc2,
  0x94,
  0x75,
  0xef,
  0xe7,
  0xb8,
  0xf9,
  0xbe,
  0xde,
  0x51,
  0xef,
  0x9f,
  0x59,
  0xcd,
  0xa5,
  0x2c,
  0x13,
  0x01,
  0x37,
  0xd7,
  0xf1,
  0x1d,
  0xb2,
  0x4f,
  0x0a,
  0xc2,
  0xf4,
  0x43,
  0x05,
  0xd5,
  0x62,
  0xf2,
  0x67,
  0xc5,
  0x2f,
  0x06,
  0xdb,
  0x86,
  0x76,
  0x81,
  0x07,
  0xee,
  0x90,
  0xee,
  0xe4,
  0x11,
  0xed,
  0xba,
  0x03,
  0x76,
  0x35,
  0x39,
  0xb8,
  0x27,
  0xe5,
  0xc6,
  0x09,
  0x34,
  0xa7,
  0xde,
  0xa8,
  0x82,
  0x1d,
  0x14,
  0x9c,
  0xe5,
  0x07,
  0xb1,
  0xd8,
  0x32,
  0x76,
  0x9b,
  0x43,
  0x04,
  0xfb,
  0x09,
  0xb8,
  0x7b,
  0x8f,
  0x68,
  0x3c,
  0xf2,
  0x63,
  0xc3,
  0x63,
  0xb8,
  0xe9,
  0xda,
  0x02,
  0x06,
  0x54,
  0xd2,
  0x2b,
  0x93,
  0x1e,
  0x3f,
  0xb4,
  0xfc,
  0x86,
  0x25,
  0xdc,
  0x10,
  0x66,
  0x87,
  0x57,
  0x00,
  0xff,
  0x08,
  0x70,
  0x53,
  0xdd,
  0x49,
  0x89,
  0xf4,
  0x5f,
  0x6f,
  0x24,
  0x58,
  0x6d,
  0x8a,
  0x02,
  0xf9,
  0xab,
  0x2d,
  0xd4,
  0x6c,
  0xe1,
  0xc0,
  0x6b,
  0x0a,
  0x78,
  0xda,
  0x23,
  0xed,
  0x89,
  0x78,
  0xa8,
  0xff,
  0x04,
  0xf7,
  0x07,
  0xac,
  0x22,
  0xb6,
  0x76,
  0x0b,
  0xa0,
  0x90,
  0xda,
  0xe7,
  0x92,
  0x65,
  0x0d,
  0x25,
  0x3a,
  0xfa,
  0x0e,
  0x34,
  0xc2,
  0xc8,
  0xb4,
  0x9d,
  0xb5,
  0x71,
  0x55,
  0x15,
  0x27,
  0xda,
  0x89,
  0xec,
  0xf1,
  0x37,
  0xcd,
  0x27,
  0xb5,
  0xbd,
  0x4c,
  0x52,
  0x41,
  0x56,
  0xef,
  0x61,
  0xba,
  0x77,
  0x0b,
  0xec,
  0x0f,
  0x5d,
  0x5d,
  0x20,
  0xcd,
  0xe6,
  0xa7,
  0x7e,
  0xa6,
  0xc8,
  0x63,
  0x78,
  0xb0,
  0x15,
  0xc4,
  0x88,
  0x36,
  0x8f,
  0x7b,
  0x8d,
  0x45,
  0x0f,
  0x2e,
  0xda,
  0x2e,
  0xd9,
  0xb4,
  0x81,
  0x31,
  0x96,
  0x05,
  0x60,
  0x5d,
  0xa2,
  0x9b,
  0x36,
  0x85,
  0xd4,
  0x94,
  0x98,
  0xb5,
  0x6b,
  0xd0,
  0x87,
  0x45,
  0xdf,
  0xa2,
  0x4e,
  0x50,
  0xa2,
  0xaa,
  0x1c,
  0x5a,
  0xae,
  0x2e,
  0xd4,
  0x4c,
  0x0a,
  0xb6,
  0xba,
  0xbf,
  0x2f,
  0x05,
  0x76,
  0x0f,
  0x56,
  0x1f,
  0xc2,
  0x94,
  0x75,
  0xeb,
  0xe7,
  0xb8,
  0xb9,
  0xbe,
  0xde,
  0x51,
  0xe0,
  0x9f,
  0x59,
  0xad,
  0xa5,
  0x2c,
  0x13,
  0x05,
  0x37,
  0xd7,
  0x31,
  0x1d,
  0xb2,
  0x4f,
  0xb2,
  0x19,
  0xfb,
  0x0a,
  0x0f,
  0xd5,
  0x62,
  0xb2,
  0x67,
  0xc5,
  0x2f,
  0x09,
  0xdb,
  0x86,
  0xb6,
  0x81,
  0x07,
  0xee,
  0x98,
  0xee,
  0xe4,
  0x31,
  0xed,
  0xba,
  0x03,
  0x7e,
  0x35,
  0x39,
  0x78,
  0x27,
  0xe5,
  0xc6,
  0xfd,
  0x7a,
  0xeb,
  0x09,
  0xa6,
  0x82,
  0x1d,
  0xd4,
  0x9c,
  0xe5,
  0x07,
  0xba,
  0xd8,
  0x32,
  0xe6,
  0x9b,
  0x43,
  0x04,
  0xfc,
  0x09,
  0xb8,
  0xfb,
  0x8f,
  0x68,
  0x3c,
  0xf0,
  0x63,
  0xc3,
  0x93,
  0xb8,
  0xe9,
  0xda,
  0xb1,
  0x77,
  0x10,
  0x07,
  0x2a,
  0x93,
  0x1e,
  0xdf,
  0xb4,
  0xfc,
  0x86,
  0x2b,
  0xdc,
  0x10,
  0xa6,
  0x87,
  0x57,
  0x00,
  0xfc,
  0x08,
  0x70,
  0x13,
  0xdd,
  0x49,
  0x89,
  0xf2,
  0x5f,
  0x6f,
  0x14,
  0x58,
  0x6d,
  0x8a,
  0xbf,
  0x37,
  0xfa,
  0x0b,
  0xd1,
  0x6c,
  0xe1,
  0x20,
  0x6b,
  0x0a,
  0x78,
  0xd4,
  0x23,
  0xed,
  0x59,
  0x78,
  0xa8,
  0xff,
  0x03,
  0xf7,
  0x07,
  0x8c,
  0x22,
  0xb6,
  0x76,
  0x0d,
  0xa0,
  0x90,
  0x6a,
  0xe7,
  0x92,
  0x65,
  0x50,
  0xc8,
  0x15,
  0x04,
  0xa6,
  0x7b,
  0xb7,
  0x4a,
  0x1d,
  0x13,
  0x0a,
  0x68,
  0x94,
  0xf6,
  0xf5,
  0x55,
  0x59,
  0xba,
  0x62,
  0x1f,
  0xbd,
  0xa4,
  0xab,
  0x47,
  0xf6,
  0x78,
  0x22,
  0x3c,
  0xa1,
  0x56,
  0x77,
  0x36,
  0x51,
  0xbf,
  0x4b,
  0x06,
  0x18,
  0x63,
  0x59,
  0xbf,
  0x49,
  0x85,
  0x37,
  0x52,
  0x94,
  0xd6,
  0xba,
  0xce,
  0x96,
  0x5c,
  0xbf,
  0x74,
  0x3a,
  0xdb,
  0x75,
  0x72,
  0x94,
  0x8a,
  0xf6,
  0x17,
  0xa3,
  0x72,
  0x05,
  0x4c,
  0xe2,
  0x1b,
  0x08,
  0x06,
  0xfb,
  0xfb,
  0x52,
  0x2e,
  0x3c,
  0xf5,
  0x5d,
  0xb2,
  0x5c,
  0xb3,
  0x8a,
  0x49,
  0x38,
  0xa4,
  0x02,
  0x06,
  0xe9,
  0x14,
  0xf6,
  0xb6,
  0xb4,
  0xb9,
  0xf0,
  0x72,
  0xcf,
  0x63,
  0x81,
  0xc5,
  0x53,
  0xd5,
  0x5d,
  0x09,
  0x9b,
  0xb1,
  0xaf,
  0x19,
  0xee,
  0x07,
  0xf0,
  0xc3,
  0x65,
  0x72,
  0xac,
  0x2b,
  0x89,
  0x91,
  0x7a,
  0xbf,
  0x68,
  0x0b,
  0x1c,
  0xd0,
  0x14,
  0xe3,
  0x65,
  0xd1,
  0x69,
  0xa7,
  0x47,
  0xb4,
  0xec,
  0x75,
  0x42,
  0x02,
  0xaf,
  0xb7,
  0x9e,
  0x90,
  0xa7,
  0x11,
  0x3e,
  0xfa,
  0xdb,
  0xce,
  0xad,
  0x1c,
  0xf2,
  0xbc,
  0x41,
  0x60,
  0x9c,
  0xea,
  0x84,
  0x12,
  0x7b,
  0xf7,
  0x64,
  0xf0,
  0xde,
  0xae,
  0x20,
  0xf0,
  0x55,
  0xb7,
  0x8c,
  0x0a,
  0x7b,
  0x07,
  0x71,
  0xe9,
  0x83,
  0x69,
  0x0a,
  0x7d,
  0x85,
  0xf4,
  0x19,
  0x2b,
  0xaf,
  0x37,
  0x6c,
  0x32,
  0xfb,
  0xc2,
  0xf6,
  0x7f,
  0x16,
  0x3c,
  0x3c,
  0x99,
  0x00,
  0xa8,
  0xa8,
  0x0d,
  0x4b,
  0x28,
  0x14,
  0x0a,
  0x7b,
  0xa3,
  0xbf,
  0xc1,
  0x83,
  0x03,
  0x9c,
  0xec,
  0xe0,
  0xec,
  0x39,
  0x3c,
  0xae,
  0x1f,
  0x59,
  0x20,
  0xce,
  0xd5,
  0x94,
  0x82,
  0x56,
  0xd8,
  0xe4,
  0xe9,
  0x46,
  0x82,
  0x29,
  0xbd,
  0x05,
  0x21,
  0x06,
  0x0a,
  0x85,
  0x5c,
  0x41,
  0x16,
  0x7c,
  0xf6,
  0x63,
  0x03,
  0x3e,
  0x13,
  0xc6,
  0xc3,
  0x51,
  0xe0,
  0xb6,
  0xdf,
  0x31,
  0x2b,
  0x2b,
  0x7d,
  0xa9,
  0x27,
  0x1b,
  0x06,
  0xb9,
  0x7d,
  0x56,
  0x42,
  0xb2,
  0xdf,
  0xf9,
  0x05,
  0x41,
  0x1d,
  0x13,
  0x3a,
  0x68,
  0x94,
  0xf6,
  0xfc,
  0x55,
  0x59,
  0x1a,
  0x62,
  0x1f,
  0xbd,
  0xa2,
  0xab,
  0x47,
  0x76,
  0x78,
  0x22,
  0x3c,
  0xae,
  0x56,
  0x77,
  0x76,
  0x51,
  0xbf,
  0x4b,
  0xe6,
  0x7a,
  0xaf,
  0x04,
  0xb1,
  0x49,
  0x85,
  0x77,
  0x52,
  0x94,
  0xd6,
  0xb8,
  0xce,
  0x96,
  0x6c,
  0xbf,
  0x74,
  0x3a,
  0xdf,
  0x75,
  0x72,
  0xa4,
  0x8a,
  0xf6,
  0x17,
  0xa0,
  0x72,
  0x05,
  0x7c,
  0xe2,
  0x1b,
  0x08,
  0x92,
  0x87,
  0x49,
  0x08,
  0x22,
  0x3c,
  0xf5,
  0x3d,
  0xb2,
  0x5c,
  0xb3,
  0x8a,
  0x49,
  0x38,
  0x34,
  0x02,
  0x06,
  0xe9,
  0x17,
  0xf6,
  0xb6,
  0xd4,
  0xb9,
  0xf0,
  0x72,
  0xca,
  0x63,
  0x81,
  0x15,
  0x53,
  0xd5,
  0x5d,
  0x06,
  0x05,
  0xd3,
  0x06,
  0x15,
  0xee,
  0x07,
  0xb0,
  0xc3,
  0x65,
  0x72,
  0xa4,
  0x2b,
  0x89,
  0x61,
  0x7a,
  0xbf,
  0x68,
  0x0f,
  0x1c,
  0xd0,
  0xa4,
  0xe3,
  0x65,
  0xd1,
  0x6e,
  0xa7,
  0x47,
  0xf4,
  0xec,
  0x75,
  0x42,
  0x66,
  0xc0,
  0x87,
  0x09,
  0x98,
  0xa7,
  0x11,
  0x1e,
  0xfa,
  0xdb,
  0xce,
  0xad,
  0x1c,
  0xf2,
  0x1c,
  0x41,
  0x60,
  0x9c,
  0xef,
  0x84,
  0x12,
  0x3b,
  0xf7,
  0x64,
  0xf0,
  0xd0,
  0xae,
  0x20,
  0x70,
  0x55,
  0xb7,
  0x8c,
  0x18,
  0x57,
  0x7d,
  0x00,
  0xea,
  0x83,
  0x69,
  0x2a,
  0x7d,
  0x85,
  0xf4,
  0x10,
  0x2b,
  0xaf,
  0x27,
  0x6c,
  0x32,
  0xfb,
  0xc2,
  0xf6,
  0x7f,
  0xf6,
  0x3c,
  0x3c,
  0x99,
  0x0a,
  0xa8,
  0xa8,
  0x0d,
  0x4b,
  0x28,
  0x14,
  0x4d,
  0xff,
  0x95,
  0x07,
  0xca,
  0x83,
  0x03,
  0x3c,
  0xec,
  0xe0,
  0xec,
  0x30,
  0x3c,
  0xae,
  0x2f,
  0x59,
  0x20,
  0xce,
  0xd4,
  0x94,
  0x82,
  0xa6,
  0xd8,
  0xe4,
  0xe9,
  0x40,
  0x82,
  0x29,
  0xbd,
  0x05,
  0x21,
  0x06,
  0x6e,
  0xaf,
  0x19,
  0x0f,
  0x15,
  0x7c,
  0xf6,
  0xc3,
  0x03,
  0x3e,
  0x13,
  0xcf,
  0xc3,
  0x51,
  0xd0,
  0xb6,
  0xdf,
  0x31,
  0x29,
  0x2b,
  0x7d,
  0x59,
  0x27,
  0x1b,
  0x06,
  0xbf,
  0x7d,
  0x56,
  0xc2,
  0xb2,
  0xdf,
  0xf9,
  0x91,
  0x10,
  0xe2,
  0x00,
  0xae,
  0xf7,
  0x4a,
  0xe1,
  0xf4,
  0x32,
  0x69,
  0xd1,
  0x55,
  0x2d,
  0x6a,
  0x65,
  0xdd,
  0x79,
  0xa7,
  0x60,
  0x3c,
  0xa3,
  0xa6,
  0x69,
  0xe7,
  0x33,
  0xb5,
  0x65,
  0xc4,
  0x2d,
  0x61,
  0x01,
  0x3a,
  0x7d,
  0xcb,
  0x0c,
  0x79,
  0x98,
  0x84,
  0x61,
  0xde,
  0x84,
  0xa5,
  0xcd,
  0x81,
  0xad,
  0x17,
  0x86,
  0x7b,
  0x55,
  0xa4,
  0x1e,
  0x96,
  0x1b,
  0xd5,
  0x0a,
  0x5c,
  0xde,
  0x1f,
  0x8a,
  0xe5,
  0x28,
  0x78,
  0xcc,
  0x1f,
  0x2c,
  0xa5,
  0x09,
  0x50,
  0x30,
  0x6d,
  0x4d,
  0xab,
  0x5d,
  0xe8,
  0x72,
  0x0e,
  0xcb,
  0xab,
  0x21,
  0xbe,
  0xd5,
  0x1e,
  0x3a,
  0x1b,
  0x96,
  0xb7,
  0xf1,
  0x2b,
  0x58,
  0x1b,
  0xa6,
  0x35,
  0x5e,
  0xce,
  0x73,
  0x7d,
  0xe1,
  0x8c,
  0x09,
  0x06,
  0x7c,
  0x98,
  0xce,
  0x24,
  0x0f,
  0x9a,
  0x7b,
  0x3b,
  0x34,
  0x76,
  0x20,
  0xf9,
  0x42,
  0xc5,
  0x88,
  0xc3,
  0xad,
  0x67,
  0x35,
  0x68,
  0x63,
  0x89,
  0x7e,
  0xdc,
  0x55,
  0x38,
  0x18,
  0x14,
  0x96,
  0xa6,
  0x05,
  0x71,
  0xd5,
  0x07,
  0xc1,
  0x60,
  0x02,
  0xa7,
  0xdb,
  0xaa,
  0x07,
  0x94,
  0x11,
  0x05,
  0xe6,
  0x0d,
  0xa3,
  0xdd,
  0xde,
  0xdc,
  0x04,
  0xc9,
  0x44,
  0x76,
  0x26,
  0x7b,
  0xca,
  0xfd,
  0xe5,
  0x99,
  0xcb,
  0xf1,
  0x07,
  0xf4,
  0x5f,
  0x79,
  0x56,
  0x4c,
  0x3b,
  0x00,
  0x85,
  0xa9,
  0x12,
  0x64,
  0x9a,
  0x74,
  0xb9,
  0xb7,
  0xd4,
  0x04,
  0xc7,
  0x04,
  0xf3,
  0x0c,
  0x2d,
  0xfe,
  0x09,
  0xa0,
  0xee,
  0x09,
  0xe6,
  0xf3,
  0x5a,
  0xb5,
  0x00,
  0xf6,
  0x9a,
  0xf1,
  0x66,
  0x68,
  0x13,
  0xa6,
  0xb7,
  0x89,
  0x56,
  0x4c,
  0x91,
  0x30,
  0xba,
  0x3c,
  0x51,
  0x64,
  0xee,
  0x8e,
  0x27,
  0x4e,
  0xf7,
  0x7f,
  0x04,
  0x22,
  0x63,
  0x69,
  0x4c,
  0xa4,
  0x90,
  0xc5,
  0x0a,
  0x09,
  0x21,
  0x0e,
  0x99,
  0x97,
  0xec,
  0x59,
  0x48,
  0x76,
  0xe9,
  0xb3,
  0x6e,
  0xcf,
  0x05,
  0xc3,
  0x2e,
  0x9b,
  0x31,
  0x71,
  0xd8,
  0xb3,
  0x8a,
  0x80,
  0xfb,
  0xdd,
  0x9d,
  0x96,
  0xb3,
  0x4b,
  0x67,
  0x1a,
  0x0d,
  0xe6,
  0xf4,
  0x32,
  0x59,
  0xd1,
  0x55,
  0x2d,
  0x62,
  0x65,
  0xdd,
  0x39,
  0xa7,
  0x60,
  0x3c,
  0xa7,
  0xa6,
  0x69,
  0x47,
  0x33,
  0xb5,
  0x65,
  0xce,
  0x2d,
  0x61,
  0x91,
  0x3a,
  0x7d,
  0xcb,
  0xd0,
  0x4e,
  0x3c,
  0x00,
  0x62,
  0xde,
  0x84,
  0xc5,
  0xcd,
  0x81,
  0xad,
  0x19,
  0x86,
  0x7b,
  0xc5,
  0xa4,
  0x1e,
  0x96,
  0x17,
  0xd5,
  0x0a,
  0x8c,
  0xde,
  0x1f,
  0x8a,
  0xec,
  0x28,
  0x78,
  0xcc,
  0x1f,
  0x2c,
  0xa5,
  0xf0,
  0xd4,
  0x00,
  0x09,
  0x4f,
  0xab,
  0x5d,
  0x58,
  0x72,
  0x0e,
  0xcb,
  0xa1,
  0x21,
  0xbe,
  0x15,
  0x1e,
  0x3a,
  0x1b,
  0x9f,
  0xb7,
  0xf1,
  0x3b,
  0x58,
  0x1b,
  0xa6,
  0x3e,
  0x5e,
  0xce,
  0x13,
  0x7d,
  0xe1,
  0x8c,
  0xca,
  0x86,
  0x84,
  0x0d,
  0xc6,
  0x24,
  0x0f,
  0x6a,
  0x7b,
  0x3b,
  0x34,
  0x7d,
  0x20,
  0xf9,
  0x32,
  0xc5,
  0x88,
  0xc3,
  0xae,
  0x67,
  0x35,
  0x08,
  0x63,
  0x89,
  0x7e,
  0xd7,
  0x55,
  0x38,
  0x48,
  0x14,
  0x96,
  0xa6,
  0xc8,
  0xff,
  0xa6,
  0x03,
  0xc8,
  0x60,
  0x02,
  0x67,
  0xdb,
  0xaa,
  0x07,
  0x91,
  0x11,
  0x05,
  0x36,
  0x0d,
  0xa3,
  0xdd,
  0xd9,
  0xdc,
  0x04,
  0xc9,
  0x44,
  0x76,
  0x26,
  0x7b,
  0xca,
  0xfd,
  0x25,
  0x99,
  0xcb,
  0xf1,
  0xdb,
  0xc0,
  0x0a,
  0x08,
  0x58,
  0x4c,
  0x3b,
  0xe0,
  0x85,
  0xa9,
  0x12,
  0x69,
  0x9a,
  0x74,
  0xb9,
  0xb7,
  0xd4,
  0x04,
  0xc9,
  0x04,
  0xf3,
  0x1c,
  0x2d,
  0xfe,
  0x09,
  0xaa,
  0xee,
  0x09,
  0x56,
  0xf3,
  0x5a,
  0xb5,
  0x5e,
  0x70,
  0x49,
  0x0f,
  0x6a,
  0x68,
  0x13,
  0xf6,
  0xb7,
  0x89,
  0x56,
  0x45,
  0x91,
  0x30,
  0x8a,
  0x3c,
  0x51,
  0x64,
  0xe1,
  0x8e,
  0x27,
  0x9e,
  0xf7,
  0x7f,
  0x04,
  0x2a,
  0x63,
  0x69,
  0x0c,
  0xa4,
  0x90,
  0xc5,
  0xdb,
  0x70,
  0x0d,
  0x0e,
  0x95,
  0x97,
  0xec,
  0x09,
  0x48,
  0x76,
  0xe9,
  0xba,
  0x6e,
  0xcf,
  0x65,
  0xc3,
  0x2e,
  0x9b,
  0x3e,
  0x71,
  0xd8,
  0x63,
  0x8a,
  0x80,
  0xfb,
  0xd5,
  0x9d,
  0x96,
  0xf3,
  0x4b,
  0x67,
  0x1a,
  0x24,
  0x8b,
  0xf2,
  0x01,
  0xed,
  0xc4,
  0x03,
  0xd6,
  0x14,
  0xe1,
  0x4d,
  0x76,
  0xec,
  0x5f,
  0x23,
  0x00,
  0xed,
  0xa2,
  0xc3,
  0xc7,
  0xd6,
  0x37,
  0x2f,
  0x64,
  0x59,
  0x72,
  0x95,
  0xd9,
  0x50,
  0x8e,
  0x49,
  0x8c,
  0x05,
  0x48,
  0xa1,
  0x03,
  0x4f,
  0x0d,
  0x90,
  0xb6,
  0xb8,
  0xc1,
  0x67,
  0xd1,
  0x66,
  0x05,
  0x67,
  0x7b,
  0xc8,
  0xab,
  0x26,
  0x20,
  0x08,
  0xd9,
  0x0c,
  0xc1,
  0x30,
  0x3c,
  0xbb,
  0xb2,
  0x3a,
  0xef,
  0x4c,
  0x2c,
  0x2c,
  0xb2,
  0xf8,
  0x0b,
  0x6c,
  0x48,
  0xd8,
  0x3b,
  0xc2,
  0x2c,
  0xb5,
  0xa8,
  0xe6,
  0x6c,
  0x96,
  0xbd,
  0x88,
  0x58,
  0xc7,
  0x90,
  0xc3,
  0x91,
  0xbb,
  0xdb,
  0xc3,
  0x2b,
  0xf5,
  0xd7,
  0xb5,
  0x0e,
  0x2e,
  0x37,
  0x19,
  0xb5,
  0xff,
  0x00,
  0xfc,
  0x6f,
  0x3a,
  0xa6,
  0x1f,
  0x8f,
  0xdc,
  0xd6,
  0x40,
  0x2c,
  0x34,
  0x49,
  0xa4,
  0x24,
  0xbe,
  0x1a,
  0xaa,
  0x54,
  0xf0,
  0x6f,
  0x4d,
  0x47,
  0x05,
  0x8f,
  0xb2,
  0x51,
  0x2e,
  0x48,
  0xec,
  0x10,
  0x00,
  0x03,
  0x0d,
  0xac,
  0x80,
  0x62,
  0x70,
  0x81,
  0x0b,
  0x53,
  0x08,
  0xc5,
  0x72,
  0xda,
  0x83,
  0x55,
  0xfd,
  0xc5,
  0x64,
  0x01,
  0x98,
  0x0f,
  0xe4,
  0xf8,
  0x36,
  0xc0,
  0x74,
  0x12,
  0x3b,
  0x0e,
  0xad,
  0x1a,
  0xfd,
  0x07,
  0x05,
  0x97,
  0xf4,
  0x3b,
  0xac,
  0x1a,
  0x9a,
  0xc2,
  0xb3,
  0xed,
  0x34,
  0xf8,
  0x33,
  0x2b,
  0x3b,
  0x2b,
  0xfc,
  0xb9,
  0x91,
  0x7a,
  0x00,
  0xd1,
  0x20,
  0x48,
  0x89,
  0x18,
  0xd4,
  0xff,
  0xfb,
  0x1b,
  0xda,
  0x06,
  0x0d,
  0xd7,
  0xe0,
  0x3a,
  0xcd,
  0x48,
  0xd4,
  0xc3,
  0x0e,
  0x2f,
  0x76,
  0xfa,
  0x2a,
  0x08,
  0x3f,
  0x14,
  0xec,
  0xa9,
  0x5f,
  0x7c,
  0x0c,
  0x56,
  0x60,
  0x00,
  0x89,
  0x26,
  0x86,
  0x9e,
  0xfb,
  0x8e,
  0xca,
  0x04,
  0xb2,
  0x28,
  0x1f,
  0xc5,
  0x32,
  0xb7,
  0x2f,
  0x3c,
  0xf1,
  0x50,
  0xc9,
  0x05,
  0xd5,
  0xf7,
  0xc0,
  0xeb,
  0x13,
  0x56,
  0x24,
  0x83,
  0xf3,
  0x2a,
  0x9f,
  0xf7,
  0x76,
  0xdd,
  0xf9,
  0x21,
  0x04,
  0x61,
  0x35,
  0x0b,
  0xd7,
  0x14,
  0xe1,
  0xcd,
  0x76,
  0xec,
  0x5f,
  0x27,
  0x00,
  0xed,
  0x22,
  0xc3,
  0xc7,
  0xd6,
  0x33,
  0x2f,
  0x64,
  0x29,
  0x72,
  0x95,
  0xd9,
  0x58,
  0x8e,
  0x49,
  0x0c,
  0x05,
  0x48,
  0xa1,
  0xea,
  0xb0,
  0x84,
  0x0a,
  0xba,
  0xb8,
  0xc1,
  0xb7,
  0xd1,
  0x66,
  0x05,
  0x60,
  0x7b,
  0xc8,
  0xdb,
  0x26,
  0x20,
  0x08,
  0xde,
  0x0c,
  0xc1,
  0x00,
  0x3c,
  0xbb,
  0xb2,
  0x3f,
  0xef,
  0x4c,
  0xac,
  0x2c,
  0xb2,
  0xf8,
  0xaf,
  0x7f,
  0x59,
  0x0c,
  0x33,
  0xc2,
  0x2c,
  0xe5,
  0xa8,
  0xe6,
  0x6c,
  0x99,
  0xbd,
  0x88,
  0x38,
  0xc7,
  0x90,
  0xc3,
  0x9a,
  0xbb,
  0xdb,
  0x73,
  0x2b,
  0xf5,
  0xd7,
  0xb9,
  0x0e,
  0x2e,
  0x87,
  0x19,
  0xb5,
  0xff,
  0xc2,
  0x01,
  0xf4,
  0x0c,
  0xad,
  0x1f,
  0x8f,
  0x1c,
  0xd6,
  0x40,
  0x2c,
  0x3a,
  0x49,
  0xa4,
  0x84,
  0xbe,
  0x1a,
  0xaa,
  0x5b,
  0xf0,
  0x6f,
  0xad,
  0x47,
  0x05,
  0x8f,
  0xbf,
  0x51,
  0x2e,
  0xc8,
  0xec,
  0x10,
  0x00,
  0x08,
  0xe1,
  0x4f,
  0x05,
  0x6a,
  0x70,
  0x81,
  0x9b,
  0x53,
  0x08,
  0xc5,
  0x7b,
  0xda,
  0x83,
  0x75,
  0xfd,
  0xc5,
  0x64,
  0x0f,
  0x98,
  0x0f,
  0x24,
  0xf8,
  0x36,
  0xc0,
  0x78,
  0x12,
  0x3b,
  0xde,
  0xad,
  0x1a,
  0xfd,
  0xa8,
  0xca,
  0x66,
  0x06,
  0x3e,
  0xac,
  0x1a,
  0x1a,
  0xc2,
  0xb3,
  0xed,
  0x30,
  0xf8,
  0x33,
  0x6b,
  0x3b,
  0x2b,
  0xfc,
  0xb8,
  0x91,
  0x7a,
  0xa0,
  0xd1,
  0x20,
  0x48,
  0x87,
  0x18,
  0xd4,
  0xbf,
  0xfb,
  0x1b,
  0xda,
  0xb0,
  0x74,
  0x69,
  0x06,
  0x3e,
  0xcd,
  0x48,
  0xb4,
  0xc3,
  0x0e,
  0x2f,
  0x7c,
  0xfa,
  0x2a,
  0x58,
  0x3f,
  0x14,
  0xec,
  0xaf,
  0x5f,
  0x7c,
  0x2c,
  0x56,
  0x60,
  0x00,
  0x8f,
  0x26,
  0x86,
  0x3e,
  0xfb,
  0x8e,
  0xca,
  0xd4,
  0x6d,
  0x0b,
  0x02,
  0xc1,
  0x32,
  0xb7,
  0x4f,
  0x3c,
  0xf1,
  0x50,
  0xc3,
  0x05,
  0xd5,
  0xa7,
  0xc0,
  0xeb,
  0x13,
  0x50,
  0x24,
  0x83,
  0xd3,
  0x2a,
  0x9f,
  0xf7,
  0x70,
  0xdd,
  0xf9,
  0x41,
  0x04,
  0x61,
  0x35,
  0x2f,
  0xb2,
  0xb4,
  0x09,
  0x0e,
  0x4b,
  0xa8,
  0x49,
  0x3c,
  0x02,
  0xdc,
  0x57,
  0xb3,
  0x32,
  0x40,
  0x00,
  0x4d,
  0x42,
  0xf1,
  0x34,
  0x1d,
  0x22,
  0x14,
  0xa7,
  0x73,
  0xe3,
  0x7f,
  0xf6,
  0xe5,
  0xb2,
  0x13,
  0x9b,
  0x6d,
  0x9f,
  0xb2,
  0x0a,
  0xfa,
  0x97,
  0xc5,
  0xd1,
  0xd1,
  0x39,
  0x98,
  0xf3,
  0xdd,
  0x54,
  0x09,
  0x4f,
  0xf8,
  0xcb,
  0xfb,
  0x4b,
  0x20,
  0x1e,
  0x91,
  0x33,
  0x43,
  0xe3,
  0xe9,
  0x6a,
  0x30,
  0x46,
  0xe0,
  0x1a,
  0x0c,
  0x3e,
  0x33,
  0x0c,
  0x1c,
  0x40,
  0xcf,
  0xec,
  0x7c,
  0x0f,
  0x31,
  0x29,
  0x73,
  0x94,
  0x05,
  0x75,
  0xc7,
  0x03,
  0x94,
  0xfd,
  0x8e,
  0x31,
  0xce,
  0x94,
  0x10,
  0x12,
  0x14,
  0x6f,
  0xd2,
  0x7a,
  0x45,
  0xb2,
  0xb1,
  0x9a,
  0xe9,
  0x0c,
  0x10,
  0xfe,
  0x54,
  0x7d,
  0xb6,
  0x5c,
  0xf8,
  0x72,
  0x52,
  0xca,
  0xd3,
  0x74,
  0xc7,
  0xd8,
  0x97,
  0x20,
  0x94,
  0x5a,
  0x80,
  0x05,
  0xf1,
  0x47,
  0x47,
  0xc1,
  0xf9,
  0x6d,
  0x6d,
  0xb7,
  0xe9,
  0x67,
  0x7f,
  0x02,
  0xaa,
  0x6c,
  0x66,
  0xeb,
  0xa6,
  0x5f,
  0x61,
  0x53,
  0xf9,
  0x21,
  0x98,
  0x93,
  0x17,
  0x62,
  0xda,
  0xf5,
  0x24,
  0x93,
  0xec,
  0x2b,
  0x2c,
  0xad,
  0x6e,
  0x62,
  0xb3,
  0x2b,
  0xe7,
  0x22,
  0x75,
  0x97,
  0xe2,
  0x0a,
  0x4b,
  0x97,
  0x66,
  0x0a,
  0x0e,
  0x39,
  0xfa,
  0xaf,
  0x22,
  0xf7,
  0x5b,
  0xa0,
  0x9d,
  0xb0,
  0xf2,
  0x28,
  0x8b,
  0x0b,
  0x68,
  0x71,
  0x1d,
  0x2e,
  0xb4,
  0x6c,
  0x21,
  0xf6,
  0xaa,
  0x73,
  0x6e,
  0xc5,
  0xc5,
  0x04,
  0xdd,
  0xb6,
  0x20,
  0xae,
  0x07,
  0x39,
  0x72,
  0xaa,
  0x44,
  0x7f,
  0xd9,
  0xc3,
  0x29,
  0x53,
  0xdb,
  0xa0,
  0x9b,
  0x1e,
  0xf2,
  0x73,
  0x8d,
  0x28,
  0x66,
  0x6a,
  0x87,
  0x6b,
  0xc1,
  0x93,
  0xe8,
  0xcf,
  0xc4,
  0x08,
  0x22,
  0x4b,
  0x9b,
  0x51,
  0xf8,
  0xc6,
  0x8d,
  0x55,
  0x1f,
  0x88,
  0xa6,
  0x0c,
  0xd2,
  0xac,
  0x24,
  0xdf,
  0x74,
  0xe1,
  0x05,
  0x8c,
  0x72,
  0xd5,
  0x99,
  0x95,
  0x5c,
  0x94,
  0x3e,
  0x4c,
  0x17,
  0x30,
  0x3b,
  0x07,
  0x4e,
  0x3c,
  0x02,
  0x2c,
  0x57,
  0xb3,
  0x32,
  0x45,
  0x00,
  0x4d,
  0xb2,
  0xf1,
  0x34,
  0x1d,
  0x2f,
  0x14,
  0xa7,
  0x03,
  0xe3,
  0x7f,
  0xf6,
  0xe0,
  0xb2,
  0x13,
  0x5b,
  0x6d,
  0x9f,
  0xb2,
  0xc4,
  0xc0,
  0x2e,
  0x03,
  0xd0,
  0xd1,
  0x39,
  0x08,
  0xf3,
  0xdd,
  0x54,
  0x06,
  0x4f,
  0xf8,
  0xeb,
  0xfb,
  0x4b,
  0x20,
  0x1c,
  0x91,
  0x33,
  0xb3,
  0xe3,
  0xe9,
  0x6a,
  0x3f,
  0x46,
  0xe0,
  0x1a,
  0x0c,
  0x3e,
  0x33,
  0xcf,
  0xe5,
  0xd6,
  0x0f,
  0xe3,
  0x7c,
  0x0f,
  0xf1,
  0x29,
  0x73,
  0x94,
  0x05,
  0x75,
  0xc7,
  0xb3,
  0x94,
  0xfd,
  0x8e,
  0x3d,
  0xce,
  0x94,
  0x40,
  0x12,
  0x14,
  0x6f,
  0xd5,
  0x7a,
  0x45,
  0x02,
  0xb1,
  0x9a,
  0xe9,
  0xed,
  0x9e,
  0x63,
  0x03,
  0x75,
  0xb6,
  0x5c,
  0x38,
  0x72,
  0x52,
  0xca,
  0xd5,
  0x74,
  0xc7,
  0xd8,
  0x97,
  0x20,
  0x94,
  0x5c,
  0x80,
  0x05,
  0x81,
  0x47,
  0x47,
  0xc1,
  0xf0,
  0x6d,
  0x6d,
  0x47,
  0xe9,
  0x67,
  0x7f,
  0x6c,
  0x70,
  0x62,
  0x09,
  0xe8,
  0xa6,
  0x5f,
  0x81,
  0x53,
  0xf9,
  0x21,
  0x98,
  0x93,
  0x17,
  0xc2,
  0xda,
  0xf5,
  0x24,
  0x9d,
  0xec,
  0x2b,
  0xcc,
  0xad,
  0x6e,
  0x62,
  0xb6,
  0x2b,
  0xe7,
  0x62,
  0x75,
  0x97,
  0xe2,
  0x45,
  0x97,
  0x9a,
  0x02,
  0x0d,
  0x0e,
  0x39,
  0x5a,
  0xaf,
  0x22,
  0xf7,
  0x5b,
  0xa0,
  0x9d,
  0xf0,
  0xf2,
  0x28,
  0x8b,
  0x02,
  0x68,
  0x71,
  0xfd,
  0x2e,
  0xb4,
  0x6c,
  0x20,
  0xf6,
  0xaa,
  0xf3,
  0x6e,
  0xc5,
  0xc5,
  0x4d,
  0x12,
  0x83,
  0x0f,
  0xa5,
  0x07,
  0x39,
  0x82,
  0xaa,
  0x44,
  0x7f,
  0xd8,
  0xc3,
  0x29,
  0x63,
  0xdb,
  0xa0,
  0x9b,
  0x1b,
  0xf2,
  0x73,
  0xcd,
  0x28,
  0x66,
  0x6a,
  0x86,
  0x6b,
  0xc1,
  0xe3,
  0xe8,
  0xcf,
  0xc4,
  0x4d,
  0x1e,
  0x50,
  0x03,
  0x5a,
  0xf8,
  0xc6,
  0x7d,
  0x55,
  0x1f,
  0x88,
  0xa7,
  0x0c,
  0xd2,
  0x9c,
  0x24,
  0xdf,
  0x74,
  0xe4,
  0x05,
  0x8c,
  0x32,
  0xd5,
  0x99,
  0x95,
  0x5d,
  0x94,
  0x3e,
  0x1c,
  0x17,
  0x30,
  0x3b,
  0xb2,
  0xe1,
  0x2d,
  0x0c,
  0x0c,
  0xec,
  0x32,
  0xc0,
  0x9a,
  0x61,
  0x98,
  0x05,
  0xa7,
  0xec,
  0x40,
  0x64,
  0xda,
  0x15,
  0x65,
  0x09,
  0xed,
  0xe6,
  0xaf,
  0x91,
  0x1c,
  0x65,
  0x9c,
  0x61,
  0x07,
  0xe0,
  0xd3,
  0x72,
  0xd5,
  0x0a,
  0x39,
  0x0e,
  0x5c,
  0x6e,
  0xfd,
  0xa5,
  0x51,
  0x45,
  0x47,
  0xde,
  0xbc,
  0x71,
  0x43,
  0xaf,
  0x4c,
  0x82,
  0xa5,
  0x63,
  0x70,
  0x77,
  0x24,
  0x50,
  0x73,
  0xad,
  0xf3,
  0xe9,
  0xf5,
  0x94,
  0xfd,
  0x67,
  0x4f,
  0x66,
  0x45,
  0x03,
  0xee,
  0x39,
  0x36,
  0xbd,
  0xea,
  0xbb,
  0xd0,
  0x3a,
  0x2e,
  0x60,
  0x80,
  0xaa,
  0x26,
  0x1f,
  0x57,
  0x36,
  0x30,
  0xe8,
  0x0e,
  0x69,
  0xf1,
  0x29,
  0xa0,
  0x52,
  0x1c,
  0x0a,
  0x3b,
  0xed,
  0x2f,
  0x33,
  0xbb,
  0x02,
  0x06,
  0x27,
  0x96,
  0xf9,
  0x03,
  0x14,
  0x84,
  0xd5,
  0x5c,
  0x5b,
  0x9d,
  0x94,
  0x91,
  0xbc,
  0xae,
  0x8a,
  0xdb,
  0x78,
  0xca,
  0x63,
  0x9f,
  0x47,
  0x4b,
  0x37,
  0x50,
  0xc8,
  0x3e,
  0xd2,
  0xc1,
  0xe3,
  0x56,
  0x0f,
  0x74,
  0xa9,
  0x29,
  0x55,
  0x6f,
  0xf0,
  0xd9,
  0x54,
  0x8b,
  0x39,
  0x86,
  0x2f,
  0x53,
  0xf5,
  0x27,
  0x50,
  0x70,
  0xc6,
  0x31,
  0x48,
  0x87,
  0xef,
  0xe0,
  0x0e,
  0xf6,
  0x73,
  0xf0,
  0xaf,
  0x78,
  0x09,
  0xcb,
  0x06,
  0x24,
  0x31,
  0xf8,
  0xb8,
  0xa1,
  0x84,
  0x9b,
  0x6d,
  0xbf,
  0x57,
  0x64,
  0x57,
  0x17,
  0x76,
  0xb3,
  0x98,
  0x63,
  0xdd,
  0x08,
  0xcc,
  0x97,
  0xa5,
  0xfe,
  0x9d,
  0x3a,
  0x54,
  0x67,
  0x10,
  0x0e,
  0x1b,
  0xf7,
  0x0d,
  0xe4,
  0x01,
  0x35,
  0xf8,
  0xa7,
  0x14,
  0xbb,
  0x04,
  0xf5,
  0x15,
  0x46,
  0xfe,
  0x01,
  0xf0,
  0xe6,
  0x10,
  0x09,
  0xe8,
  0x48,
  0xde,
  0x96,
  0xa1,
  0x2c,
  0x0b,
  0xf3,
  0x2a,
  0xe3,
  0xae,
  0xa8,
  0x03,
  0xdf,
  0x0d,
  0x1b,
  0xde,
  0xc2,
  0x07,
  0x58,
  0xeb,
  0x44,
  0xfb,
  0x02,
  0xea,
  0xb9,
  0x01,
  0xfe,
  0x0f,
  0x19,
  0xef,
  0xfe,
  0x17,
  0xb7,
  0x31,
  0x68,
  0x5e,
  0xd3,
  0xf0,
  0x0c,
  0x87,
  0x1c,
  0x51,
  0xf7,
  0xfc,
  0x28,
  0x02,
  0xc7,
  0x9a,
  0x61,
  0xe8,
  0x05,
  0xa7,
  0xec,
  0x48,
  0x64,
  0xda,
  0x35,
  0x65,
  0x09,
  0xed,
  0xef,
  0xaf,
  0x91,
  0xac,
  0x65,
  0x9c,
  0x61,
  0x0f,
  0xe0,
  0xd3,
  0xc2,
  0xd5,
  0x0a,
  0x39,
  0x35,
  0x66,
  0x61,
  0x06,
  0xa8,
  0x51,
  0x45,
  0x77,
  0xde,
  0xbc,
  0x71,
  0x4b,
  0xaf,
  0x4c,
  0x72,
  0xa5,
  0x63,
  0x70,
  0x7f,
  0x24,
  0x50,
  0xa3,
  0xad,
  0xf3,
  0xe9,
  0xf6,
  0x94,
  0xfd,
  0xa7,
  0x4f,
  0x66,
  0x45,
  0xfc,
  0x1d,
  0x98,
  0x02,
  0xb6,
  0xea,
  0xbb,
  0x30,
  0x3a,
  0x2e,
  0x60,
  0x8c,
  0xaa,
  0x26,
  0xcf,
  0x57,
  0x36,
  0x30,
  0xe2,
  0x0e,
  0x69,
  0xe1,
  0x29,
  0xa0,
  0x52,
  0x1b,
  0x0a,
  0x3b,
  0xcd,
  0x2f,
  0x33,
  0xbb,
  0x81,
  0xd0,
  0x14,
  0x03,
  0xfc,
  0x03,
  0x14,
  0xe4,
  0xd5,
  0x5c,
  0x5b,
  0x97,
  0x94,
  0x91,
  0x1c,
  0xae,
  0x8a,
  0xdb,
  0x78,
  0xca,
  0x63,
  0x4f,
  0x47,
  0x4b,
  0x37,
  0x5e,
  0xc8,
  0x3e,
  0x72,
  0xc1,
  0xe3,
  0x56,
  0x89,
  0x51,
  0x76,
  0x09,
  0x5a,
  0x6f,
  0xf0,
  0x79,
  0x54,
  0x8b,
  0x39,
  0x82,
  0x2f,
  0x53,
  0xc5,
  0x27,
  0x50,
  0x70,
  0xc0,
  0x31,
  0x48,
  0x07,
  0xef,
  0xe0,
  0x0e,
  0xf0,
  0x73,
  0xf0,
  0xcf,
  0x78,
  0x09,
  0xcb,
  0x09,
  0x6e,
  0x92,
  0x0b,
  0xb8,
  0xa1,
  0x84,
  0xfb,
  0x6d,
  0xbf,
  0x57,
  0x63,
  0x57,
  0x17,
  0x96,
  0xb3,
  0x98,
  0x63,
  0xdb,
  0x08,
  0xcc,
  0x87,
  0xa5,
  0xfe,
  0x9d,
  0x3e,
  0x54,
  0x67,
  0xa0,
  0x0e,
  0x1b,
  0xf7,
  0xb5,
  0xeb,
  0xcb,
  0x01,
  0xfe,
  0xa7,
  0x14,
  0xcb,
  0x04,
  0xf5,
  0x15,
  0x42,
  0xfe,
  0x01,
  0xd0,
  0xe6,
  0x10,
  0x09,
  0xea,
  0x48,
  0xde,
  0x26,
  0xa1,
  0x2c,
  0x0b,
  0xf0,
  0x2a,
  0xe3,
  0x4e,
  0xa8,
  0x03,
  0xdf,
  0x61,
  0x16,
  0x8f,
  0x09,
  0x01,
  0x58,
  0xeb,
  0x34,
  0xfb,
  0x02,
  0xea,
  0xbd,
  0x01,
  0xfe,
  0x2f,
  0x19,
  0xef,
  0xfe,
  0x15,
  0xb7,
  0x31,
  0xf8,
  0x5e,
  0xd3,
  0xf0,
  0x0f,
  0x87,
  0x1c,
  0xb1,
  0xf7,
  0xfc,
  0x28,
  0x9e,
  0x41,
  0x70,
  0x06,
  0x63,
  0x16,
  0x66,
  0xdb,
  0x75,
  0xbe,
  0xcd,
  0xd2,
  0x0e,
  0xd7,
  0xc3,
  0xb5,
  0x24,
  0x7e,
  0x08,
  0x42,
  0x61,
  0x12,
  0x72,
  0x87,
  0x74,
  0xa7,
  0xce,
  0xaf,
  0xa2,
  0x70,
  0x11,
  0x8c,
  0x1f,
  0x42,
  0xf4,
  0x06,
  0xdf,
  0x81,
  0x29,
  0xc3,
  0xba,
  0x04,
  0x38,
  0x42,
  0xa2,
  0xa2,
  0x08,
  0x58,
  0x11,
  0x87,
  0x3e,
  0xfa,
  0xc2,
  0xb2,
  0xa8,
  0x37,
  0x7b,
  0x83,
  0xe4,
  0xe1,
  0x2e,
  0xc1,
  0xa4,
  0x39,
  0xc4,
  0x9d,
  0xef,
  0x0b,
  0x08,
  0x4d,
  0x31,
  0x7d,
  0x33,
  0xc8,
  0xce,
  0x44,
  0xfb,
  0xb5,
  0x0d,
  0xc9,
  0x30,
  0xd1,
  0x8c,
  0xbc,
  0x81,
  0x16,
  0x71,
  0x4b,
  0x6d,
  0xeb,
  0x66,
  0x01,
  0x92,
  0xea,
  0x75,
  0x18,
  0x0b,
  0xea,
  0xdd,
  0x04,
  0x18,
  0x65,
  0x97,
  0xea,
  0xd4,
  0x84,
  0x82,
  0x3e,
  0x2c,
  0xa1,
  0x62,
  0x3d,
  0x1f,
  0xdc,
  0xdb,
  0x64,
  0x72,
  0x96,
  0x64,
  0xda,
  0x3b,
  0x95,
  0xb5,
  0xa9,
  0xa8,
  0xa5,
  0x54,
  0x95,
  0xed,
  0x18,
  0xde,
  0x06,
  0xe0,
  0x26,
  0xb9,
  0x61,
  0x8e,
  0x6f,
  0x1d,
  0x0c,
  0x84,
  0x40,
  0xd9,
  0xff,
  0x5a,
  0x7c,
  0xa1,
  0xa3,
  0x01,
  0x1a,
  0xa7,
  0xa6,
  0xda,
  0x52,
  0x6c,
  0x86,
  0xf3,
  0x6c,
  0x3b,
  0x73,
  0x98,
  0xc2,
  0x0c,
  0x08,
  0xbb,
  0xbe,
  0x1c,
  0x72,
  0xb6,
  0x18,
  0xf5,
  0x25,
  0x76,
  0x19,
  0x65,
  0x9f,
  0xf6,
  0x4c,
  0xb5,
  0x26,
  0xf2,
  0xd0,
  0xf7,
  0x7f,
  0x33,
  0xc0,
  0xe3,
  0xa0,
  0xf2,
  0x10,
  0x62,
  0x27,
  0xef,
  0xec,
  0xfd,
  0x00,
  0x66,
  0xf1,
  0x98,
  0xf0,
  0xa6,
  0x88,
  0x91,
  0x71,
  0x64,
  0x1c,
  0x26,
  0x9e,
  0x76,
  0xfd,
  0xef,
  0x2a,
  0x12,
  0x1a,
  0x65,
  0x2e,
  0x32,
  0xb8,
  0x6a,
  0x80,
  0xbe,
  0x78,
  0xa2,
  0x1f,
  0xef,
  0xe8,
  0x3b,
  0x08,
  0x19,
  0x04,
  0x67,
  0x0f,
  0x59,
  0xf7,
  0x6e,
  0x8a,
  0x9b,
  0xe3,
  0xd9,
  0x60,
  0x89,
  0x82,
  0x10,
  0xd5,
  0xed,
  0xa5,
  0x9a,
  0xd1,
  0xcd,
  0x47,
  0x9d,
  0x7f,
  0x49,
  0x87,
  0x5d,
  0xe8,
  0x10,
  0x17,
  0xc4,
  0x07,
  0xd1,
  0x75,
  0xbe,
  0x7d,
  0xd2,
  0x0e,
  0xd7,
  0xc6,
  0xb5,
  0x24,
  0x6e,
  0x08,
  0x42,
  0x61,
  0x13,
  0x72,
  0x87,
  0xd4,
  0xa7,
  0xce,
  0xaf,
  0xab,
  0x70,
  0x11,
  0x0c,
  0x1f,
  0x42,
  0xf4,
  0x9f,
  0xb7,
  0x91,
  0x0e,
  0xc9,
  0xba,
  0x04,
  0x08,
  0x42,
  0xa2,
  0xa2,
  0x01,
  0x58,
  0x11,
  0x77,
  0x3e,
  0xfa,
  0xc2,
  0xb4,
  0xa8,
  0x37,
  0x6b,
  0x83,
  0xe4,
  0xe1,
  0x22,
  0xc1,
  0xa4,
  0xa9,
  0xc4,
  0x9d,
  0xef,
  0x83,
  0x54,
  0x9c,
  0x06,
  0x7b,
  0x33,
  0xc8,
  0x7e,
  0x44,
  0xfb,
  0xb5,
  0x04,
  0xc9,
  0x30,
  0xd1,
  0x8c,
  0xbc,
  0x81,
  0x14,
  0x71,
  0x4b,
  0x3d,
  0xeb,
  0x66,
  0x01,
  0x93,
  0xea,
  0x75,
  0xe8,
  0x0b,
  0xea,
  0xdd,
  0x65,
  0xfb,
  0xcb,
  0x0a,
  0xe7,
  0xd4,
  0x84,
  0x42,
  0x3e,
  0x2c,
  0xa1,
  0x61,
  0x3d,
  0x1f,
  0x8c,
  0xdb,
  0x64,
  0x72,
  0x9a,
  0x64,
  0xda,
  0x7b,
  0x95,
  0xb5,
  0xa9,
  0xa7,
  0xa5,
  0x54,
  0x95,
  0xed,
  0x18,
  0xde,
  0x66,
  0x8d,
  0x19,
  0x0d,
  0x6d,
  0x8e,
  0x6f,
  0x1d,
  0x0c,
  0x84,
  0x40,
  0xd2,
  0xff,
  0x5a,
  0x7c,
  0xa1,
  0xa3,
  0x01,
  0x19,
  0xa7,
  0xa6,
  0xaa,
  0x52,
  0x6c,
  0x86,
  0xf7,
  0x6c,
  0x3b,
  0x23,
  0x98,
  0xc2,
  0x0c,
  0x59,
  0x64,
  0x45,
  0x02,
  0x7f,
  0xb6,
  0x18,
  0x05,
  0x25,
  0x76,
  0x19,
  0x69,
  0x9f,
  0xf6,
  0xdc,
  0xb5,
  0x26,
  0xf2,
  0xdb,
  0xf7,
  0x7f,
  0x63,
  0xc0,
  0xe3,
  0xa0,
  0xf4,
  0x10,
  0x62,
  0x37,
  0xef,
  0xec,
  0xfd,
  0x10,
  0x4a,
  0x15,
  0x0b,
  0xff,
  0xa6,
  0x88,
  0x41,
  0x71,
  0x64,
  0x1c,
  0x21,
  0x9e,
  0x76,
  0x0d,
  0xef,
  0x2a,
  0x12,
  0x1b,
  0x65,
  0x2e,
  0x22,
  0xb8,
  0x6a,
  0x80,
  0xbf,
  0x78,
  0xa2,
  0xaf,
  0xef,
  0xe8,
  0x3b,
  0x14,
  0x1c,
  0x1d,
  0x08,
  0x00,
  0x59,
  0xf7,
  0xfe,
  0x8a,
  0x9b,
  0xe3,
  0xde,
  0x60,
  0x89,
  0xb2,
  0x10,
  0xd5,
  0xed,
  0xa4,
  0x9a,
  0xd1,
  0x9d,
  0x47,
  0x9d,
  0x7f,
  0x48,
  0x87,
  0x5d,
  0x58,
  0x10,
  0x17,
  0xc4,
  0xeb,
  0xe3,
  0xe2,
  0x07,
  0x79,
  0x1b,
  0xe9,
  0x88,
  0xd0,
  0xbe,
  0xc0,
  0xca,
  0x3c,
  0x30,
  0xc2,
  0x7e,
  0x92,
  0xde,
  0xa8,
  0x07,
  0x1d,
  0xda,
  0x4c,
  0xcb,
  0xc4,
  0x68,
  0xad,
  0xf9,
  0xa5,
  0xbc,
  0xf9,
  0x8c,
  0x3d,
  0xcf,
  0xa1,
  0x03,
  0x48,
  0xc5,
  0x69,
  0x3e,
  0x5d,
  0xb2,
  0x6c,
  0xa5,
  0x93,
  0x30,
  0x08,
  0x0a,
  0x5a,
  0x7f,
  0xee,
  0xbf,
  0xb7,
  0x7a,
  0xf5,
  0xac,
  0x58,
  0x78,
  0x88,
  0xe0,
  0x8f,
  0x2b,
  0x63,
  0x76,
  0x2c,
  0xf5,
  0x88,
  0x0b,
  0xb6,
  0xbf,
  0xac,
  0x69,
  0x6c,
  0xc7,
  0xfe,
  0xa0,
  0x7a,
  0x74,
  0x8a,
  0x57,
  0x25,
  0x03,
  0x78,
  0x7f,
  0x25,
  0xc8,
  0x27,
  0xb7,
  0xd4,
  0x9f,
  0x81,
  0x11,
  0xf9,
  0xba,
  0x59,
  0x9a,
  0xaf,
  0x2f,
  0x61,
  0x02,
  0xd6,
  0x98,
  0xd1,
  0xdb,
  0x71,
  0x97,
  0x89,
  0x63,
  0xfb,
  0x0f,
  0xd4,
  0xc2,
  0x17,
  0xa0,
  0x31,
  0x9d,
  0xde,
  0x43,
  0x4d,
  0x66,
  0x49,
  0x65,
  0xc5,
  0xa8,
  0x2a,
  0xc6,
  0x33,
  0xc0,
  0xa2,
  0x76,
  0x9d,
  0x0d,
  0x45,
  0x56,
  0x24,
  0xe9,
  0xdd,
  0x55,
  0xe3,
  0xf7,
  0x66,
  0xbd,
  0x93,
  0xeb,
  0xfb,
  0xa5,
  0xf6,
  0x0b,
  0x9f,
  0xe5,
  0x35,
  0x49,
  0x45,
  0xce,
  0x8c,
  0x82,
  0xfe,
  0xc6,
  0x1e,
  0xc1,
  0x7e,
  0x1d,
  0x95,
  0x09,
  0xa1,
  0x54,
  0xb1,
  0x54,
  0x0f,
  0x50,
  0xf9,
  0xca,
  0xa4,
  0x45,
  0x7a,
  0x2c,
  0xce,
  0x26,
  0x1b,
  0x8e,
  0x35,
  0xf8,
  0x7a,
  0x49,
  0x2a,
  0xed,
  0x06,
  0xd4,
  0x34,
  0x11,
  0x14,
  0xfb,
  0x3a,
  0x28,
  0x55,
  0x0b,
  0xc1,
  0xd1,
  0x81,
  0xfc,
  0xcd,
  0x51,
  0xf0,
  0xef,
  0xf4,
  0x66,
  0xa2,
  0x0d,
  0xcd,
  0xb2,
  0x90,
  0x5f,
  0x82,
  0xc8,
  0x74,
  0x09,
  0xf8,
  0xeb,
  0x0b,
  0xe0,
  0x7e,
  0x48,
  0x2c,
  0xc7,
  0x7b,
  0x7e,
  0x41,
  0x09,
  0x3e,
  0x2e,
  0x7e,
  0x03,
  0x32,
  0xae,
  0x0f,
  0x10,
  0x0b,
  0xba,
  0x5d,
  0xf2,
  0x30,
  0x4d,
  0x6f,
  0xe0,
  0x78,
  0x37,
  0x8b,
  0xf4,
  0x97,
  0x10,
  0xf4,
  0x1f,
  0x89,
  0xbb,
  0xc3,
  0x3c,
  0x84,
  0xc3,
  0xae,
  0x06,
  0x8f,
  0xd0,
  0xbe,
  0xe0,
  0xca,
  0x3c,
  0x30,
  0xc6,
  0x7e,
  0x92,
  0x8e,
  0xa8,
  0x07,
  0x1d,
  0xdb,
  0x4c,
  0xcb,
  0x44,
  0x68,
  0xad,
  0xf9,
  0xa5,
  0xbc,
  0xf9,
  0xbc,
  0x3d,
  0xcf,
  0xa1,
  0x37,
  0x00,
  0x40,
  0x08,
  0x30,
  0x5d,
  0xb2,
  0x4c,
  0xa5,
  0x93,
  0x30,
  0x0e,
  0x0a,
  0x5a,
  0xef,
  0xee,
  0xbf,
  0xb7,
  0x72,
  0xf5,
  0xac,
  0x58,
  0x78,
  0x88,
  0xe0,
  0x80,
  0x2b,
  0x63,
  0x46,
  0x2c,
  0xf5,
  0x88,
  0x26,
  0x7c,
  0xe7,
  0x00,
  0x60,
  0x6c,
  0xc7,
  0x8e,
  0xa0,
  0x7a,
  0x74,
  0x87,
  0x57,
  0x25,
  0x53,
  0x78,
  0x7f,
  0x25,
  0xc9,
  0x27,
  0xb7,
  0x34,
  0x9f,
  0x81,
  0x11,
  0xf0,
  0xba,
  0x59,
  0xaa,
  0xaf,
  0x2f,
  0x61,
  0xc6,
  0xfe,
  0xd8,
  0x05,
  0xd0,
  0x71,
  0x97,
  0x09,
  0x63,
  0xfb,
  0x0f,
  0xdf,
  0xc2,
  0x17,
  0xc0,
  0x31,
  0x9d,
  0xde,
  0x4e,
  0x4d,
  0x66,
  0xb9,
  0x65,
  0xc5,
  0xa8,
  0x29,
  0xc6,
  0x33,
  0x30,
  0xa2,
  0x76,
  0x9d,
  0x7c,
  0x05,
  0xd3,
  0x0c,
  0xe6,
  0xdd,
  0x55,
  0x93,
  0xf7,
  0x66,
  0xbd,
  0x92,
  0xeb,
  0xfb,
  0xd5,
  0xf6,
  0x0b,
  0x9f,
  0xef,
  0x35,
  0x49,
  0x15,
  0xce,
  0x8c,
  0x82,
  0xf2,
  0xc6,
  0x1e,
  0xf1,
  0x7e,
  0x1d,
  0x95,
  0xc5,
  0xce,
  0x8a,
  0x0f,
  0x55,
  0x0f,
  0x50,
  0x39,
  0xca,
  0xa4,
  0x45,
  0x77,
  0x2c,
  0xce,
  0x36,
  0x1b,
  0x8e,
  0x35,
  0xf7,
  0x7a,
  0x49,
  0xaa,
  0xed,
  0x06,
  0xd4,
  0x3f,
  0x11,
  0x14,
  0x5b,
  0x3a,
  0x28,
  0x55,
  0x79,
  0x7e,
  0x3d,
  0x0c,
  0xf2,
  0xcd,
  0x51,
  0x10,
  0xef,
  0xf4,
  0x66,
  0xa6,
  0x0d,
  0xcd,
  0x52,
  0x90,
  0x5f,
  0x82,
  0xcf,
  0x74,
  0x09,
  0xa8,
  0xeb,
  0x0b,
  0xe0,
  0x7f,
  0x48,
  0x2c,
  0xf7,
  0x7b,
  0x7e,
  0x41,
  0x69,
  0x7e,
  0xdc,
  0x00,
  0x0d,
  0x32,
  0xae,
  0xef,
  0x10,
  0x0b,
  0xba,
  0x59,
  0xf2,
  0x30,
  0xad,
  0x6f,
  0xe0,
  0x78,
  0x30,
  0x8b,
  0xf4,
  0x57,
  0x10,
  0xf4,
  0x1f,
  0x80,
  0xbb,
  0xc3,
  0x0c,
  0x84,
  0xc3,
  0xae,
  0x96,
  0xa1,
  0x23,
  0x0f,
  0x03,
  0x00,
  0x84,
  0x72,
  0xf1,
  0x76,
  0xe5,
  0xf1,
  0xd4,
  0x3f,
  0x54,
  0x89,
  0x13,
  0x11,
  0xd7,
  0x32,
  0x69,
  0x9c,
  0xe7,
  0x49,
  0xcc,
  0xb3,
  0x81,
  0x60,
  0xb9,
  0xaf,
  0xc0,
  0xa0,
  0x7c,
  0xde,
  0x58,
  0x0b,
  0xc2,
  0x77,
  0x0e,
  0x78,
  0xf2,
  0x8d,
  0xa6,
  0xa8,
  0x68,
  0x3f,
  0x52,
  0xbf,
  0xc3,
  0x71,
  0x67,
  0x58,
  0x6c,
  0x3b,
  0x7c,
  0xcc,
  0x44,
  0xa9,
  0xf0,
  0x2a,
  0x35,
  0x72,
  0x3c,
  0x07,
  0x33,
  0x4d,
  0xf2,
  0x02,
  0xec,
  0x8f,
  0x5d,
  0x9f,
  0xbb,
  0x99,
  0xbd,
  0x06,
  0x43,
  0x4f,
  0x3b,
  0xc4,
  0x10,
  0x58,
  0xa8,
  0x2a,
  0xfc,
  0x7b,
  0x0a,
  0x94,
  0xe6,
  0x21,
  0xc3,
  0x5a,
  0xf6,
  0x5b,
  0x72,
  0xd2,
  0xad,
  0xdd,
  0x0f,
  0x07,
  0x57,
  0x30,
  0xcd,
  0x57,
  0x4a,
  0xa6,
  0x7f,
  0xd8,
  0xe3,
  0x6b,
  0x82,
  0x77,
  0xcf,
  0x08,
  0x76,
  0x5e,
  0x4e,
  0xef,
  0x18,
  0x03,
  0x60,
  0x8b,
  0x64,
  0x13,
  0x70,
  0x1b,
  0xde,
  0x64,
  0xd7,
  0x24,
  0xef,
  0x02,
  0xec,
  0xac,
  0xf8,
  0x5e,
  0x35,
  0xce,
  0xea,
  0x9f,
  0x7f,
  0x22,
  0x05,
  0x28,
  0xc4,
  0xe2,
  0xf4,
  0x72,
  0x7c,
  0xb9,
  0x80,
  0xff,
  0x1c,
  0x36,
  0xac,
  0x7b,
  0x74,
  0x22,
  0x47,
  0xfe,
  0xbe,
  0xf6,
  0x62,
  0x09,
  0xe7,
  0xd7,
  0xc3,
  0x1a,
  0x3e,
  0xe0,
  0x6f,
  0x37,
  0xa5,
  0xb8,
  0xc7,
  0x40,
  0x1f,
  0x99,
  0x6a,
  0xb4,
  0x8a,
  0xf1,
  0x48,
  0xc9,
  0x9b,
  0x19,
  0xfb,
  0xc7,
  0xcb,
  0xd5,
  0x95,
  0x99,
  0xd5,
  0xdd,
  0x1b,
  0x01,
  0xe6,
  0xc7,
  0x0d,
  0x5e,
  0x1e,
  0xec,
  0x6b,
  0xb5,
  0xa9,
  0x38,
  0x85,
  0xe3,
  0x07,
  0x9b,
  0x49,
  0xf6,
  0xe6,
  0xa9,
  0x18,
  0xe9,
  0xa8,
  0x20,
  0xed,
  0xc4,
  0x76,
  0x83,
  0xdf,
  0x39,
  0x86,
  0xef,
  0x46,
  0x0b,
  0x19,
  0x3a,
  0xf2,
  0xa1,
  0xe1,
  0x13,
  0x90,
  0x48,
  0x56,
  0xc7,
  0x7c,
  0x1c,
  0xf8,
  0x64,
  0xb7,
  0x09,
  0x19,
  0x42,
  0xe7,
  0x16,
  0x57,
  0xdf,
  0x12,
  0x3b,
  0x89,
  0x78,
  0x20,
  0xc6,
  0x79,
  0x30,
  0xb9,
  0x04,
  0x72,
  0xf1,
  0x76,
  0xa5,
  0xf1,
  0xd4,
  0x3f,
  0x5f,
  0x89,
  0x13,
  0x61,
  0xd7,
  0x32,
  0x69,
  0x93,
  0xe7,
  0x49,
  0xfc,
  0xb3,
  0x81,
  0x60,
  0xb2,
  0xaf,
  0xc0,
  0xb0,
  0x7c,
  0xde,
  0x58,
  0x39,
  0xb3,
  0x65,
  0x08,
  0x75,
  0xf2,
  0x8d,
  0xc6,
  0xa8,
  0x68,
  0x3f,
  0x55,
  0xbf,
  0xc3,
  0x51,
  0x67,
  0x58,
  0x6c,
  0x37,
  0x7c,
  0xcc,
  0x74,
  0xa9,
  0xf0,
  0x2a,
  0x31,
  0x72,
  0x3c,
  0x67,
  0x33,
  0x4d,
  0xf2,
  0x38,
  0xfb,
  0x82,
  0x08,
  0x97,
  0xbb,
  0x99,
  0x7d,
  0x06,
  0x43,
  0x4f,
  0x39,
  0xc4,
  0x10,
  0x38,
  0xa8,
  0x2a,
  0xfc,
  0x70,
  0x0a,
  0x94,
  0xb6,
  0x21,
  0xc3,
  0x5a,
  0xf3,
  0x5b,
  0x72,
  0xa2,
  0xad,
  0xdd,
  0x0f,
  0xb9,
  0x90,
  0xd5,
  0x00,
  0x58,
  0x4a,
  0xa6,
  0x2f,
  0xd8,
  0xe3,
  0x6b,
  0x88,
  0x77,
  0xcf,
  0xa8,
  0x76,
  0x5e,
  0x4e,
  0xed,
  0x18,
  0x03,
  0x50,
  0x8b,
  0x64,
  0x13,
  0x79,
  0x1b,
  0xde,
  0x24,
  0xd7,
  0x24,
  0xef,
  0xcc,
  0x60,
  0x58,
  0x06,
  0x5a,
  0x35,
  0xce,
  0x0a,
  0x9f,
  0x7f,
  0x22,
  0x0f,
  0x28,
  0xc4,
  0x02,
  0xf4,
  0x72,
  0x7c,
  0xb0,
  0x80,
  0xff,
  0x2c,
  0x36,
  0xac,
  0x7b,
  0x7f,
  0x22,
  0x47,
  0x9e,
  0xbe,
  0xf6,
  0x62,
  0xcd,
  0x38,
  0x0a,
  0x00,
  0x10,
  0x3e,
  0xe0,
  0x4f,
  0x37,
  0xa5,
  0xb8,
  0xc2,
  0x40,
  0x1f,
  0xf9,
  0x6a,
  0xb4,
  0x8a,
  0xfb,
  0x48,
  0xc9,
  0x1b,
  0x19,
  0xfb,
  0xc7,
  0xc4,
  0xd5,
  0x95,
  0xe9,
  0xd5,
  0xdd,
  0x1b,
  0x17,
  0xc3,
  0xa6,
  0x00,
  0x53,
  0x1e,
  0xec,
  0x8b,
  0xb5,
  0xa9,
  0x38,
  0x88,
  0xe3,
  0x07,
  0xfb,
  0x49,
  0xf6,
  0xe6,
  0xab,
  0x18,
  0xe9,
  0x88,
  0x20,
  0xed,
  0xc4,
  0x75,
  0x83,
  0xdf,
  0xa9,
  0x86,
  0xef,
  0x46,
  0x8e,
  0x84,
  0xcb,
  0x01,
  0xac,
  0xe1,
  0x13,
  0x70,
  0x48,
  0x56,
  0xc7,
  0x77,
  0x1c,
  0xf8,
  0x44,
  0xb7,
  0x09,
  0x19,
  0x44,
  0xe7,
  0x16,
  0x67,
  0xdf,
  0x12,
  0x3b,
  0x8a,
  0x78,
  0x20,
  0x56,
  0x79,
  0x30,
  0xb9,
  0x73,
  0x7f,
  0x75,
  0x0f,
  0x33,
  0x5b,
  0x86,
  0x69,
  0x7e,
  0x3b,
  0xad,
  0xcb,
  0xad,
  0x1a,
  0x48,
  0xf5,
  0x2c,
  0xde,
  0x13,
  0xa0,
  0xd2,
  0x55,
  0x4d,
  0xb6,
  0x83,
  0x57,
  0x38,
  0x0d,
  0xba,
  0x3e,
  0x03,
  0x39,
  0xba,
  0xd3,
  0x0b,
  0x07,
  0xb3,
  0x2f,
  0x88,
  0x26,
  0xb4,
  0x84,
  0x12,
  0xa8,
  0x0e,
  0x41,
  0x9d,
  0x60,
  0x2d,
  0x99,
  0xdf,
  0x59,
  0x1d,
  0x2e,
  0xdf,
  0xdf,
  0x91,
  0x5b,
  0x2f,
  0x6e,
  0x80,
  0x42,
  0x1f,
  0x2f,
  0x0d,
  0xac,
  0x1c,
  0x00,
  0x0b,
  0x59,
  0x0d,
  0x55,
  0xad,
  0xa5,
  0x02,
  0xc0,
  0x98,
  0x5e,
  0x02,
  0x65,
  0xe1,
  0xb0,
  0x82,
  0xd8,
  0x45,
  0xb0,
  0x91,
  0x04,
  0x8e,
  0x58,
  0x51,
  0x64,
  0x10,
  0x21,
  0x0a,
  0x26,
  0xa7,
  0x41,
  0xae,
  0x00,
  0x0c,
  0x86,
  0x65,
  0x6c,
  0x91,
  0xc7,
  0xdc,
  0xe7,
  0xff,
  0xb3,
  0xc9,
  0x97,
  0x28,
  0x19,
  0xe8,
  0x2b,
  0x85,
  0x62,
  0xe0,
  0xce,
  0x46,
  0x35,
  0x21,
  0xd8,
  0x74,
  0xcc,
  0x31,
  0xe5,
  0x1b,
  0x5e,
  0xd5,
  0x0a,
  0x8c,
  0xa3,
  0x00,
  0xeb,
  0xd8,
  0x7b,
  0x7c,
  0xd9,
  0x40,
  0x66,
  0x3b,
  0x1a,
  0x66,
  0x97,
  0xb1,
  0xad,
  0xa5,
  0x5f,
  0x6a,
  0x50,
  0xc9,
  0x5b,
  0xbd,
  0x49,
  0x49,
  0xd0,
  0x8e,
  0x4d,
  0xc0,
  0xe4,
  0xe6,
  0x0f,
  0x31,
  0x6c,
  0x0a,
  0xf7,
  0xc2,
  0xa4,
  0xf7,
  0xfa,
  0xe3,
  0x1f,
  0xd0,
  0x96,
  0xd2,
  0xdc,
  0x24,
  0x5c,
  0x03,
  0xd2,
  0x0f,
  0xfc,
  0xd1,
  0x50,
  0xa0,
  0x49,
  0x35,
  0xd7,
  0xf4,
  0x16,
  0xf1,
  0x76,
  0xbe,
  0x01,
  0x48,
  0xb8,
  0x1c,
  0x7f,
  0xf0,
  0x0e,
  0x77,
  0x6d,
  0x61,
  0xdf,
  0xf1,
  0xdd,
  0xca,
  0x9c,
  0x2c,
  0x8e,
  0xd4,
  0xfe,
  0x93,
  0xde,
  0x42,
  0x79,
  0x52,
  0x4d,
  0x6c,
  0xe7,
  0x36,
  0x05,
  0x5b,
  0xa4,
  0xa6,
  0x08,
  0xf7,
  0x57,
  0xf7,
  0x80,
  0x0f,
  0xf1,
  0x88,
  0x96,
  0x9e,
  0x20,
  0x0e,
  0x23,
  0x35,
  0x63,
  0xdb,
  0x73,
  0x6b,
  0x01,
  0x6c,
  0x21,
  0xbd,
  0x86,
  0xfd,
  0xb6,
  0x93,
  0x18,
  0xc9,
  0xfa,
  0x24,
  0x5b,
  0x59,
  0x07,
  0x66,
  0x7e,
  0x3b,
  0xdd,
  0xcb,
  0xad,
  0x1a,
  0x49,
  0xf5,
  0x2c,
  0x0e,
  0x13,
  0xa0,
  0xd2,
  0x5f,
  0x4d,
  0xb6,
  0x03,
  0x57,
  0x38,
  0x0d,
  0xbe,
  0x3e,
  0x03,
  0x19,
  0xba,
  0xd3,
  0x0b,
  0xf1,
  0xb1,
  0x44,
  0x07,
  0x23,
  0xb4,
  0x84,
  0x82,
  0xa8,
  0x0e,
  0x41,
  0x98,
  0x60,
  0x2d,
  0x39,
  0xdf,
  0x59,
  0x1d,
  0x24,
  0xdf,
  0xdf,
  0xd1,
  0x5b,
  0x2f,
  0x6e,
  0x83,
  0x42,
  0x1f,
  0x8f,
  0x0d,
  0xac,
  0x1c,
  0x10,
  0x88,
  0xf0,
  0x0e,
  0x5f,
  0xad,
  0xa5,
  0x02,
  0xc0,
  0x98,
  0x5e,
  0x0c,
  0x65,
  0xe1,
  0xf0,
  0x82,
  0xd8,
  0x45,
  0xb9,
  0x91,
  0x04,
  0x4e,
  0x58,
  0x51,
  0x64,
  0x15,
  0x21,
  0x0a,
  0xe6,
  0xa7,
  0x41,
  0xae,
  0xf6,
  0x67,
  0x3b,
  0x02,
  0x65,
  0x91,
  0xc7,
  0xac,
  0xe7,
  0xff,
  0xb3,
  0xce,
  0x97,
  0x28,
  0x09,
  0xe8,
  0x2b,
  0x85,
  0x67,
  0xe0,
  0xce,
  0xd6,
  0x35,
  0x21,
  0xd8,
  0x75,
  0xcc,
  0x31,
  0x85,
  0x1b,
  0x5e,
  0xd5,
  0xd9,
  0xbd,
  0xc4,
  0x06,
  0xe6,
  0xd8,
  0x7b,
  0x8c,
  0xd9,
  0x40,
  0x66,
  0x35,
  0x1a,
  0x66,
  0xd7,
  0xb1,
  0xad,
  0xa5,
  0x53,
  0x6a,
  0x50,
  0xf9,
  0x5b,
  0xbd,
  0x49,
  0x42,
  0xd0,
  0x8e,
  0x5d,
  0xc0,
  0xe4,
  0xe6,
  0x4b,
  0x0c,
  0x12,
  0x04,
  0xf0,
  0xc2,
  0xa4,
  0x17,
  0xfa,
  0xe3,
  0x1f,
  0xd3,
  0x96,
  0xd2,
  0xec,
  0x24,
  0x5c,
  0x03,
  0xd2,
  0x0f,
  0xfc,
  0xa1,
  0x50,
  0xa0,
  0x49,
  0x34,
  0xd7,
  0xf4,
  0x36,
  0xf1,
  0x76,
  0xbe,
  0xb2,
  0xcf,
  0x8a,
  0x02,
  0x71,
  0xf0,
  0x0e,
  0xb7,
  0x6d,
  0x61,
  0xdf,
  0xfd,
  0xdd,
  0xca,
  0xcc,
  0x2c,
  0x8e,
  0xd4,
  0xf2,
  0x93,
  0xde,
  0x92,
  0x79,
  0x52,
  0x4d,
  0x65,
  0xe7,
  0x36,
  0x75,
  0x5b,
  0xa4,
  0xa6,
  0xb3,
  0xcb,
  0x97,
  0x00,
  0x8e,
  0x0f,
  0xf1,
  0x48,
  0x96,
  0x9e,
  0x20,
  0x06,
  0x23,
  0x35,
  0x33,
  0xdb,
  0x73,
  0x6b,
  0x0d,
  0x6c,
  0x21,
  0x6d,
  0x86,
  0xfd,
  0xb6,
  0x9a,
  0x18,
  0xc9,
  0xca,
  0x24,
  0x5b,
  0x59,
  0x6c,
  0x30,
  0x69,
  0x0f,
  0x1f,
  0x4b,
  0x74,
  0x08,
  0x7d,
  0x3d,
  0xd5,
  0xe6,
  0x15,
  0x31,
  0x12,
  0x0e,
  0x6a,
  0x45,
  0x47,
  0xe6,
  0x60,
  0x25,
  0xe2,
  0x7f,
  0x01,
  0x18,
  0x31,
  0x71,
  0xf3,
  0x28,
  0x4e,
  0x7a,
  0x21,
  0xaf,
  0xa9,
  0x04,
  0x81,
  0x08,
  0xef,
  0xdc,
  0xf0,
  0xf7,
  0x80,
  0xf1,
  0xdb,
  0x3b,
  0x86,
  0xc0,
  0xd6,
  0xe8,
  0xe6,
  0xd0,
  0xac,
  0x0f,
  0x23,
  0x49,
  0x97,
  0xc6,
  0x9e,
  0xc4,
  0xf3,
  0xf5,
  0x91,
  0x74,
  0x57,
  0xf0,
  0x3a,
  0x0b,
  0x7f,
  0xb6,
  0x23,
  0xe7,
  0xf3,
  0x02,
  0xeb,
  0x88,
  0x3c,
  0x56,
  0x6b,
  0x40,
  0x1b,
  0x77,
  0x82,
  0x8b,
  0x86,
  0xed,
  0xf6,
  0x02,
  0x37,
  0x67,
  0xc3,
  0xbd,
  0x1c,
  0x6f,
  0xda,
  0xe7,
  0x11,
  0xa9,
  0x66,
  0x0f,
  0xdd,
  0x4b,
  0x6c,
  0x4c,
  0x97,
  0x36,
  0xb7,
  0xab,
  0xf6,
  0xc9,
  0x23,
  0x54,
  0xaa,
  0x43,
  0x32,
  0x90,
  0x9f,
  0x3b,
  0x04,
  0x94,
  0x89,
  0x78,
  0x79,
  0xbb,
  0xbf,
  0x55,
  0xe6,
  0x7b,
  0x97,
  0xd5,
  0x46,
  0x08,
  0xc4,
  0x20,
  0x41,
  0x2d,
  0x06,
  0xf5,
  0x40,
  0xf6,
  0x45,
  0x83,
  0x11,
  0x1f,
  0x73,
  0x46,
  0x71,
  0x4d,
  0x47,
  0x26,
  0xa0,
  0xed,
  0xbf,
  0xf5,
  0xe1,
  0xf7,
  0x67,
  0x2b,
  0x72,
  0x9b,
  0x7f,
  0xa0,
  0x8d,
  0x01,
  0xfb,
  0xac,
  0x28,
  0x86,
  0xb2,
  0x02,
  0xa0,
  0x08,
  0x62,
  0xd0,
  0x3b,
  0xed,
  0xab,
  0x4a,
  0x5c,
  0xce,
  0xcf,
  0xf5,
  0xbb,
  0xe9,
  0xdc,
  0xf4,
  0x8c,
  0x1e,
  0x64,
  0xbf,
  0xab,
  0xb0,
  0xad,
  0x2d,
  0x0d,
  0x07,
  0xbb,
  0x7c,
  0x09,
  0xea,
  0xb7,
  0x1a,
  0xa8,
  0x0d,
  0x6e,
  0x71,
  0x31,
  0x0f,
  0xa3,
  0x56,
  0x54,
  0xce,
  0x4e,
  0xb4,
  0x38,
  0xab,
  0xe7,
  0x54,
  0x88,
  0x77,
  0x66,
  0x39,
  0xed,
  0xab,
  0xcb,
  0x6e,
  0x6b,
  0x05,
  0x06,
  0x93,
  0xf6,
  0x1d,
  0x49,
  0xed,
  0x57,
  0xf2,
  0x91,
  0x8e,
  0xce,
  0xf0,
  0x5c,
  0xa9,
  0xab,
  0x31,
  0xb1,
  0x4a,
  0xc7,
  0x56,
  0x18,
  0xab,
  0x77,
  0x89,
  0x99,
  0xc4,
  0x10,
  0x54,
  0x34,
  0x91,
  0xb0,
  0x0a,
  0x0f,
  0x7d,
  0x3d,
  0x15,
  0xe6,
  0x15,
  0x31,
  0x10,
  0x0e,
  0x6a,
  0x65,
  0x47,
  0xe6,
  0x60,
  0x26,
  0xe2,
  0x7f,
  0xc1,
  0x18,
  0x31,
  0x71,
  0xfa,
  0x28,
  0x4e,
  0x3a,
  0x21,
  0xaf,
  0xa9,
  0x46,
  0x35,
  0x39,
  0x09,
  0xd7,
  0xf0,
  0xf7,
  0xa0,
  0xf1,
  0xdb,
  0x3b,
  0x89,
  0xc0,
  0xd6,
  0xf8,
  0xe6,
  0xd0,
  0xac,
  0x07,
  0x23,
  0x49,
  0xf7,
  0xc6,
  0x9e,
  0xc4,
  0xf7,
  0xf5,
  0x91,
  0xd4,
  0x57,
  0xf0,
  0x3a,
  0xb0,
  0x61,
  0xcb,
  0x0d,
  0xeb,
  0xf3,
  0x02,
  0x5b,
  0x88,
  0x3c,
  0x56,
  0x66,
  0x40,
  0x1b,
  0x67,
  0x82,
  0x8b,
  0x86,
  0xe7,
  0xf6,
  0x02,
  0x97,
  0x67,
  0xc3,
  0xbd,
  0x14,
  0x6f,
  0xda,
  0x77,
  0x11,
  0xa9,
  0x66,
  0x07,
  0xa3,
  0x64,
  0x09,
  0x4b,
  0x97,
  0x36,
  0x67,
  0xab,
  0xf6,
  0xc9,
  0x29,
  0x54,
  0xaa,
  0x43,
  0x32,
  0x90,
  0x9f,
  0x3d,
  0x04,
  0x94,
  0x39,
  0x78,
  0x79,
  0xbb,
  0xbe,
  0x55,
  0xe6,
  0x6b,
  0x97,
  0xd5,
  0x46,
  0x16,
  0x51,
  0x87,
  0x0b,
  0x21,
  0x06,
  0xf5,
  0x50,
  0xf6,
  0x45,
  0x83,
  0x1c,
  0x1f,
  0x73,
  0x46,
  0x71,
  0x4d,
  0x47,
  0x26,
  0xa0,
  0xed,
  0xbf,
  0xf5,
  0xe1,
  0xf7,
  0x64,
  0x2b,
  0x72,
  0x3b,
  0x7f,
  0xa0,
  0x8d,
  0x62,
  0xfb,
  0x03,
  0x0d,
  0x8a,
  0xb2,
  0x02,
  0x40,
  0x08,
  0x62,
  0xd0,
  0x3a,
  0xed,
  0xab,
  0xba,
  0x5c,
  0xce,
  0xcf,
  0xf5,
  0xbb,
  0xe9,
  0x6c,
  0xf4,
  0x8c,
  0x1e,
  0x6b,
  0xbf,
  0xab,
  0x10,
  0xad,
  0x2d,
  0x0d,
  0xf9,
  0xa0,
  0x22,
  0x03,
  0xe9,
  0xb7,
  0x1a,
  0x78,
  0x0d,
  0x6e,
  0x71,
  0x3c,
  0x0f,
  0xa3,
  0x46,
  0x54,
  0xce,
  0x4e,
  0xbd,
  0x38,
  0xab,
  0x67,
  0x54,
  0x88,
  0x77,
  0x6a,
  0x39,
  0xed,
  0xbb,
  0xcb,
  0x6e,
  0x6b,
  0xe5,
  0x01,
  0x72,
  0x0b,
  0x14,
  0x49,
  0xed,
  0x87,
  0xf2,
  0x91,
  0x8e,
  0xc3,
  0xf0,
  0x5c,
  0xb9,
  0xab,
  0x31,
  0xb1,
  0x4a,
  0xc7,
  0x56,
  0x98,
  0xab,
  0x77,
  0x89,
  0x95,
  0xc4,
  0x10,
  0x44,
  0x34,
  0x91,
  0xb0,
  0x1a,
  0x5e,
  0x9d,
  0x04,
  0x54,
  0x93,
  0x93,
  0xec,
  0x7b,
  0xdf,
  0xc4,
  0x48,
  0xb7,
  0x17,
  0xd0,
  0xa6,
  0x48,
  0xc5,
  0xce,
  0x70,
  0xbd,
  0x5c,
  0x13,
  0x8c,
  0x1c,
  0xb2,
  0x5f,
  0x99,
  0x45,
  0x0d,
  0xb0,
  0xc5,
  0x87,
  0xe2,
  0xd9,
  0x06,
  0x1b,
  0xb6,
  0xdc,
  0x67,
  0x21,
  0x63,
  0x01,
  0xd0,
  0x2b,
  0xa3,
  0xf8,
  0x7d,
  0xc1,
  0x9c,
  0x74,
  0xf6,
  0x22,
  0xd7,
  0x79,
  0x1e,
  0xf3,
  0x06,
  0x5b,
  0xe5,
  0x68,
  0x69,
  0xf3,
  0x3f,
  0x71,
  0x06,
  0x96,
  0x04,
  0x30,
  0x4a,
  0x96,
  0x53,
  0x0e,
  0x78,
  0x73,
  0x36,
  0xea,
  0xe9,
  0x7d,
  0xc7,
  0x36,
  0xd2,
  0xec,
  0x92,
  0x8b,
  0xa2,
  0xc1,
  0x26,
  0x50,
  0x27,
  0xde,
  0x0b,
  0x73,
  0x05,
  0x0b,
  0x6d,
  0x0a,
  0x69,
  0x41,
  0x03,
  0x11,
  0x75,
  0xb8,
  0x40,
  0x5c,
  0x0b,
  0xe8,
  0x42,
  0x86,
  0xe6,
  0x25,
  0x07,
  0xef,
  0xf3,
  0x37,
  0xa7,
  0x6f,
  0x2f,
  0x67,
  0x18,
  0x35,
  0xca,
  0x56,
  0xd3,
  0xfa,
  0x6a,
  0x05,
  0x32,
  0xf8,
  0xe0,
  0x42,
  0x0e,
  0xb6,
  0x3f,
  0xd0,
  0x38,
  0xa5,
  0x78,
  0x84,
  0xb3,
  0xcb,
  0xef,
  0x7a,
  0xb8,
  0x61,
  0x7a,
  0x2a,
  0x30,
  0x78,
  0xf5,
  0xf6,
  0x27,
  0x1c,
  0x30,
  0x81,
  0xda,
  0x33,
  0x2e,
  0x89,
  0x98,
  0xfe,
  0xc9,
  0x61,
  0x0f,
  0x0f,
  0x2a,
  0x32,
  0xea,
  0xb9,
  0x67,
  0x63,
  0xb0,
  0x55,
  0x68,
  0xac,
  0x19,
  0x55,
  0xd3,
  0x07,
  0x3d,
  0x8d,
  0xd2,
  0xb6,
  0x64,
  0xa7,
  0xcb,
  0x02,
  0x31,
  0xf8,
  0xf7,
  0x1c,
  0xe5,
  0x84,
  0xaa,
  0x0a,
  0x07,
  0x1e,
  0x20,
  0xb7,
  0xea,
  0xc1,
  0xe0,
  0xa2,
  0xe1,
  0xd4,
  0xa2,
  0x8a,
  0x00,
  0x01,
  0x90,
  0x26,
  0x18,
  0x04,
  0xd6,
  0x36,
  0x65,
  0x39,
  0x58,
  0x86,
  0x2f,
  0x7f,
  0xbc,
  0x9d,
  0xeb,
  0x85,
  0xb9,
  0x4a,
  0x02,
  0xe1,
  0xd5,
  0x49,
  0x15,
  0x7e,
  0x9f,
  0x5d,
  0x0e,
  0x2b,
  0x1d,
  0x55,
  0xf7,
  0xbe,
  0x2d,
  0xd9,
  0xe7,
  0xfb,
  0x2d,
  0xc9,
  0x9a,
  0xc6,
  0xa7,
  0x79,
  0xd4,
  0x84,
  0x41,
  0x62,
  0x10,
  0x7b,
  0x56,
  0xb5,
  0x0d,
  0xee,
  0x7b,
  0xdf,
  0xf4,
  0x48,
  0xb7,
  0x17,
  0xd6,
  0xa6,
  0x48,
  0x45,
  0xce,
  0x70,
  0xbd,
  0x50,
  0x13,
  0x8c,
  0xdc,
  0xb2,
  0x5f,
  0x99,
  0x4f,
  0x0d,
  0xb0,
  0x65,
  0x87,
  0xe2,
  0xd9,
  0xd6,
  0x30,
  0x42,
  0x0f,
  0x60,
  0x21,
  0x63,
  0x71,
  0xd0,
  0x2b,
  0xa3,
  0xf0,
  0x7d,
  0xc1,
  0xcc,
  0x74,
  0xf6,
  0x22,
  0xdd,
  0x79,
  0x1e,
  0xa3,
  0x06,
  0x5b,
  0xe5,
  0x60,
  0x69,
  0xf3,
  0xcf,
  0x71,
  0x06,
  0x96,
  0x54,
  0xc8,
  0x76,
  0x09,
  0x5c,
  0x0e,
  0x78,
  0x43,
  0x36,
  0xea,
  0xe9,
  0x71,
  0xc7,
  0x36,
  0x92,
  0xec,
  0x92,
  0x8b,
  0xa3,
  0xc1,
  0x26,
  0x40,
  0x27,
  0xde,
  0x0b,
  0x7c,
  0x05,
  0x0b,
  0x8d,
  0x0a,
  0x69,
  0x41,
  0x54,
  0xd8,
  0x21,
  0x01,
  0x47,
  0x5c,
  0x0b,
  0x68,
  0x42,
  0x86,
  0xe6,
  0x25,
  0x07,
  0xef,
  0x63,
  0x37,
  0xa7,
  0x6f,
  0x2a,
  0x67,
  0x18,
  0x85,
  0xca,
  0x56,
  0xd3,
  0xf8,
  0x6a,
  0x05,
  0xa2,
  0xf8,
  0xe0,
  0x42,
  0x37,
  0x91,
  0xe3,
  0x06,
  0x33,
  0xa5,
  0x78,
  0x44,
  0xb3,
  0xcb,
  0xef,
  0x70,
  0xb8,
  0x61,
  0x2a,
  0x2a,
  0x30,
  0x78,
  0xf7,
  0xf6,
  0x27,
  0x5c,
  0x30,
  0x81,
  0xda,
  0x38,
  0x2e,
  0x89,
  0x78,
  0xfe,
  0xc9,
  0x61,
  0xa1,
  0xc5,
  0xf5,
  0x0f,
  0xeb,
  0xb9,
  0x67,
  0xb3,
  0xb0,
  0x55,
  0x68,
  0xa6,
  0x19,
  0x55,
  0xf3,
  0x07,
  0x3d,
  0x8d,
  0xdc,
  0xb6,
  0x64,
  0xd7,
  0xcb,
  0x02,
  0x31,
  0xf9,
  0xf7,
  0x1c,
  0xd5,
  0x84,
  0xaa,
  0x0a,
  0x47,
  0x19,
  0xbf,
  0x0c,
  0xe2,
  0xc1,
  0xe0,
  0x32,
  0xe1,
  0xd4,
  0xa2,
  0x8c,
  0x00,
  0x01,
  0x70,
  0x26,
  0x18,
  0x04,
  0xdc,
  0x36,
  0x65,
  0x79,
  0x58,
  0x86,
  0x2f,
  0x7d,
  0xbc,
  0x9d,
  0xdb,
  0x85,
  0xb9,
  0x4a,
  0x2c,
  0x14,
  0x3c,
  0x0c,
  0x1d,
  0x7e,
  0x9f,
  0xcd,
  0x0e,
  0x2b,
  0x1d,
  0x53,
  0xf7,
  0xbe,
  0x8d,
  0xd9,
  0xe7,
  0xfb,
  0x23,
  0xc9,
  0x9a,
  0xa6,
  0xa7,
  0x79,
  0xd4,
  0x82,
  0x41,
  0x62,
  0x20,
  0x7b,
  0x56,
  0xb5,
  0xd3,
  0xeb,
  0xc3,
  0x0b,
  0x0d,
  0x23,
  0xf4,
  0x87,
  0xe5,
  0xdb,
  0x9d,
  0x58,
  0xc6,
  0x5b,
  0xca,
  0x35,
  0xbb,
  0x50,
  0xdd,
  0x95,
  0x5f,
  0x4a,
  0x97,
  0x13,
  0x83,
  0xe4,
  0xaa,
  0x75,
  0xeb,
  0x03,
  0x46,
  0x2c,
  0x92,
  0x90,
  0xdb,
  0x0c,
  0x85,
  0x6c,
  0x97,
  0x71,
  0x9d,
  0xa2,
  0x3a,
  0x07,
  0x94,
  0x61,
  0x65,
  0x25,
  0xab,
  0x3d,
  0x43,
  0x9d,
  0xaf,
  0x2a,
  0xe2,
  0x87,
  0x7f,
  0xfd,
  0x45,
  0x1e,
  0x91,
  0x8e,
  0x64,
  0x27,
  0x3e,
  0x79,
  0xdc,
  0x0a,
  0x85,
  0x1d,
  0x12,
  0x07,
  0xfb,
  0x64,
  0x18,
  0xee,
  0x1d,
  0x15,
  0x09,
  0x85,
  0x5a,
  0xc1,
  0xbb,
  0xe6,
  0x44,
  0xe1,
  0x35,
  0x57,
  0xfe,
  0x97,
  0x4f,
  0x00,
  0xbb,
  0xf6,
  0x1b,
  0x42,
  0xea,
  0xda,
  0xce,
  0x04,
  0x13,
  0x39,
  0x6e,
  0xd0,
  0x89,
  0x4f,
  0x6b,
  0x42,
  0xab,
  0xa4,
  0xbd,
  0x8a,
  0x42,
  0x8a,
  0xa3,
  0x03,
  0xbb,
  0x16,
  0xb1,
  0x46,
  0x14,
  0x43,
  0x91,
  0xad,
  0xd2,
  0x91,
  0x6d,
  0xe0,
  0xb3,
  0xd2,
  0x78,
  0x05,
  0x5a,
  0x5c,
  0xff,
  0x80,
  0x75,
  0x69,
  0x6d,
  0xb1,
  0x23,
  0x87,
  0x58,
  0xd6,
  0xc7,
  0x16,
  0x04,
  0x6a,
  0xfd,
  0x43,
  0xc0,
  0x6e,
  0xc2,
  0x15,
  0x40,
  0xe5,
  0xa1,
  0x6b,
  0x8d,
  0xa3,
  0x70,
  0x31,
  0x67,
  0x0a,
  0x94,
  0xf1,
  0xcb,
  0x5c,
  0x1d,
  0xc3,
  0xba,
  0xf2,
  0x01,
  0x5b,
  0xdb,
  0xf5,
  0xbe,
  0x4d,
  0x85,
  0xc9,
  0xb8,
  0xec,
  0xd1,
  0x26,
  0xf6,
  0xbe,
  0x72,
  0x4c,
  0xd9,
  0x23,
  0xaa,
  0xc1,
  0xe9,
  0xef,
  0x51,
  0x0b,
  0x42,
  0xc1,
  0xc3,
  0xce,
  0x49,
  0x49,
  0xe9,
  0xc2,
  0x83,
  0x43,
  0x75,
  0xe6,
  0xb7,
  0xd6,
  0x05,
  0xc3,
  0xbb,
  0xe8,
  0x09,
  0xb6,
  0xd5,
  0xb6,
  0x65,
  0xe1,
  0xd1,
  0x32,
  0xaf,
  0xa9,
  0xf8,
  0xa7,
  0xf7,
  0x07,
  0xbd,
  0x3e,
  0xbc,
  0xb1,
  0xf2,
  0xb6,
  0x17,
  0x3d,
  0x7c,
  0xbc,
  0xaa,
  0x19,
  0x40,
  0x29,
  0xfa,
  0x3c,
  0x46,
  0x17,
  0xf6,
  0x49,
  0x29,
  0x49,
  0x9f,
  0x1e,
  0x2e,
  0xcc,
  0x50,
  0x16,
  0x07,
  0x58,
  0x88,
  0x08,
  0x84,
  0xe5,
  0xdb,
  0xfd,
  0x58,
  0xc6,
  0x5b,
  0xc4,
  0x35,
  0xbb,
  0xd0,
  0xdd,
  0x95,
  0x5f,
  0x4d,
  0x97,
  0x13,
  0x63,
  0xe4,
  0xaa,
  0x75,
  0xec,
  0x03,
  0x46,
  0xcc,
  0x92,
  0x90,
  0xdb,
  0x39,
  0x0f,
  0x07,
  0x09,
  0x7e,
  0x9d,
  0xa2,
  0xca,
  0x07,
  0x94,
  0x61,
  0x6e,
  0x25,
  0xab,
  0x8d,
  0x43,
  0x9d,
  0xaf,
  0x26,
  0xe2,
  0x87,
  0xff,
  0xfd,
  0x45,
  0x1e,
  0x90,
  0x8e,
  0x64,
  0xb7,
  0x3e,
  0x79,
  0xdc,
  0x34,
  0xaa,
  0x20,
  0x0c,
  0x03,
  0xfb,
  0x64,
  0x58,
  0xee,
  0x1d,
  0x15,
  0x03,
  0x85,
  0x5a,
  0x91,
  0xbb,
  0xe6,
  0x44,
  0xe9,
  0x35,
  0x57,
  0x6e,
  0x97,
  0x4f,
  0x00,
  0xba,
  0xf6,
  0x1b,
  0xa2,
  0xea,
  0xda,
  0xce,
  0xbc,
  0x5e,
  0x4b,
  0x0a,
  0xdc,
  0x89,
  0x4f,
  0x1b,
  0x42,
  0xab,
  0xa4,
  0xb3,
  0x8a,
  0x42,
  0x7a,
  0xa3,
  0x03,
  0xbb,
  0x1b,
  0xb1,
  0x46,
  0x74,
  0x43,
  0x91,
  0xad,
  0xd1,
  0x91,
  0x6d,
  0xb0,
  0xb3,
  0xd2,
  0x78,
  0xc3,
  0xec,
  0xbc,
  0x04,
  0x88,
  0x75,
  0x69,
  0xed,
  0xb1,
  0x23,
  0x87,
  0x5c,
  0xd6,
  0xc7,
  0x56,
  0x04,
  0x6a,
  0xfd,
  0x49,
  0xc0,
  0x6e,
  0xd2,
  0x15,
  0x40,
  0xe5,
  0xa8,
  0x6b,
  0x8d,
  0x63,
  0x70,
  0x31,
  0x67,
  0xbe,
  0x07,
  0xf8,
  0x0f,
  0x5b,
  0x1d,
  0xc3,
  0x6a,
  0xf2,
  0x01,
  0x5b,
  0xd7,
  0xf5,
  0xbe,
  0x1d,
  0x85,
  0xc9,
  0xb8,
  0xe5,
  0xd1,
  0x26,
  0x16,
  0xbe,
  0x72,
  0x4c,
  0xdb,
  0x23,
  0xaa,
  0x51,
  0xe9,
  0xef,
  0x51,
  0xae,
  0xdd,
  0x92,
  0x0c,
  0xc9,
  0x49,
  0x49,
  0xe9,
  0xc2,
  0x83,
  0x43,
  0x76,
  0xe6,
  0xb7,
  0x76,
  0x05,
  0xc3,
  0xbb,
  0xec,
  0x09,
  0xb6,
  0x35,
  0xb6,
  0x65,
  0xe1,
  0xd0,
  0x32,
  0xaf,
  0x09,
  0xf8,
  0xa7,
  0xf7,
  0xee,
  0xcc,
  0x98,
  0x0a,
  0xb6,
  0xf2,
  0xb6,
  0x17,
  0x3d,
  0x7c,
  0xbc,
  0xa9,
  0x19,
  0x40,
  0x89,
  0xfa,
  0x3c,
  0x46,
  0x13,
  0xf6,
  0x49,
  0xc9,
  0x49,
  0x9f,
  0x1e,
  0x2f,
  0xcc,
  0x50,
  0xf6,
  0x07,
  0x58,
  0x88,
  0x15,
  0x33,
  0x67,
  0x05,
  0xf3,
  0x70,
  0x90,
  0xee,
  0x86,
  0x27,
  0xb3,
  0xb3,
  0x3c,
  0x02,
  0x10,
  0xef,
  0xa8,
  0x36,
  0xab,
  0xc9,
  0xb1,
  0x9c,
  0x70,
  0xe8,
  0x99,
  0xed,
  0xfc,
  0xb7,
  0xbd,
  0x81,
  0xb6,
  0x67,
  0x0b,
  0x44,
  0x42,
  0x07,
  0xa3,
  0x0a,
  0xc2,
  0x95,
  0x89,
  0xe7,
  0xf6,
  0xe5,
  0x13,
  0xf2,
  0x98,
  0x1e,
  0x3f,
  0x33,
  0x10,
  0x35,
  0x5b,
  0xbb,
  0xfa,
  0xb0,
  0x5c,
  0xfa,
  0x6f,
  0xe3,
  0xc1,
  0xb3,
  0xd0,
  0x53,
  0x4f,
  0x07,
  0x5e,
  0x08,
  0xeb,
  0xb5,
  0xa4,
  0xd7,
  0x32,
  0xb6,
  0x76,
  0xa4,
  0x7a,
  0x70,
  0x44,
  0x87,
  0x66,
  0xc6,
  0xc5,
  0x96,
  0xab,
  0x6b,
  0x30,
  0x40,
  0xf3,
  0xcb,
  0xc5,
  0xa9,
  0x61,
  0x92,
  0xef,
  0x74,
  0x3c,
  0x1d,
  0xd5,
  0x03,
  0xcc,
  0xce,
  0x4b,
  0x9d,
  0xba,
  0xe9,
  0x59,
  0x0e,
  0xbb,
  0xcb,
  0xcb,
  0x8a,
  0x7e,
  0xc6,
  0xc3,
  0x69,
  0x16,
  0x0e,
  0xde,
  0x9d,
  0xc5,
  0xfc,
  0xbf,
  0x48,
  0xf5,
  0x13,
  0xb1,
  0x0e,
  0x0b,
  0x75,
  0xd5,
  0x00,
  0x7b,
  0x80,
  0xff,
  0x69,
  0x75,
  0xca,
  0xb1,
  0x15,
  0x4a,
  0xf2,
  0x5d,
  0x72,
  0x1a,
  0x5f,
  0x08,
  0x8b,
  0x37,
  0xb8,
  0x07,
  0xb4,
  0x2e,
  0x57,
  0xa9,
  0xab,
  0x4a,
  0xa8,
  0xdc,
  0x77,
  0x52,
  0x16,
  0xd2,
  0x0d,
  0xda,
  0x2d,
  0xc9,
  0x94,
  0x8a,
  0x34,
  0xcd,
  0x03,
  0x3b,
  0xdc,
  0x09,
  0x07,
  0x71,
  0x72,
  0x0c,
  0xa6,
  0xc8,
  0xe2,
  0xf8,
  0x1a,
  0x55,
  0xcc,
  0x47,
  0x68,
  0x75,
  0x57,
  0x69,
  0xad,
  0x51,
  0x60,
  0x47,
  0x09,
  0xce,
  0x8c,
  0xa9,
  0x84,
  0x1a,
  0xa4,
  0x55,
  0x8b,
  0xb2,
  0xd7,
  0x39,
  0x06,
  0x74,
  0x78,
  0x40,
  0xa2,
  0x5c,
  0x92,
  0xe0,
  0xdd,
  0x85,
  0xde,
  0xfb,
  0xa9,
  0x42,
  0x52,
  0x4d,
  0xa9,
  0x51,
  0x66,
  0x63,
  0x09,
  0x31,
  0x73,
  0x56,
  0x7b,
  0xe5,
  0x5b,
  0x2a,
  0x74,
  0x4d,
  0x2a,
  0xe6,
  0xf8,
  0x8b,
  0x85,
  0xbf,
  0x5d,
  0x23,
  0x6d,
  0x3f,
  0x22,
  0xba,
  0x31,
  0x14,
  0x16,
  0xbd,
  0xad,
  0xb2,
  0x56,
  0xae,
  0xd9,
  0x3c,
  0x06,
  0xe3,
  0x86,
  0x27,
  0x93,
  0xb3,
  0x3c,
  0x02,
  0x10,
  0xef,
  0xa8,
  0x66,
  0xab,
  0xc9,
  0xb1,
  0x9f,
  0x70,
  0xe8,
  0xe9,
  0xed,
  0xfc,
  0xb7,
  0xb8,
  0x81,
  0xb6,
  0x17,
  0x0b,
  0x44,
  0x42,
  0x8c,
  0x44,
  0x64,
  0x0a,
  0x9c,
  0x89,
  0xe7,
  0xd6,
  0xe5,
  0x13,
  0xf2,
  0x94,
  0x1e,
  0x3f,
  0xc3,
  0x10,
  0x35,
  0x5b,
  0xb6,
  0xfa,
  0xb0,
  0x2c,
  0xfa,
  0x6f,
  0xe3,
  0xcd,
  0xb3,
  0xd0,
  0xe3,
  0x4f,
  0x07,
  0x5e,
  0x6e,
  0xa1,
  0x24,
  0x0a,
  0xdc,
  0x32,
  0xb6,
  0xc6,
  0xa4,
  0x7a,
  0x70,
  0x4f,
  0x87,
  0x66,
  0x46,
  0xc5,
  0x96,
  0xab,
  0x6d,
  0x30,
  0x40,
  0x93,
  0xcb,
  0xc5,
  0xa9,
  0x6d,
  0x92,
  0xef,
  0x14,
  0x3c,
  0x1d,
  0xd5,
  0x13,
  0x85,
  0x7d,
  0x04,
  0x9b,
  0xba,
  0xe9,
  0xb9,
  0x0e,
  0xbb,
  0xcb,
  0xc1,
  0x8a,
  0x7e,
  0x06,
  0xc3,
  0x69,
  0x16,
  0x0a,
  0xde,
  0x9d,
  0xf5,
  0xfc,
  0xbf,
  0x48,
  0xf2,
  0x13,
  0xb1,
  0xee,
  0x0b,
  0x75,
  0xd5,
  0xd0,
  0x06,
  0x7b,
  0x04,
  0x68,
  0x75,
  0xca,
  0xc1,
  0x15,
  0x4a,
  0xf2,
  0x55,
  0x72,
  0x1a,
  0x5f,
  0x08,
  0x8b,
  0x37,
  0xba,
  0x07,
  0xb4,
  0x7e,
  0x57,
  0xa9,
  0xab,
  0x4b,
  0xa8,
  0xdc,
  0xe7,
  0x52,
  0x16,
  0xd2,
  0xd6,
  0xff,
  0x81,
  0x0f,
  0x93,
  0x8a,
  0x34,
  0xfd,
  0x03,
  0x3b,
  0xdc,
  0x09,
  0x07,
  0x71,
  0x72,
  0x0c,
  0xa6,
  0xc8,
  0xec,
  0xf8,
  0x1a,
  0x95,
  0xcc,
  0x47,
  0x68,
  0x79,
  0x57,
  0x69,
  0x0d,
  0x51,
  0x60,
  0x47,
  0x5c,
  0x23,
  0xaf,
  0x02,
  0x87,
  0x1a,
  0xa4,
  0xf5,
  0x8b,
  0xb2,
  0xd7,
  0x39,
  0x06,
  0x74,
  0xb8,
  0x40,
  0xa2,
  0x5c,
  0x92,
  0xe0,
  0xdd,
  0xb5,
  0xde,
  0xfb,
  0xa9,
  0x4d,
  0x52,
  0x4d,
  0x09,
  0x51,
  0x66,
  0x63,
  0x54,
  0xb6,
  0xef,
  0x07,
  0x7c,
  0xe5,
  0x5b,
  0x0a,
  0x74,
  0x4d,
  0x2a,
  0xe6,
  0xf8,
  0x8b,
  0x85,
  0xbf,
  0x5d,
  0x23,
  0x6d,
  0x3f,
  0x22,
  0x4a,
  0x31,
  0x14,
  0x16,
  0xb2,
  0xad,
  0xb2,
  0xf6,
  0xae,
  0xd9,
  0x3c,
  0xab,
  0x49,
  0x10,
  0x09,
  0x48,
  0x44,
  0xa6,
  0xbf,
  0x4b,
  0xa3,
  0x1c,
  0x6a,
  0xa8,
  0xf2,
  0x30,
  0xfe,
  0xfd,
  0x58,
  0x8e,
  0x3b,
  0xce,
  0xcb,
  0x1b,
  0x0d,
  0x80,
  0x03,
  0x7d,
  0xf9,
  0x33,
  0x54,
  0x18,
  0xbb,
  0x42,
  0x9c,
  0x0a,
  0x08,
  0x16,
  0x4a,
  0xa2,
  0xee,
  0x8f,
  0x21,
  0x82,
  0xfd,
  0xab,
  0x3c,
  0xc1,
  0x96,
  0xc0,
  0x1b,
  0x26,
  0x70,
  0xd8,
  0x43,
  0x2b,
  0xc3,
  0xd7,
  0x4c,
  0xe5,
  0x34,
  0x8e,
  0x83,
  0xd8,
  0x43,
  0x45,
  0x26,
  0xb1,
  0x0e,
  0x51,
  0xd8,
  0x47,
  0x73,
  0x39,
  0x95,
  0xbe,
  0xee,
  0x22,
  0xbc,
  0xf5,
  0xda,
  0x00,
  0xd9,
  0x4e,
  0x2f,
  0x09,
  0x10,
  0x0a,
  0xce,
  0xd8,
  0x43,
  0x83,
  0xe2,
  0x1a,
  0x37,
  0x34,
  0xbc,
  0x60,
  0x52,
  0x23,
  0x0d,
  0x6d,
  0xb0,
  0x47,
  0x6d,
  0xf5,
  0x51,
  0xb2,
  0x15,
  0x2c,
  0x36,
  0x70,
  0xbb,
  0x75,
  0x19,
  0xcc,
  0xfb,
  0x44,
  0x04,
  0x89,
  0xeb,
  0xac,
  0x66,
  0xe8,
  0xe9,
  0x18,
  0xed,
  0xe0,
  0x36,
  0x7d,
  0x37,
  0xd3,
  0x04,
  0xfd,
  0x1f,
  0xf8,
  0x58,
  0xbe,
  0x17,
  0x95,
  0x5d,
  0xf1,
  0x40,
  0x97,
  0x37,
  0x76,
  0xc4,
  0x3f,
  0x1c,
  0xc5,
  0xe2,
  0xdc,
  0x77,
  0x83,
  0x40,
  0x21,
  0x7f,
  0x44,
  0xe1,
  0x57,
  0xda,
  0xcd,
  0x17,
  0x30,
  0x01,
  0x35,
  0xf2,
  0x2a,
  0xa0,
  0x75,
  0xe4,
  0x2c,
  0x41,
  0xe8,
  0xad,
  0x99,
  0xcf,
  0xf9,
  0x88,
  0x8b,
  0xfa,
  0x0c,
  0xb6,
  0xa4,
  0xab,
  0x70,
  0xab,
  0xdc,
  0xdc,
  0xb5,
  0x26,
  0x13,
  0x97,
  0x10,
  0xfb,
  0x4d,
  0x0b,
  0x65,
  0xfb,
  0x7e,
  0x91,
  0xf2,
  0x53,
  0x12,
  0x41,
  0x3a,
  0x95,
  0xd9,
  0xfa,
  0xc7,
  0x94,
  0xcb,
  0xa8,
  0x8e,
  0x27,
  0xbc,
  0xf2,
  0xf2,
  0x37,
  0x15,
  0xdd,
  0x95,
  0x25,
  0x54,
  0xce,
  0x20,
  0x9d,
  0x49,
  0x0a,
  0x9a,
  0x04,
  0x91,
  0x6e,
  0x0d,
  0xa8,
  0xed,
  0xbe,
  0xc7,
  0x6a,
  0x26,
  0x05,
  0x38,
  0x7b,
  0x34,
  0x57,
  0x73,
  0x59,
  0x43,
  0x0d,
  0x0d,
  0xd8,
  0xa2,
  0x22,
  0x6a,
  0xda,
  0xab,
  0x21,
  0xff,
  0x44,
  0xb6,
  0x05,
  0xbe,
  0x4b,
  0xa3,
  0x4c,
  0x6a,
  0xa8,
  0xf2,
  0x3f,
  0xfe,
  0xfd,
  0x48,
  0x8e,
  0x3b,
  0xce,
  0xc9,
  0x1b,
  0x0d,
  0x80,
  0x03,
  0x7d,
  0xf9,
  0x35,
  0x54,
  0x18,
  0xfb,
  0x42,
  0x9c,
  0x0a,
  0x1e,
  0x5c,
  0x06,
  0x0f,
  0xea,
  0x8f,
  0x21,
  0xb2,
  0xfd,
  0xab,
  0x3c,
  0xc9,
  0x96,
  0xc0,
  0x9b,
  0x26,
  0x70,
  0xd8,
  0x44,
  0x2b,
  0xc3,
  0x27,
  0x4c,
  0xe5,
  0x34,
  0x8b,
  0x83,
  0xd8,
  0xb3,
  0x45,
  0x26,
  0xb1,
  0x47,
  0xf9,
  0xde,
  0x0f,
  0x7e,
  0x39,
  0x95,
  0xfe,
  0xee,
  0x22,
  0xbc,
  0xfc,
  0xda,
  0x00,
  0xf9,
  0x4e,
  0x2f,
  0x09,
  0x19,
  0x0a,
  0xce,
  0x98,
  0x43,
  0x83,
  0xe2,
  0x1e,
  0x37,
  0x34,
  0x4c,
  0x60,
  0x52,
  0x23,
  0xae,
  0xc1,
  0xaf,
  0x00,
  0x63,
  0xf5,
  0x51,
  0x92,
  0x15,
  0x2c,
  0x36,
  0x77,
  0xbb,
  0x75,
  0x49,
  0xcc,
  0xfb,
  0x44,
  0x02,
  0x89,
  0xeb,
  0xbc,
  0x66,
  0xe8,
  0xe9,
  0x1f,
  0xed,
  0xe0,
  0x56,
  0x7d,
  0x37,
  0xd3,
  0x47,
  0xdc,
  0x03,
  0x07,
  0x56,
  0xbe,
  0x17,
  0x05,
  0x5d,
  0xf1,
  0x40,
  0x90,
  0x37,
  0x76,
  0x64,
  0x3f,
  0x1c,
  0xc5,
  0xe8,
  0xdc,
  0x77,
  0x63,
  0x40,
  0x21,
  0x7f,
  0x4c,
  0xe1,
  0x57,
  0xba,
  0xcd,
  0x17,
  0x30,
  0x56,
  0x7a,
  0x56,
  0x0b,
  0xa6,
  0x75,
  0xe4,
  0xcc,
  0x41,
  0xe8,
  0xad,
  0x94,
  0xcf,
  0xf9,
  0xc8,
  0x8b,
  0xfa,
  0x0c,
  0xbf,
  0xa4,
  0xab,
  0x00,
  0xab,
  0xdc,
  0xdc,
  0xb8,
  0x26,
  0x13,
  0x27,
  0x10,
  0xfb,
  0x4d,
  0xa0,
  0xfb,
  0x3c,
  0x0c,
  0x96,
  0xf2,
  0x53,
  0x22,
  0x41,
  0x3a,
  0x95,
  0xdf,
  0xfa,
  0xc7,
  0x84,
  0xcb,
  0xa8,
  0x8e,
  0x2e,
  0xbc,
  0xf2,
  0xc2,
  0x37,
  0x15,
  0xdd,
  0x90,
  0x25,
  0x54,
  0x7e,
  0x20,
  0x9d,
  0x49,
  0xbe,
  0xf9,
  0x0d,
  0x0c,
  0x69,
  0x0d,
  0xa8,
  0xdd,
  0xbe,
  0xc7,
  0x6a,
  0x20,
  0x05,
  0x38,
  0x7b,
  0x34,
  0x57,
  0x73,
  0x51,
  0x43,
  0x0d,
  0x3d,
  0xd8,
  0xa2,
  0x22,
  0x67,
  0xda,
  0xab,
  0x81,
  0xff,
  0x44,
  0xb6,
  0x41,
  0x06,
  0xf2,
  0x03,
  0xc1,
  0x65,
  0xf0,
  0x23,
  0x33,
  0xb8,
  0xe8,
  0xb2,
  0x49,
  0x69,
  0x92,
  0x31,
  0xc6,
  0x67,
  0x07,
  0x28,
  0x65,
  0x26,
  0x8a,
  0x0d,
  0xda,
  0xae,
  0x2a,
  0x92,
  0xb1,
  0x94,
  0x03,
  0x01,
  0x08,
  0x8f,
  0x0c,
  0x0b,
  0x94,
  0xef,
  0xfd,
  0x7e,
  0x15,
  0x7a,
  0xa8,
  0x96,
  0x21,
  0x6d,
  0xc0,
  0x3b,
  0xef,
  0x42,
  0xd0,
  0x24,
  0x63,
  0x7f,
  0x6e,
  0x00,
  0x9f,
  0xfc,
  0x69,
  0x7a,
  0x45,
  0xe9,
  0xb7,
  0x2c,
  0x71,
  0x51,
  0x40,
  0x01,
  0x1a,
  0xfc,
  0x0a,
  0x05,
  0x36,
  0x1b,
  0xec,
  0x5b,
  0x86,
  0xad,
  0x0c,
  0xd4,
  0x0c,
  0xa7,
  0x85,
  0x36,
  0x55,
  0x3f,
  0x64,
  0x93,
  0x09,
  0xdc,
  0x89,
  0xd8,
  0x8b,
  0x31,
  0x24,
  0x06,
  0x8d,
  0x0b,
  0xad,
  0x0d,
  0xc4,
  0x3d,
  0x70,
  0x13,
  0xb6,
  0xd3,
  0x2c,
  0x2e,
  0xfc,
  0xbb,
  0xe2,
  0x24,
  0x3e,
  0x57,
  0x96,
  0x21,
  0x9b,
  0x04,
  0x80,
  0xee,
  0x30,
  0xed,
  0xf9,
  0x4b,
  0x37,
  0x8d,
  0x5e,
  0xdf,
  0x06,
  0x51,
  0x35,
  0x07,
  0xa5,
  0x67,
  0xb5,
  0x6d,
  0x83,
  0x38,
  0xd7,
  0x49,
  0xcd,
  0x5d,
  0x04,
  0xf2,
  0xfe,
  0x54,
  0x58,
  0x2d,
  0x9b,
  0x78,
  0x16,
  0xe5,
  0x86,
  0x90,
  0xbc,
  0x96,
  0x82,
  0x26,
  0x52,
  0x3e,
  0xc2,
  0x78,
  0xa3,
  0x01,
  0xba,
  0xcf,
  0xc3,
  0xb3,
  0x79,
  0xd3,
  0x7c,
  0x71,
  0x1b,
  0x0e,
  0x8a,
  0x14,
  0x24,
  0x34,
  0x91,
  0xd6,
  0x48,
  0x7c,
  0x36,
  0xf7,
  0x40,
  0xa1,
  0xdb,
  0x79,
  0x17,
  0x6c,
  0x64,
  0xe9,
  0x3a,
  0x43,
  0x46,
  0x06,
  0x9b,
  0xdf,
  0xc0,
  0x9a,
  0x61,
  0x13,
  0xf8,
  0x29,
  0xf1,
  0x9c,
  0x08,
  0x30,
  0xce,
  0xb8,
  0x51,
  0xe5,
  0xd1,
  0x64,
  0x00,
  0xad,
  0xd0,
  0x31,
  0x96,
  0x1b,
  0x87,
  0x6c,
  0xc5,
  0xaa,
  0xd8,
  0x4b,
  0x67,
  0x06,
  0x64,
  0x20,
  0x3f,
  0xec,
  0x9e,
  0x6c,
  0x27,
  0x96,
  0x2e,
  0x63,
  0xf7,
  0xcf,
  0x11,
  0xc3,
  0xae,
  0x1a,
  0x26,
  0x93,
  0xcf,
  0x52,
  0x2f,
  0x4e,
  0x61,
  0xe4,
  0x78,
  0x93,
  0x3a,
  0x55,
  0x65,
  0xbc,
  0xb8,
  0x0b,
  0x20,
  0x33,
  0xb8,
  0x48,
  0xb2,
  0x49,
  0x69,
  0x99,
  0x31,
  0xc6,
  0x37,
  0x07,
  0x28,
  0x65,
  0x2d,
  0x8a,
  0x0d,
  0xaa,
  0xae,
  0x2a,
  0x92,
  0xbd,
  0x94,
  0x03,
  0x61,
  0x08,
  0x8f,
  0x0c,
  0xec,
  0xec,
  0x84,
  0x08,
  0x7d,
  0x15,
  0x7a,
  0x68,
  0x96,
  0x21,
  0x6d,
  0xc1,
  0x3b,
  0xef,
  0x32,
  0xd0,
  0x24,
  0x63,
  0x79,
  0x6e,
  0x00,
  0x2f,
  0xfc,
  0x69,
  0x7a,
  0x49,
  0xe9,
  0xb7,
  0x2c,
  0x71,
  0x51,
  0x40,
  0x44,
  0xff,
  0x4a,
  0x0a,
  0x02,
  0x36,
  0x1b,
  0x8c,
  0x5b,
  0x86,
  0xad,
  0x0e,
  0xd4,
  0x0c,
  0xb7,
  0x85,
  0x36,
  0x55,
  0x34,
  0x64,
  0x93,
  0xf9,
  0xdc,
  0x89,
  0xd8,
  0x84,
  0x31,
  0x24,
  0x66,
  0x8d,
  0x0b,
  0xad,
  0x6f,
  0x0b,
  0xcd,
  0x0e,
  0x1f,
  0xb6,
  0xd3,
  0x7c,
  0x2e,
  0xfc,
  0xbb,
  0xe1,
  0x24,
  0x3e,
  0xe7,
  0x96,
  0x21,
  0x9b,
  0x09,
  0x80,
  0xee,
  0x10,
  0xed,
  0xf9,
  0x4b,
  0x30,
  0x8d,
  0x5e,
  0x1f,
  0x06,
  0x51,
  0x35,
  0xf3,
  0xee,
  0x86,
  0x08,
  0x6d,
  0x83,
  0x38,
  0x07,
  0x49,
  0xcd,
  0x5d,
  0x0d,
  0xf2,
  0xfe,
  0xb4,
  0x58,
  0x2d,
  0x9b,
  0x70,
  0x16,
  0xe5,
  0xf6,
  0x90,
  0xbc,
  0x96,
  0x8e,
  0x26,
  0x52,
  0xbe,
  0xc2,
  0x78,
  0xa3,
  0x59,
  0x76,
  0xb9,
  0x06,
  0xb6,
  0x79,
  0xd3,
  0x7c,
  0x71,
  0x1b,
  0x0e,
  0x80,
  0x14,
  0x24,
  0x84,
  0x91,
  0xd6,
  0x48,
  0x7b,
  0x36,
  0xf7,
  0x90,
  0xa1,
  0xdb,
  0x79,
  0x13,
  0x6c,
  0x64,
  0xf9,
  0x3a,
  0x43,
  0x46,
  0xd3,
  0xd2,
  0x0d,
  0x03,
  0x9b,
  0x61,
  0x13,
  0x68,
  0x29,
  0xf1,
  0x9c,
  0x01,
  0x30,
  0xce,
  0x88,
  0x51,
  0xe5,
  0xd1,
  0x6f,
  0x00,
  0xad,
  0xa0,
  0x31,
  0x96,
  0x1b,
  0x83,
  0x6c,
  0xc5,
  0xea,
  0xd8,
  0x4b,
  0x67,
  0xd0,
  0x96,
  0xb4,
  0x07,
  0xe4,
  0x9e,
  0x6c,
  0x97,
  0x96,
  0x2e,
  0x63,
  0xfe,
  0xcf,
  0x11,
  0x63,
  0xae,
  0x1a,
  0x26,
  0x90,
  0xcf,
  0x52,
  0x5f,
  0x4e,
  0x61,
  0xe4,
  0x7c,
  0x93,
  0x3a,
  0x15,
  0x65,
  0xbc,
  0xb8,
  0x2f,
  0x69,
  0x4b,
  0x08,
  0xce,
  0x4e,
  0x88,
  0xf0,
  0x33,
  0xc4,
  0x45,
  0x0a,
  0xc0,
  0x9f,
  0xcf,
  0xac,
  0xfe,
  0xa1,
  0x4e,
  0xf4,
  0x9f,
  0x23,
  0xcc,
  0xc5,
  0xa7,
  0x98,
  0xe1,
  0xd7,
  0x18,
  0x1c,
  0x99,
  0x8a,
  0x29,
  0x7b,
  0x44,
  0x02,
  0xf4,
  0xaf,
  0xa4,
  0x71,
  0xcf,
  0xe0,
  0x1c,
  0x2a,
  0xf1,
  0x43,
  0xb8,
  0x33,
  0xcc,
  0x96,
  0x14,
  0x0c,
  0xd2,
  0xea,
  0xd7,
  0x80,
  0xc3,
  0xa6,
  0xdd,
  0xa7,
  0x13,
  0xfd,
  0x8b,
  0x3d,
  0xa0,
  0xff,
  0xd0,
  0x02,
  0xb6,
  0xd0,
  0xec,
  0x1a,
  0xaf,
  0x06,
  0x16,
  0xeb,
  0x78,
  0xdf,
  0x3d,
  0x28,
  0x87,
  0x7e,
  0xdb,
  0x26,
  0xfd,
  0xdc,
  0xcd,
  0xcc,
  0x42,
  0xa9,
  0xc5,
  0x21,
  0x03,
  0x5a,
  0x91,
  0x4c,
  0x86,
  0x58,
  0x94,
  0x01,
  0xef,
  0x6e,
  0x88,
  0x80,
  0x33,
  0xab,
  0xe7,
  0xe4,
  0x3f,
  0xc4,
  0x8b,
  0x93,
  0x84,
  0xc3,
  0x7f,
  0x84,
  0x04,
  0xfc,
  0x89,
  0xb1,
  0x1e,
  0xcf,
  0xe2,
  0xef,
  0xd1,
  0xb1,
  0x08,
  0xf9,
  0x88,
  0xf4,
  0x62,
  0x04,
  0x65,
  0x97,
  0x6b,
  0xba,
  0x7f,
  0x81,
  0x25,
  0x82,
  0x02,
  0x96,
  0x3e,
  0x9a,
  0x03,
  0x8a,
  0xec,
  0x28,
  0x28,
  0xcd,
  0xd3,
  0x68,
  0x2a,
  0x43,
  0x8c,
  0x61,
  0xd3,
  0x56,
  0x44,
  0x26,
  0x4a,
  0xfd,
  0x9d,
  0x07,
  0x2d,
  0xdd,
  0x30,
  0xdd,
  0x45,
  0x42,
  0x42,
  0xf1,
  0x86,
  0xca,
  0x5a,
  0x0c,
  0xa2,
  0x05,
  0x85,
  0xba,
  0x98,
  0xaf,
  0xf9,
  0x96,
  0x45,
  0x20,
  0xe1,
  0x8e,
  0xe7,
  0xbc,
  0xb8,
  0x7f,
  0xc9,
  0xe8,
  0xe7,
  0x0f,
  0x6d,
  0x49,
  0x7b,
  0x91,
  0x4b,
  0x5c,
  0x42,
  0xc9,
  0xaa,
  0x67,
  0x92,
  0x97,
  0x30,
  0xc6,
  0x17,
  0xa0,
  0x16,
  0x98,
  0xfd,
  0x92,
  0x0d,
  0x47,
  0x85,
  0xc7,
  0xf7,
  0x32,
  0xbb,
  0x6a,
  0x59,
  0x9c,
  0xf7,
  0x01,
  0x92,
  0xb6,
  0x84,
  0x6e,
  0xb4,
  0xbb,
  0xbd,
  0x36,
  0x55,
  0xb8,
  0x65,
  0x60,
  0xcf,
  0x39,
  0xe8,
  0x5f,
  0xeb,
  0x67,
  0x02,
  0x6d,
  0xf2,
  0xbc,
  0x7a,
  0x38,
  0x08,
  0xc9,
  0x44,
  0x95,
  0xa6,
  0x63,
  0x08,
  0x0a,
  0xf5,
  0x33,
  0xc4,
  0x25,
  0x0a,
  0xc0,
  0x9f,
  0xc8,
  0xac,
  0xfe,
  0x31,
  0x4e,
  0xf4,
  0x9f,
  0x21,
  0xcc,
  0xc5,
  0x97,
  0x98,
  0xe1,
  0xd7,
  0x1c,
  0x1c,
  0x99,
  0x2a,
  0x29,
  0x7b,
  0x44,
  0xc3,
  0x27,
  0x3a,
  0x0f,
  0x79,
  0xcf,
  0xe0,
  0x9c,
  0x2a,
  0xf1,
  0x43,
  0xbd,
  0x33,
  0xcc,
  0x46,
  0x14,
  0x0c,
  0xd2,
  0xeb,
  0xd7,
  0x80,
  0x03,
  0xa6,
  0xdd,
  0xa7,
  0x1d,
  0xfd,
  0x8b,
  0x3d,
  0xa0,
  0xff,
  0xd0,
  0x1c,
  0x44,
  0x52,
  0x0e,
  0x13,
  0xaf,
  0x06,
  0x16,
  0xeb,
  0x78,
  0xdf,
  0x3e,
  0x28,
  0x87,
  0xfe,
  0xdb,
  0x26,
  0xfd,
  0xde,
  0xcd,
  0xcc,
  0x02,
  0xa9,
  0xc5,
  0x21,
  0x06,
  0x5a,
  0x91,
  0x9c,
  0x86,
  0x58,
  0x94,
  0x6d,
  0x8f,
  0x92,
  0x02,
  0x8b,
  0x33,
  0xab,
  0x37,
  0xe4,
  0x3f,
  0xc4,
  0x8a,
  0x93,
  0x84,
  0xa3,
  0x7f,
  0x84,
  0x04,
  0xf8,
  0x89,
  0xb1,
  0xce,
  0xcf,
  0xe2,
  0xef,
  0xd6,
  0xb1,
  0x08,
  0x89,
  0x88,
  0xf4,
  0x62,
  0x36,
  0x83,
  0x3a,
  0x0b,
  0xb9,
  0x7f,
  0x81,
  0xd5,
  0x82,
  0x02,
  0x96,
  0x38,
  0x9a,
  0x03,
  0x4a,
  0xec,
  0x28,
  0x28,
  0xce,
  0xd3,
  0x68,
  0x2a,
  0x43,
  0x8c,
  0x61,
  0xdc,
  0x56,
  0x44,
  0x66,
  0x4a,
  0xfd,
  0x9d,
  0x48,
  0x8b,
  0xb0,
  0x01,
  0xd8,
  0x45,
  0x42,
  0x02,
  0xf1,
  0x86,
  0xca,
  0x51,
  0x0c,
  0xa2,
  0x15,
  0x85,
  0xba,
  0x98,
  0xa4,
  0xf9,
  0x96,
  0xf5,
  0x20,
  0xe1,
  0x8e,
  0xe6,
  0xbc,
  0xb8,
  0x1f,
  0xc9,
  0xe8,
  0xe7,
  0x00,
  0x38,
  0xa5,
  0x07,
  0x98,
  0x4b,
  0x5c,
  0x12,
  0xc9,
  0xaa,
  0x67,
  0x98,
  0x97,
  0x30,
  0xc6,
  0x17,
  0xa0,
  0x16,
  0x9d,
  0xfd,
  0x92,
  0xbd,
  0x47,
  0x85,
  0xc7,
  0xfc,
  0x32,
  0xbb,
  0xca,
  0x59,
  0x9c,
  0xf7,
  0x43,
  0x29,
  0xb5,
  0x0f,
  0x67,
  0xb4,
  0xbb,
  0xed,
  0x36,
  0x55,
  0xb8,
  0x67,
  0x60,
  0xcf,
  0x79,
  0xe8,
  0x5f,
  0xeb,
  0x62,
  0x02,
  0x6d,
  0x42,
  0xbc,
  0x7a,
  0x38,
  0x03,
  0xc9,
  0x44,
  0xb5,
  0xa6,
  0x63,
  0x08,
  0xbc,
  0xd6,
  0x4a,
  0x00,
  0x7c,
  0xa2,
  0xf3,
  0x02,
  0x1d,
  0x01,
  0x89,
  0x4b,
  0x0a,
  0x93,
  0x4a,
  0x8e,
  0x5c,
  0x60,
  0x91,
  0x5a,
  0x55,
  0x9e,
  0x82,
  0xb9,
  0x69,
  0x4b,
  0x63,
  0x6d,
  0xce,
  0x5f,
  0xc0,
  0x04,
  0x48,
  0x89,
  0x21,
  0x05,
  0x41,
  0x24,
  0xe5,
  0xe4,
  0x56,
  0x79,
  0x26,
  0xc6,
  0x89,
  0x47,
  0xa1,
  0x6b,
  0xe3,
  0x35,
  0xa8,
  0xc2,
  0x7e,
  0x18,
  0x91,
  0x82,
  0xd9,
  0x96,
  0x66,
  0xaf,
  0x59,
  0xd7,
  0x9a,
  0x01,
  0xad,
  0x58,
  0xb4,
  0x07,
  0xf6,
  0x28,
  0x29,
  0x11,
  0x7d,
  0x45,
  0x2c,
  0x9b,
  0x9d,
  0x15,
  0x45,
  0xda,
  0x29,
  0xb6,
  0x4c,
  0xb9,
  0x10,
  0xd1,
  0xe0,
  0x73,
  0x0d,
  0xde,
  0xe7,
  0xb9,
  0x53,
  0x23,
  0x22,
  0xf8,
  0x22,
  0x2b,
  0x44,
  0x0b,
  0x33,
  0xa8,
  0xb3,
  0xaa,
  0xee,
  0x0f,
  0x08,
  0xb4,
  0x72,
  0x95,
  0x78,
  0x3f,
  0x1b,
  0xb7,
  0x70,
  0x29,
  0xe6,
  0x32,
  0x2d,
  0xc4,
  0x21,
  0xdb,
  0x82,
  0xae,
  0x29,
  0xad,
  0xc9,
  0xae,
  0x52,
  0x4b,
  0xff,
  0x01,
  0xb4,
  0x08,
  0x1b,
  0x00,
  0x81,
  0x3f,
  0x48,
  0xa7,
  0xdd,
  0x8c,
  0xc8,
  0x0e,
  0x10,
  0x4e,
  0xa2,
  0x1f,
  0xe3,
  0x53,
  0x20,
  0x0b,
  0xe2,
  0xd2,
  0x52,
  0xd1,
  0xe9,
  0x28,
  0x20,
  0xef,
  0x74,
  0x5b,
  0x60,
  0x06,
  0x80,
  0x53,
  0x7a,
  0x28,
  0xd2,
  0x09,
  0xc1,
  0x26,
  0xbe,
  0xa5,
  0x97,
  0x42,
  0x30,
  0x66,
  0xa2,
  0x6d,
  0x0f,
  0xd7,
  0x52,
  0x3c,
  0x7d,
  0x35,
  0xd1,
  0x0c,
  0x2a,
  0x55,
  0x67,
  0x10,
  0x66,
  0xc3,
  0xcd,
  0x0b,
  0x94,
  0x52,
  0xfb,
  0x0a,
  0x5b,
  0x49,
  0xc1,
  0xa7,
  0x50,
  0x3f,
  0xf2,
  0x9c,
  0x2e,
  0xe0,
  0x72,
  0x2e,
  0xe7,
  0xf1,
  0x5c,
  0x8f,
  0x6d,
  0xf2,
  0xde,
  0x44,
  0xac,
  0x51,
  0xbb,
  0x59,
  0x76,
  0x13,
  0xf4,
  0x0b,
  0x6b,
  0xad,
  0x04,
  0xf5,
  0xa4,
  0xf6,
  0x3e,
  0x58,
  0xaf,
  0xc0,
  0x0c,
  0xe3,
  0xd9,
  0x1f,
  0x8d,
  0xd0,
  0x58,
  0x0e,
  0xa7,
  0x70,
  0x92,
  0x0d,
  0x2d,
  0xfb,
  0x53,
  0xaa,
  0x44,
  0xa7,
  0x89,
  0xac,
  0x0a,
  0x04,
  0x03,
  0x1d,
  0x01,
  0xf9,
  0x4b,
  0x0a,
  0x93,
  0x45,
  0x8e,
  0x5c,
  0x50,
  0x91,
  0x5a,
  0x55,
  0x97,
  0x82,
  0xb9,
  0x39,
  0x4b,
  0x63,
  0x6d,
  0xcb,
  0x5f,
  0xc0,
  0xd4,
  0x48,
  0x89,
  0x21,
  0x0c,
  0x24,
  0x3e,
  0x01,
  0xe6,
  0x56,
  0x79,
  0x56,
  0xc6,
  0x89,
  0x47,
  0xa5,
  0x6b,
  0xe3,
  0xf5,
  0xa8,
  0xc2,
  0x7e,
  0x1e,
  0x91,
  0x82,
  0xb9,
  0x96,
  0x66,
  0xaf,
  0x53,
  0xd7,
  0x9a,
  0x81,
  0xad,
  0x58,
  0xb4,
  0x1f,
  0xbc,
  0x92,
  0x09,
  0x1b,
  0x7d,
  0x45,
  0x5c,
  0x9b,
  0x9d,
  0x15,
  0x49,
  0xda,
  0x29,
  0xa6,
  0x4c,
  0xb9,
  0x10,
  0xdc,
  0xe0,
  0x73,
  0xfd,
  0xde,
  0xe7,
  0xb9,
  0x5f,
  0x23,
  0x22,
  0x18,
  0x22,
  0x2b,
  0x44,
  0xef,
  0x27,
  0x9f,
  0x0f,
  0xaa,
  0xee,
  0x0f,
  0xa8,
  0xb4,
  0x72,
  0x95,
  0x73,
  0x3f,
  0x1b,
  0x17,
  0x70,
  0x29,
  0xe6,
  0x30,
  0x2d,
  0xc4,
  0xf1,
  0xdb,
  0x82,
  0xae,
  0x22,
  0xad,
  0xc9,
  0xfe,
  0x52,
  0x4b,
  0xff,
  0x34,
  0x58,
  0xc4,
  0x00,
  0x0f,
  0x81,
  0x3f,
  0xb8,
  0xa7,
  0xdd,
  0x8c,
  0xc1,
  0x0e,
  0x10,
  0xee,
  0xa2,
  0x1f,
  0xe3,
  0x5f,
  0x20,
  0x0b,
  0xa2,
  0xd2,
  0x52,
  0xd1,
  0xea,
  0x28,
  0x20,
  0x9f,
  0x74,
  0x5b,
  0x60,
  0xa7,
  0x7b,
  0xd3,
  0x0b,
  0x27,
  0xd2,
  0x09,
  0x91,
  0x26,
  0xbe,
  0xa5,
  0x91,
  0x42,
  0x30,
  0xf6,
  0xa2,
  0x6d,
  0x0f,
  0xdf,
  0x52,
  0x3c,
  0xcd,
  0x35,
  0xd1,
  0x0c,
  0x2e,
  0x55,
  0x67,
  0x80,
  0x66,
  0xc3,
  0xcd,
  0xd5,
  0xeb,
  0x42,
  0x08,
  0x03,
  0x5b,
  0x49,
  0xd1,
  0xa7,
  0x50,
  0x3f,
  0xf0,
  0x9c,
  0x2e,
  0xf0,
  0x72,
  0x2e,
  0xe7,
  0xf2,
  0x5c,
  0x8f,
  0x8d,
  0xf2,
  0xde,
  0x44,
  0xac,
  0x51,
  0xbb,
  0x89,
  0x76,
  0x13,
  0xf4,
  0xc1,
  0xbe,
  0x98,
  0x08,
  0xfc,
  0xa4,
  0xf6,
  0x2e,
  0x58,
  0xaf,
  0xc0,
  0x0f,
  0xe3,
  0xd9,
  0x0f,
  0x8d,
  0xd0,
  0x58,
  0x0c,
  0xa7,
  0x70,
  0x72,
  0x0d,
  0x2d,
  0xfb,
  0x51,
  0xaa,
  0x44,
  0x67,
  0x89,
  0xac,
  0x0a,
  0x3a,
  0x41,
  0x27,
  0x07,
  0x40,
  0xe2,
  0x13,
  0x0d,
  0x0b,
  0xd9,
  0x15,
  0x24,
  0xbc,
  0x7b,
  0x9d,
  0x02,
  0x21,
  0x50,
  0xeb,
  0x19,
  0x46,
  0x99,
  0x2e,
  0xa5,
  0x21,
  0x98,
  0x7d,
  0x08,
  0x78,
  0x72,
  0x69,
  0x9b,
  0x76,
  0x3e,
  0xa0,
  0x00,
  0xc1,
  0x2b,
  0x99,
  0x3f,
  0x43,
  0x3e,
  0x01,
  0xd5,
  0x87,
  0x83,
  0x6e,
  0x80,
  0x1d,
  0x76,
  0xd3,
  0xf0,
  0x1a,
  0xd6,
  0x06,
  0xda,
  0x8a,
  0x06,
  0x14,
  0x87,
  0xe5,
  0xf0,
  0x05,
  0x8f,
  0x68,
  0xce,
  0xd0,
  0x07,
  0x7e,
  0xf2,
  0xf9,
  0x8d,
  0x06,
  0x1f,
  0xf5,
  0x45,
  0x18,
  0xbb,
  0x3c,
  0x79,
  0x39,
  0xf4,
  0x20,
  0x1a,
  0xf3,
  0x7b,
  0x34,
  0x5b,
  0x82,
  0xdb,
  0xe4,
  0x21,
  0x91,
  0xb7,
  0x71,
  0x62,
  0x34,
  0x5e,
  0x0a,
  0x0f,
  0x83,
  0x45,
  0x0c,
  0x3a,
  0x52,
  0x9d,
  0x55,
  0xce,
  0xb1,
  0x7e,
  0x09,
  0x90,
  0x4c,
  0x5d,
  0xad,
  0x0a,
  0x19,
  0xec,
  0xd7,
  0xfb,
  0x14,
  0x17,
  0x1e,
  0x98,
  0xfd,
  0x3b,
  0x35,
  0x30,
  0xe5,
  0x80,
  0xeb,
  0x05,
  0xba,
  0x37,
  0xbd,
  0xf0,
  0x1b,
  0xcc,
  0x99,
  0xe1,
  0x3e,
  0x2d,
  0xdc,
  0xf8,
  0x04,
  0x5f,
  0x15,
  0xaa,
  0x33,
  0x49,
  0x20,
  0xb9,
  0xd1,
  0xbc,
  0x85,
  0x89,
  0xb9,
  0x6f,
  0x1b,
  0xab,
  0x60,
  0x87,
  0x93,
  0x05,
  0xbd,
  0x2e,
  0x84,
  0xfe,
  0x7b,
  0x1e,
  0xa4,
  0xe4,
  0x90,
  0x4c,
  0x3a,
  0xb9,
  0xf5,
  0x57,
  0xd2,
  0x49,
  0x21,
  0x46,
  0x77,
  0xae,
  0x4f,
  0x4a,
  0x18,
  0xa1,
  0x9d,
  0x40,
  0x27,
  0xa4,
  0x48,
  0x92,
  0xdd,
  0x0e,
  0xec,
  0x8b,
  0x89,
  0x16,
  0x23,
  0xdf,
  0x36,
  0xc5,
  0xbe,
  0x2c,
  0xb6,
  0x31,
  0xf5,
  0x82,
  0xf2,
  0x20,
  0xb7,
  0xcc,
  0x23,
  0xa2,
  0xcc,
  0x58,
  0x11,
  0xa9,
  0x9e,
  0x00,
  0x37,
  0xa5,
  0x59,
  0x89,
  0x97,
  0x0e,
  0x13,
  0x74,
  0x72,
  0xe9,
  0xd4,
  0x20,
  0xcb,
  0x3a,
  0x41,
  0xd3,
  0x49,
  0x4e,
  0x0a,
  0xfd,
  0x0d,
  0xdf,
  0x48,
  0x33,
  0xdc,
  0x54,
  0x33,
  0xa7,
  0xee,
  0x56,
  0x61,
  0xbf,
  0xc8,
  0x5a,
  0xa6,
  0x7d,
  0x6c,
  0x01,
  0x0f,
  0x0b,
  0xd9,
  0xf5,
  0x24,
  0xbc,
  0x7b,
  0x9f,
  0x02,
  0x21,
  0xf0,
  0xeb,
  0x19,
  0x46,
  0x92,
  0x2e,
  0xa5,
  0x91,
  0x98,
  0x7d,
  0x08,
  0x72,
  0x72,
  0x69,
  0xbb,
  0x76,
  0x3e,
  0xa0,
  0xfe,
  0x6a,
  0xb5,
  0x05,
  0x3b,
  0x43,
  0x3e,
  0x11,
  0xd5,
  0x87,
  0x83,
  0x68,
  0x80,
  0x1d,
  0x76,
  0xd3,
  0xf0,
  0x1a,
  0xde,
  0x06,
  0xda,
  0xca,
  0x06,
  0x14,
  0x87,
  0xe0,
  0xf0,
  0x05,
  0x9f,
  0x68,
  0xce,
  0xd0,
  0x5a,
  0xf5,
  0x78,
  0x08,
  0x86,
  0x06,
  0x1f,
  0xb5,
  0x45,
  0x18,
  0xbb,
  0x3b,
  0x79,
  0x39,
  0x24,
  0x20,
  0x1a,
  0xf3,
  0x7d,
  0x34,
  0x5b,
  0x02,
  0xdb,
  0xe4,
  0x21,
  0x96,
  0xb7,
  0x71,
  0x22,
  0x34,
  0x5e,
  0x0a,
  0x7d,
  0x96,
  0x2c,
  0x05,
  0x3c,
  0x52,
  0x9d,
  0xe5,
  0xce,
  0xb1,
  0x7e,
  0x00,
  0x90,
  0x4c,
  0x3d,
  0xad,
  0x0a,
  0x19,
  0xef,
  0xd7,
  0xfb,
  0xb4,
  0x17,
  0x1e,
  0x98,
  0xf2,
  0x3b,
  0x35,
  0x40,
  0xe5,
  0x80,
  0xeb,
  0xa5,
  0xa2,
  0x43,
  0x0a,
  0xfb,
  0x1b,
  0xcc,
  0x99,
  0xe1,
  0x3e,
  0x2d,
  0xd3,
  0xf8,
  0x04,
  0x6f,
  0x15,
  0xaa,
  0x33,
  0x4c,
  0x20,
  0xb9,
  0x71,
  0xbc,
  0x85,
  0x89,
  0xb7,
  0x6f,
  0x1b,
  0x1b,
  0x60,
  0x87,
  0x93,
  0x9b,
  0xdc,
  0x16,
  0x00,
  0xf8,
  0x7b,
  0x1e,
  0x54,
  0xe4,
  0x90,
  0x4c,
  0x33,
  0xb9,
  0xf5,
  0x07,
  0xd2,
  0x49,
  0x21,
  0x49,
  0x77,
  0xae,
  0xbf,
  0x4a,
  0x18,
  0xa1,
  0x98,
  0x40,
  0x27,
  0x04,
  0x48,
  0x92,
  0xdd,
  0x14,
  0xdb,
  0xe5,
  0x00,
  0x18,
  0x23,
  0xdf,
  0x86,
  0xc5,
  0xbe,
  0x2c,
  0xb2,
  0x31,
  0xf5,
  0x02,
  0xf2,
  0x20,
  0xb7,
  0xc9,
  0x23,
  0xa2,
  0xbc,
  0x58,
  0x11,
  0xa9,
  0x92,
  0x00,
  0x37,
  0x95,
  0x59,
  0x89,
  0x97,
  0x7f,
  0xdc,
  0x45,
  0x04,
  0xe7,
  0xd4,
  0x20,
  0x7b,
  0x3a,
  0x41,
  0xd3,
  0x4d,
  0x4e,
  0x0a,
  0xfd,
  0x0d,
  0xdf,
  0x48,
  0x36,
  0xdc,
  0x54,
  0x43,
  0xa7,
  0xee,
  0x56,
  0x6d,
  0xbf,
  0xc8,
  0xfa,
  0xa6,
  0x7d,
  0x6c,
  0xc8,
  0x23,
  0xba,
  0x0f,
  0xaf,
  0x56,
  0x5b,
  0xfd,
  0x06,
  0xa7,
  0xa2,
  0xa0,
  0x05,
  0xab,
  0x7a,
  0x61,
  0x54,
  0x7a,
  0x6b,
  0x17,
  0x5d,
  0x94,
  0xdb,
  0xdb,
  0xc6,
  0x35,
  0x86,
  0xe1,
  0x5f,
  0x0d,
  0xe0,
  0xc2,
  0x59,
  0xe1,
  0xf1,
  0x01,
  0x55,
  0x8f,
  0x87,
  0x1c,
  0x83,
  0x10,
  0x5e,
  0x9b,
  0x7f,
  0xbb,
  0xf1,
  0xa7,
  0xc4,
  0x43,
  0x7b,
  0x94,
  0x0a,
  0x00,
  0xf5,
  0x6a,
  0xa1,
  0xe7,
  0xb2,
  0x4d,
  0x3a,
  0x9d,
  0xb8,
  0x91,
  0xa4,
  0x5c,
  0x5c,
  0x04,
  0x67,
  0xc9,
  0x52,
  0x00,
  0x84,
  0xd0,
  0x22,
  0x49,
  0x5b,
  0x7d,
  0xa7,
  0x06,
  0x13,
  0xd8,
  0xd0,
  0xc3,
  0x71,
  0xc0,
  0xb3,
  0x00,
  0xd1,
  0x9e,
  0x13,
  0xf0,
  0xb8,
  0x54,
  0x13,
  0x1c,
  0x81,
  0x69,
  0xcf,
  0x0d,
  0x2a,
  0x3a,
  0xa4,
  0xdd,
  0x7d,
  0xdf,
  0x0d,
  0x64,
  0xd0,
  0xbd,
  0x43,
  0x21,
  0xd3,
  0x45,
  0x6e,
  0x76,
  0x9b,
  0x3e,
  0x53,
  0x0b,
  0x8b,
  0x7e,
  0x5c,
  0x1b,
  0x79,
  0xe5,
  0x5e,
  0x98,
  0x7e,
  0x09,
  0x2b,
  0x0c,
  0xc9,
  0x6d,
  0x01,
  0x18,
  0x17,
  0x63,
  0xbe,
  0x85,
  0x46,
  0x09,
  0x0d,
  0xc5,
  0x4a,
  0xa1,
  0x8d,
  0x49,
  0x67,
  0x23,
  0x1f,
  0xdc,
  0xa1,
  0x62,
  0x1f,
  0x6c,
  0x45,
  0x88,
  0x73,
  0xf8,
  0xcd,
  0xe3,
  0x64,
  0x07,
  0xb1,
  0x5d,
  0x0e,
  0x44,
  0x1e,
  0x0c,
  0x7b,
  0x4a,
  0xf0,
  0xb9,
  0x9a,
  0x8f,
  0x3a,
  0x95,
  0x17,
  0xda,
  0xb9,
  0xf5,
  0x49,
  0x0a,
  0x86,
  0x3d,
  0x33,
  0x27,
  0xdc,
  0x8c,
  0x9f,
  0x78,
  0xab,
  0xa1,
  0x50,
  0x0b,
  0xc7,
  0x5d,
  0x44,
  0x2a,
  0x15,
  0x4d,
  0xb8,
  0x86,
  0xdc,
  0x39,
  0x1b,
  0x2d,
  0x07,
  0x94,
  0x25,
  0x7a,
  0xef,
  0xd4,
  0x4a,
  0x47,
  0x8e,
  0x28,
  0xbb,
  0xa5,
  0x8e,
  0x0f,
  0xdf,
  0xba,
  0xea,
  0x2b,
  0xf4,
  0x03,
  0x3c,
  0xa2,
  0xfb,
  0xf5,
  0xea,
  0xb2,
  0x47,
  0x39,
  0x23,
  0xc2,
  0xe4,
  0xf2,
  0xfc,
  0x6b,
  0xda,
  0x05,
  0x10,
  0x2a,
  0xb5,
  0xb0,
  0x79,
  0xd7,
  0x40,
  0x5a,
  0x73,
  0xf0,
  0xa0,
  0x45,
  0x14,
  0xd4,
  0x8b,
  0x0c,
  0xf2,
  0x06,
  0xa7,
  0xe2,
  0xa0,
  0x05,
  0xab,
  0x70,
  0x61,
  0x54,
  0x6a,
  0x6b,
  0x17,
  0x5d,
  0x9d,
  0xdb,
  0xdb,
  0x06,
  0x35,
  0x86,
  0xe1,
  0x57,
  0x0d,
  0xe0,
  0x32,
  0x59,
  0xe1,
  0xf1,
  0x5d,
  0x78,
  0x99,
  0x06,
  0x1a,
  0x83,
  0x10,
  0x1e,
  0x9b,
  0x7f,
  0xbb,
  0xf4,
  0xa7,
  0xc4,
  0xf3,
  0x7b,
  0x94,
  0x0a,
  0x07,
  0xf5,
  0x6a,
  0xd1,
  0xe7,
  0xb2,
  0x4d,
  0x33,
  0x9d,
  0xb8,
  0x11,
  0xa4,
  0x5c,
  0x5c,
  0xab,
  0x21,
  0x20,
  0x04,
  0x00,
  0x84,
  0xd0,
  0x72,
  0x49,
  0x5b,
  0x7d,
  0xae,
  0x06,
  0x13,
  0x78,
  0xd0,
  0xc3,
  0x71,
  0xcb,
  0xb3,
  0x00,
  0x91,
  0x9e,
  0x13,
  0xf0,
  0xb5,
  0x54,
  0x13,
  0x8c,
  0x81,
  0x69,
  0xcf,
  0xdd,
  0x1c,
  0x66,
  0x09,
  0xdc,
  0x7d,
  0xdf,
  0xad,
  0x64,
  0xd0,
  0xbd,
  0x44,
  0x21,
  0xd3,
  0xe5,
  0x6e,
  0x76,
  0x9b,
  0x30,
  0x53,
  0x0b,
  0xab,
  0x7e,
  0x5c,
  0x1b,
  0x73,
  0xe5,
  0x5e,
  0x58,
  0x7e,
  0x09,
  0x2b,
  0xee,
  0x56,
  0xcd,
  0x02,
  0x18,
  0x17,
  0x63,
  0x5e,
  0x85,
  0x46,
  0x09,
  0x00,
  0xc5,
  0x4a,
  0xa1,
  0x8d,
  0x49,
  0x67,
  0x2b,
  0x1f,
  0xdc,
  0x11,
  0x62,
  0x1f,
  0x6c,
  0x4c,
  0x88,
  0x73,
  0x98,
  0xcd,
  0xe3,
  0x64,
  0xa5,
  0xe6,
  0x8c,
  0x00,
  0x4a,
  0x1e,
  0x0c,
  0x9b,
  0x4a,
  0xf0,
  0xb9,
  0x9f,
  0x8f,
  0x3a,
  0x15,
  0x17,
  0xda,
  0xb9,
  0xf3,
  0x49,
  0x0a,
  0x46,
  0x3d,
  0x33,
  0x27,
  0xd0,
  0x8c,
  0x9f,
  0x98,
  0xab,
  0xa1,
  0x50,
  0x10,
  0x56,
  0x04,
  0x0d,
  0x28,
  0x15,
  0x4d,
  0x88,
  0x86,
  0xdc,
  0x39,
  0x12,
  0x2d,
  0x07,
  0x54,
  0x25,
  0x7a,
  0xef,
  0xdf,
  0x4a,
  0x47,
  0x0e,
  0x28,
  0xbb,
  0xa5,
  0x88,
  0x0f,
  0xdf,
  0x1a,
  0xea,
  0x2b,
  0xf4,
  0x85,
  0x62,
  0xc8,
  0x0c,
  0xf7,
  0xea,
  0xb2,
  0x77,
  0x39,
  0x23,
  0xc2,
  0xed,
  0xf2,
  0xfc,
  0xab,
  0xda,
  0x05,
  0x10,
  0x20,
  0xb5,
  0xb0,
  0xf9,
  0xd7,
  0x40,
  0x5a,
  0x77,
  0xf0,
  0xa0,
  0x65,
  0x14,
  0xd4,
  0x8b,
  0x7a,
  0x9d,
  0x37,
  0x03,
  0x85,
  0x97,
  0x69,
  0x4a,
  0x21,
  0x7b,
  0xd2,
  0xe7,
  0x61,
  0x62,
  0x3b,
  0x44,
  0x14,
  0x02,
  0x18,
  0xd2,
  0x98,
  0x26,
  0x2f,
  0x60,
  0xea,
  0xd9,
  0x9b,
  0xdc,
  0xe7,
  0x66,
  0xbb,
  0xca,
  0xe0,
  0x75,
  0xba,
  0x09,
  0x1a,
  0x02,
  0x42,
  0xca,
  0x40,
  0x77,
  0xc2,
  0xe5,
  0x05,
  0x71,
  0x03,
  0x99,
  0x05,
  0x0a,
  0xca,
  0x19,
  0x66,
  0x47,
  0x57,
  0x5a,
  0xe4,
  0x7f,
  0x17,
  0x9a,
  0x77,
  0x64,
  0x39,
  0x94,
  0x48,
  0x5a,
  0x8f,
  0x03,
  0xcd,
  0x61,
  0x96,
  0xc2,
  0x2d,
  0x7a,
  0xd3,
  0xc1,
  0xad,
  0x3d,
  0xa5,
  0xab,
  0x90,
  0x8f,
  0x0b,
  0x3d,
  0x82,
  0x0d,
  0x1a,
  0xf7,
  0x64,
  0x58,
  0xf7,
  0x63,
  0x70,
  0x31,
  0x7d,
  0x5d,
  0xa9,
  0xb9,
  0x25,
  0x0b,
  0x6e,
  0xd5,
  0x2c,
  0x0e,
  0xfe,
  0x4f,
  0x3a,
  0x9a,
  0x53,
  0xb8,
  0xae,
  0x2a,
  0x55,
  0x45,
  0x6b,
  0xea,
  0x5b,
  0x2e,
  0xbd,
  0x7d,
  0x56,
  0xa4,
  0x9b,
  0x97,
  0x9a,
  0x77,
  0x44,
  0x22,
  0x28,
  0xce,
  0xfc,
  0x0e,
  0x6a,
  0xce,
  0x08,
  0x12,
  0x19,
  0x7e,
  0x64,
  0x9e,
  0xc4,
  0xf4,
  0x1a,
  0xab,
  0xd0,
  0xa3,
  0xb5,
  0x45,
  0xfa,
  0x7e,
  0xd0,
  0x16,
  0x6c,
  0xde,
  0x82,
  0x7a,
  0x92,
  0xb5,
  0xbe,
  0xac,
  0x95,
  0xeb,
  0xef,
  0x04,
  0x61,
  0x45,
  0xd0,
  0x76,
  0xdf,
  0xd1,
  0x49,
  0x80,
  0xdf,
  0xa4,
  0xc6,
  0x2b,
  0xe5,
  0x1d,
  0x78,
  0xc0,
  0x0b,
  0xf1,
  0x9a,
  0x23,
  0x77,
  0xa0,
  0xb2,
  0x3f,
  0xf9,
  0xfa,
  0xfc,
  0x19,
  0xb8,
  0xed,
  0xf8,
  0x0f,
  0x28,
  0x86,
  0xcc,
  0x16,
  0xff,
  0x7e,
  0x65,
  0x90,
  0x48,
  0x48,
  0xbf,
  0x3f,
  0xe1,
  0xe6,
  0xf9,
  0x59,
  0x4b,
  0xa5,
  0x88,
  0x27,
  0x6d,
  0xae,
  0xa2,
  0x6e,
  0xb6,
  0xb0,
  0xf4,
  0x31,
  0xb2,
  0x29,
  0xe9,
  0x00,
  0xd7,
  0x79,
  0x33,
  0xed,
  0x20,
  0x89,
  0xba,
  0x6f,
  0xb7,
  0xf3,
  0x60,
  0xd4,
  0x1e,
  0x59,
  0x06,
  0xb6,
  0xb4,
  0x5a,
  0x77,
  0xd8,
  0x92,
  0x53,
  0x5d,
  0x91,
  0x4d,
  0x4f,
  0x0b,
  0xce,
  0x4d,
  0xd4,
  0x16,
  0x0f,
  0x44,
  0x21,
  0x7b,
  0x52,
  0xe7,
  0x61,
  0x62,
  0x3e,
  0x44,
  0x14,
  0x42,
  0x18,
  0xd2,
  0x98,
  0x21,
  0x2f,
  0x60,
  0x2a,
  0xd9,
  0x9b,
  0xdc,
  0xea,
  0x66,
  0xbb,
  0xba,
  0xe0,
  0x75,
  0xba,
  0x09,
  0xbe,
  0xd9,
  0x0a,
  0xc5,
  0x40,
  0x77,
  0x52,
  0xe5,
  0x05,
  0x71,
  0x09,
  0x99,
  0x05,
  0xfa,
  0xca,
  0x19,
  0x66,
  0x4b,
  0x57,
  0x5a,
  0x64,
  0x7f,
  0x17,
  0x9a,
  0x71,
  0x64,
  0x39,
  0x14,
  0x48,
  0x5a,
  0x8f,
  0xf7,
  0xca,
  0x09,
  0x0e,
  0xc7,
  0x2d,
  0x7a,
  0x33,
  0xc1,
  0xad,
  0x3d,
  0xa7,
  0xab,
  0x90,
  0x8f,
  0x0b,
  0x3d,
  0x82,
  0x0b,
  0x1a,
  0xf7,
  0xf4,
  0x58,
  0xf7,
  0x63,
  0x7b,
  0x31,
  0x7d,
  0xcd,
  0xa9,
  0xb9,
  0x25,
  0x71,
  0xef,
  0x0f,
  0x03,
  0x0d,
  0xfe,
  0x4f,
  0xba,
  0x9a,
  0x53,
  0xb8,
  0xa2,
  0x2a,
  0x55,
  0x55,
  0x6b,
  0xea,
  0x5b,
  0x23,
  0xbd,
  0x7d,
  0x66,
  0xa4,
  0x9b,
  0x97,
  0x9b,
  0x77,
  0x44,
  0x42,
  0x28,
  0xce,
  0xfc,
  0x16,
  0x90,
  0xff,
  0x0c,
  0x10,
  0x19,
  0x7e,
  0xe4,
  0x9e,
  0xc4,
  0xf4,
  0x10,
  0xab,
  0xd0,
  0x43,
  0xb5,
  0x45,
  0xfa,
  0x7d,
  0xd0,
  0x16,
  0xfc,
  0xde,
  0x82,
  0x7a,
  0x95,
  0xb5,
  0xbe,
  0xfc,
  0x95,
  0xeb,
  0xef,
  0x2a,
  0x83,
  0xb1,
  0x09,
  0x76,
  0xdf,
  0xd1,
  0xd9,
  0x80,
  0xdf,
  0xa4,
  0xc0,
  0x2b,
  0xe5,
  0xdd,
  0x78,
  0xc0,
  0x0b,
  0xff,
  0x9a,
  0x23,
  0xa7,
  0xa0,
  0xb2,
  0x3f,
  0xfc,
  0xfa,
  0xfc,
  0x49,
  0xb8,
  0xed,
  0xf8,
  0x58,
  0xa8,
  0xa1,
  0x09,
  0x1a,
  0xff,
  0x7e,
  0xc5,
  0x90,
  0x48,
  0x48,
  0xb2,
  0x3f,
  0xe1,
  0x56,
  0xf9,
  0x59,
  0x4b,
  0xab,
  0x88,
  0x27,
  0x6d,
  0xae,
  0xa2,
  0x6e,
  0xbd,
  0xb0,
  0xf4,
  0x21,
  0xb2,
  0x29,
  0xe9,
  0x76,
  0xc2,
  0xe0,
  0x0b,
  0xe5,
  0x20,
  0x89,
  0x3a,
  0x6f,
  0xb7,
  0xf3,
  0x6d,
  0xd4,
  0x1e,
  0xa9,
  0x06,
  0xb6,
  0xb4,
  0x54,
  0x77,
  0xd8,
  0x92,
  0x53,
  0x5d,
  0x91,
  0x42,
  0x4f,
  0x0b,
  0x9e,
  0x4d,
  0xd4,
  0x16,
  0x89,
  0x7d,
  0x1e,
  0x04,
  0xe0,
  0x9b,
  0xad,
  0x87,
  0x41,
  0xfb,
  0xbe,
  0x46,
  0x49,
  0x69,
  0x96,
  0xb4,
  0x65,
  0xc4,
  0xe2,
  0x26,
  0x3b,
  0xff,
  0x41,
  0xa0,
  0xc4,
  0x1b,
  0xa7,
  0x71,
  0x3a,
  0xac,
  0x8a,
  0x9d,
  0xec,
  0x9c,
  0xab,
  0x01,
  0xaf,
  0x9c,
  0xe0,
  0xdc,
  0xbe,
  0x6f,
  0xb9,
  0x36,
  0xbe,
  0x3c,
  0x81,
  0x79,
  0xec,
  0x06,
  0x83,
  0xe8,
  0x63,
  0xef,
  0x3d,
  0x55,
  0x04,
  0x1b,
  0x4a,
  0x44,
  0x3b,
  0x13,
  0x83,
  0x00,
  0xb0,
  0xd6,
  0xbc,
  0x0b,
  0xf7,
  0xfe,
  0x30,
  0xc6,
  0xf4,
  0xb9,
  0xa4,
  0xe0,
  0x70,
  0xa6,
  0x09,
  0x5a,
  0x8e,
  0x66,
  0x57,
  0xf1,
  0xf3,
  0xe0,
  0x71,
  0x3d,
  0xc5,
  0xfc,
  0x9c,
  0x05,
  0xbc,
  0x8e,
  0x56,
  0x00,
  0xd2,
  0xa0,
  0x63,
  0x01,
  0x01,
  0xf9,
  0xcf,
  0x41,
  0x7d,
  0xf6,
  0xb0,
  0xc8,
  0x3d,
  0x89,
  0x99,
  0x7f,
  0x50,
  0x4e,
  0x6b,
  0x57,
  0x2b,
  0x8c,
  0x27,
  0x3e,
  0xe5,
  0xc5,
  0x98,
  0x84,
  0x60,
  0x19,
  0x32,
  0xca,
  0x60,
  0x07,
  0x77,
  0x0c,
  0x32,
  0x18,
  0x9b,
  0xde,
  0x89,
  0xdf,
  0x04,
  0x4c,
  0x45,
  0xd1,
  0xa7,
  0x2f,
  0xff,
  0xcf,
  0x57,
  0x40,
  0x24,
  0xf8,
  0x5e,
  0x94,
  0x93,
  0xf3,
  0x69,
  0xce,
  0x1a,
  0x1b,
  0xd1,
  0xcf,
  0x9d,
  0x6d,
  0x9d,
  0x0e,
  0x85,
  0x1a,
  0x9a,
  0xa0,
  0xa2,
  0xe8,
  0x69,
  0xf0,
  0xea,
  0x72,
  0x9e,
  0xc2,
  0x44,
  0xb3,
  0xe4,
  0x52,
  0x7a,
  0x4e,
  0x6e,
  0x99,
  0xc7,
  0x9d,
  0xe3,
  0x03,
  0x68,
  0xb4,
  0xa5,
  0x21,
  0x03,
  0x59,
  0xf7,
  0x06,
  0x27,
  0x0c,
  0xbe,
  0x54,
  0xd5,
  0xfa,
  0xe8,
