#define STIM_W_SIZE 2048
// weights [64 x 1 x 8 x 4]
L2_DATA uint8_t ne16_weights_streamin[] = {
  0xc6,
  0xd0,
  0xf9,
  0x0f,
  0x38,
  0xb2,
  0xc1,
  0x96,
  0xfa,
  0xa2,
  0xf9,
  0xd2,
  0x47,
  0x67,
  0x43,
  0x87,
  0x18,
  0xa1,
  0x76,
  0xa5,
  0x67,
  0x4a,
  0xcf,
  0xb4,
  0xa3,
  0x7f,
  0x79,
  0xd2,
  0x22,
  0xd0,
  0xc2,
  0x1e,
  0xd4,
  0xa0,
  0x86,
  0xe9,
  0x07,
  0xfd,
  0xc6,
  0x38,
  0xa6,
  0xa9,
  0xde,
  0x0f,
  0x46,
  0x99,
  0x5a,
  0x96,
  0xf7,
  0xb1,
  0x75,
  0x87,
  0xa0,
  0x49,
  0x68,
  0x1f,
  0xa3,
  0xe1,
  0xe9,
  0x0f,
  0xe2,
  0x20,
  0x33,
  0xc3,
  0x30,
  0x67,
  0xbc,
  0x1e,
  0x86,
  0xe3,
  0x90,
  0x52,
  0x04,
  0xbc,
  0x94,
  0x2f,
  0x74,
  0x88,
  0xf9,
  0x78,
  0x76,
  0xc4,
  0x7e,
  0x0f,
  0x9c,
  0xde,
  0x02,
  0x4b,
  0x20,
  0xfe,
  0x94,
  0x78,
  0x3e,
  0xbe,
  0xd7,
  0x86,
  0x19,
  0x56,
  0xce,
  0x3c,
  0xa7,
  0x61,
  0xf5,
  0x4b,
  0xd3,
  0x64,
  0xbc,
  0x69,
  0x5e,
  0x27,
  0xe8,
  0x4b,
  0x04,
  0xc3,
  0x5b,
  0xe3,
  0xce,
  0xdb,
  0x6d,
  0x4b,
  0x42,
  0x56,
  0xfb,
  0x6b,
  0xc8,
  0x20,
  0x9f,
  0x69,
  0x07,
  0x96,
  0x60,
  0xb0,
  0xec,
  0xc3,
  0x33,
  0x87,
  0x29,
  0x41,
  0xe4,
  0xb4,
  0xf4,
  0xcc,
  0x71,
  0x2d,
  0xb7,
  0x28,
  0x11,
  0xf0,
  0xae,
  0x18,
  0xdd,
  0x2d,
  0x7c,
  0xa8,
  0xbc,
  0x78,
  0xe8,
  0xc9,
  0x87,
  0x69,
  0xa8,
  0xd9,
  0xdb,
  0x0f,
  0x2f,
  0xf3,
  0x0c,
  0x78,
  0xcd,
  0x2e,
  0x93,
  0x69,
  0x1f,
  0xc9,
  0x24,
  0xd2,
  0xfd,
  0x92,
  0xf6,
  0x96,
  0x2b,
  0xd4,
  0xf5,
  0x0f,
  0xb5,
  0x16,
  0x2e,
  0xd6,
  0x1a,
  0xf1,
  0xca,
  0x1e,
  0xd1,
  0x5b,
  0xbf,
  0x4a,
  0xa9,
  0x2e,
  0x8f,
  0x96,
  0x18,
  0x50,
  0x6e,
  0x96,
  0xb0,
  0xcf,
  0xba,
  0x4b,
  0x60,
  0xef,
  0x77,
  0x0f,
  0x57,
  0xaf,
  0x09,
  0x96,
  0xc3,
  0x85,
  0xd3,
  0x6d,
  0x25,
  0xc0,
  0x0c,
  0xb4,
  0xa2,
  0x86,
  0xad,
  0x69,
  0x2f,
  0x06,
  0xea,
  0x3c,
  0x8d,
  0xe0,
  0xba,
  0x43,
  0xcf,
  0x10,
  0xeb,
  0x0f,
  0x35,
  0xa3,
  0x7f,
  0x69,
  0x88,
  0x66,
  0xc0,
  0x3c,
  0xb5,
  0xdb,
  0x66,
  0x1e,
  0xc7,
  0xad,
  0x4e,
  0x96,
  0x57,
  0xc3,
  0xac,
  0x43,
  0x53,
  0xd1,
  0xd3,
  0x2d,
  0xe9,
  0xcd,
  0x81,
  0xb4,
  0xfe,
  0x77,
  0x72,
  0xa4,
  0x69,
  0x04,
  0x25,
  0xbc,
  0x1a,
  0x97,
  0xd0,
  0x69,
  0x17,
  0xf0,
  0xb4,
  0x34,
  0x1c,
  0x2c,
  0xb2,
  0x3c,
  0x19,
  0xe7,
  0xe5,
  0xb0,
  0x2c,
  0xcb,
  0xac,
  0x3c,
  0x08,
  0xe0,
  0x9a,
  0x5b,
  0x50,
  0xc5,
  0x0e,
  0x3c,
  0xc5,
  0x38,
  0x89,
  0x78,
  0x1b,
  0x26,
  0x4f,
  0x83,
  0x7d,
  0x4a,
  0xe3,
  0x87,
  0xc4,
  0xfd,
  0x1c,
  0x69,
  0xb9,
  0x41,
  0x7f,
  0x87,
  0x55,
  0xe6,
  0x84,
  0x3e,
  0x6c,
  0x92,
  0x3e,
  0x5a,
  0x7f,
  0xb9,
  0x92,
  0x4b,
  0x97,
  0xdd,
  0x3c,
  0xc3,
  0x56,
  0xa9,
  0x77,
  0x3c,
  0xb9,
  0x56,
  0x55,
  0xa4,
  0x89,
  0x1c,
  0x80,
  0xf1,
  0xa8,
  0x68,
  0x44,
  0xb4,
  0x81,
  0xa5,
  0x28,
  0xc3,
  0x40,
  0x27,
  0x3e,
  0x5a,
  0x05,
  0xbb,
  0x46,
  0xd2,
  0x6e,
  0x36,
  0x0b,
  0xd2,
  0xf4,
  0xc3,
  0x4f,
  0x2d,
  0x12,
  0xc4,
  0xb7,
  0xf0,
  0xfa,
  0x15,
  0xb5,
  0x1e,
  0x76,
  0xb8,
  0x0b,
  0x96,
  0x2c,
  0xbd,
  0x2c,
  0xd2,
  0x89,
  0x34,
  0x94,
  0xb4,
  0x94,
  0x56,
  0xd1,
  0x4b,
  0xfb,
  0xe9,
  0xd8,
  0x2d,
  0xbe,
  0xee,
  0xed,
  0x2d,
  0xd5,
  0x2d,
  0xd0,
  0xb6,
  0x55,
  0x4c,
  0x87,
  0x2d,
  0x01,
  0x5d,
  0x29,
  0x87,
  0x4f,
  0x18,
  0xc4,
  0xb4,
  0x72,
  0xc2,
  0xfa,
  0x96,
  0x71,
  0x53,
  0x58,
  0xa5,
  0x86,
  0xd6,
  0x13,
  0xa5,
  0xfc,
  0x00,
  0xe7,
  0x95,
  0x8e,
  0x50,
  0x56,
  0xf0,
  0xcc,
  0x05,
  0xcd,
  0x3e,
  0xec,
  0x30,
  0x65,
  0xd2,
  0x39,
  0xcb,
  0xf9,
  0x4a,
  0x7d,
  0x61,
  0x4a,
  0xd2,
  0x1d,
  0x09,
  0x7d,
  0xe1,
  0x09,
  0x5c,
  0x3e,
  0x78,
  0x28,
  0x9f,
  0x94,
  0xe0,
  0xb1,
  0xc2,
  0x0e,
  0x78,
  0x64,
  0x07,
  0x30,
  0xf4,
  0x0c,
  0x48,
  0x4f,
  0xa7,
  0xdd,
  0x63,
  0x50,
  0x87,
  0xbb,
  0xd4,
  0x0e,
  0xf0,
  0xe6,
  0x04,
  0x97,
  0x2d,
  0xce,
  0x78,
  0xda,
  0x69,
  0x51,
  0x41,
  0x46,
  0x3c,
  0x3d,
  0xae,
  0x3f,
  0x85,
  0x43,
  0x68,
  0xb0,
  0x4b,
  0x8b,
  0x39,
  0x5b,
  0x4b,
  0xd3,
  0x42,
  0x30,
  0xe1,
  0x5e,
  0xe6,
  0x64,
  0x92,
  0xbb,
  0x4b,
  0x54,
  0xb4,
  0x0d,
  0xba,
  0xb9,
  0x4b,
  0xde,
  0xa6,
  0x6e,
  0x96,
  0x54,
  0x11,
  0xe4,
  0x0f,
  0x2b,
  0x34,
  0xe5,
  0x96,
  0xa4,
  0x6d,
  0x68,
  0xd2,
  0xe9,
  0xc5,
  0x47,
  0xd2,
  0xc0,
  0xf1,
  0xf9,
  0x69,
  0x77,
  0xe6,
  0xfb,
  0x0f,
  0x80,
  0x33,
  0xef,
  0x49,
  0x80,
  0x3d,
  0x20,
  0xd3,
  0x19,
  0x62,
  0x22,
  0xc3,
  0xdc,
  0x1f,
  0x71,
  0xa5,
  0x90,
  0xc8,
  0xc0,
  0x78,
  0xe1,
  0x47,
  0xc7,
  0xf4,
  0xfa,
  0x2f,
  0x7b,
  0xe1,
  0x2f,
  0xa6,
  0x55,
  0xa5,
  0xd4,
  0x9f,
  0xe5,
  0x0f,
  0x3a,
  0x12,
  0xac,
  0xf0,
  0x4c,
  0x48,
  0x4e,
  0x3c,
  0x12,
  0xc2,
  0x1b,
  0x4b,
  0x70,
  0x56,
  0x3f,
  0x4b,
  0x78,
  0x82,
  0x1a,
  0x4b,
  0x22,
  0x50,
  0x31,
  0xe1,
  0x1d,
  0x79,
  0xdc,
  0x1e,
  0xbb,
  0xac,
  0x7f,
  0x0f,
  0xbe,
  0xe7,
  0xae,
  0xe1,
  0xd5,
  0xbc,
  0xae,
  0xc2,
  0xd2,
  0xc4,
  0xce,
  0x3d,
  0x21,
  0x2e,
  0x93,
  0x5a,
  0xb8,
  0x60,
  0x5c,
  0x78,
  0x99,
  0x40,
  0x79,
  0x5a,
  0x22,
  0xd2,
  0xcd,
  0xa5,
  0x2d,
  0x75,
  0x3b,
  0x4b,
  0xe6,
  0xb5,
  0x66,
  0x8f,
  0x4f,
  0xa6,
  0x39,
  0xc7,
  0x97,
  0x68,
  0x1e,
  0xa5,
  0x69,
  0x99,
  0x93,
  0x4f,
  0x37,
  0xb1,
  0x5d,
  0x69,
  0x3b,
  0xb8,
  0x94,
  0x69,
  0xf2,
  0x82,
  0x68,
  0xd2,
  0xa0,
  0xea,
  0xe5,
  0x1e,
  0x0d,
  0x17,
  0x0d,
  0xb4,
  0x4e,
  0xce,
  0x0d,
  0x3c,
  0x7b,
  0x57,
  0x74,
  0xa7,
  0x8d,
  0xe8,
  0x2d,
  0x1e,
  0x88,
  0xf8,
  0x57,
  0xe0,
  0xfa,
  0x3e,
  0x51,
  0xa5,
  0x64,
  0xa2,
  0xc0,
  0xf1,
  0x85,
  0xea,
  0x35,
  0xcf,
  0xbe,
  0x95,
  0x4f,
  0x2d,
  0x0f,
  0xaf,
  0xc2,
  0x1e,
  0xa3,
  0x07,
  0xc5,
  0xb4,
  0x41,
  0x2f,
  0xbc,
  0x4b,
  0xd2,
  0x81,
  0x6e,
  0x93,
  0x9f,
  0xad,
  0xba,
  0x4a,
  0x74,
  0xa6,
  0x60,
  0xda,
  0x2a,
  0x17,
  0x19,
  0xe5,
  0x09,
  0xa7,
  0x21,
  0xf4,
  0xd7,
  0xae,
  0x62,
  0x9e,
  0xbf,
  0xb5,
  0x69,
  0x3c,
  0x47,
  0x2b,
  0xd2,
  0x96,
  0x4c,
  0x0d,
  0xc7,
  0x3c,
  0xb7,
  0x5f,
  0x26,
  0xc3,
  0x0b,
  0xb1,
  0xfb,
  0x0f,
  0xb7,
  0x4a,
  0x4e,
  0x69,
  0xd8,
  0xfc,
  0x65,
  0x0f,
  0xda,
  0x95,
  0x8a,
  0x5a,
  0x83,
  0xd0,
  0x17,
  0x4b,
  0xbf,
  0x55,
  0x98,
  0x2d,
  0x6a,
  0xd6,
  0x67,
  0x87,
  0xa7,
  0xbe,
  0x64,
  0x2d,
  0x6d,
  0xc5,
  0x31,
  0xe1,
  0x30,
  0xfc,
  0x71,
  0xa5,
  0xef,
  0x7a,
  0xbf,
  0xc7,
  0x1c,
  0xca,
  0x67,
  0xc3,
  0x19,
  0x5e,
  0xdb,
  0xe1,
  0x83,
  0x85,
  0x22,
  0xf0,
  0x7e,
  0x27,
  0xc3,
  0x4b,
  0xa6,
  0xe4,
  0xd4,
  0x2d,
  0xb7,
  0x7c,
  0x18,
  0xed,
  0xa4,
  0xc0,
  0xe2,
  0x58,
  0xba,
  0x8d,
  0x51,
  0xb4,
  0x6f,
  0x1b,
  0x46,
  0x9b,
  0x1b,
  0xb8,
  0x92,
  0xa5,
  0x47,
  0x19,
  0x07,
  0x78,
  0xb0,
  0x5f,
  0x5e,
  0xb4,
  0x5f,
  0xd6,
  0x6e,
  0xb4,
  0x80,
  0x28,
  0xff,
  0x5a,
  0x3a,
  0x1e,
  0x13,
  0xe5,
  0xeb,
  0xdd,
  0xc9,
  0x34,
  0x71,
  0xd5,
  0x0c,
  0x3c,
  0xad,
  0x53,
  0xde,
  0xe1,
  0x18,
  0x17,
  0xb2,
  0xd2,
  0x95,
  0x10,
  0xb8,
  0x4f,
  0x73,
  0x3c,
  0x99,
  0x69,
  0x47,
  0xf3,
  0xba,
  0x61,
  0x92,
  0xd2,
  0x23,
  0xd0,
  0xee,
  0x53,
  0xb4,
  0x3c,
  0x14,
  0x9f,
  0x6d,
  0xc3,
  0x47,
  0xc2,
  0x04,
  0x7c,
  0x8f,
  0x4b,
  0x3a,
  0x4b,
  0x48,
  0x82,
  0x52,
  0xa5,
  0x24,
  0x2d,
  0x9b,
  0xb4,
  0x0b,
  0x3a,
  0x63,
  0xf0,
  0x06,
  0xd8,
  0x0a,
  0x96,
  0x74,
  0x57,
  0xd7,
  0xa5,
  0xc7,
  0xf0,
  0x21,
  0xc3,
  0x75,
  0x31,
  0xfe,
  0x0f,
  0x4c,
  0xee,
  0x92,
  0x5e,
  0x4f,
  0xf1,
  0x78,
  0x1e,
  0xaf,
  0x62,
  0x59,
  0xcb,
  0x46,
  0x56,
  0xe2,
  0xb5,
  0x3f,
  0x01,
  0x45,
  0x3c,
  0x8a,
  0xa2,
  0x23,
  0xc3,
  0x7f,
  0xe1,
  0xce,
  0x2d,
  0x9e,
  0x9a,
  0x20,
  0xc7,
  0x5f,
  0xcf,
  0xac,
  0x5a,
  0xd9,
  0xaa,
  0x01,
  0x78,
  0x3c,
  0xe6,
  0xe6,
  0x87,
  0x62,
  0x00,
  0x65,
  0xb4,
  0x07,
  0x01,
  0xf1,
  0x1e,
  0x6b,
  0xb4,
  0x10,
  0xe3,
  0xff,
  0xc4,
  0x22,
  0xd2,
  0x8d,
  0x7e,
  0x2f,
  0x16,
  0xe5,
  0x20,
  0x97,
  0xc3,
  0x1e,
  0xbf,
  0x35,
  0xc3,
  0xf0,
  0x1b,
  0x58,
  0xe1,
  0xb9,
  0x46,
  0x72,
  0x87,
  0x8b,
  0x96,
  0x39,
  0x68,
  0xc9,
  0x74,
  0xd8,
  0x3e,
  0x45,
  0x2a,
  0xfe,
  0x0d,
  0x47,
  0x5b,
  0x99,
  0x4b,
  0x50,
  0x93,
  0x4e,
  0x2d,
  0x4d,
  0x8c,
  0x1f,
  0x69,
  0x56,
  0xf2,
  0x39,
  0xe1,
  0x9d,
  0xfa,
  0xa9,
  0x69,
  0xb3,
  0x83,
  0x65,
  0xe0,
  0x0a,
  0xb4,
  0xdb,
  0xa4,
  0x0f,
  0x39,
  0xc2,
  0x16,
  0x6a,
  0x5b,
  0x3b,
  0xe1,
  0x4f,
  0x0e,
  0x81,
  0x6b,
  0xd2,
  0x22,
  0x21,
  0xf4,
  0x04,
  0x77,
  0xd7,
  0xa1,
  0x30,
  0xcf,
  0xb4,
  0x96,
  0x5c,
  0x4f,
  0x55,
  0x3c,
  0x96,
  0x01,
  0xa8,
  0x4b,
  0x1f,
  0x25,
  0x5b,
  0x87,
  0xdd,
  0xdc,
  0x0a,
  0x3c,
  0xfe,
  0x16,
  0x42,
  0xf1,
  0x77,
  0x0c,
  0x14,
  0x2d,
  0xb1,
  0xf3,
  0x90,
  0x78,
  0x4e,
  0xd0,
  0x4a,
  0xb4,
  0x77,
  0xfe,
  0x75,
  0x87,
  0xc9,
  0x8d,
  0xbf,
  0x1e,
  0xfd,
  0x54,
  0x1e,
  0xf0,
  0x25,
  0x8b,
  0x50,
  0xa5,
  0xd5,
  0x9b,
  0xde,
  0x2d,
  0x41,
  0xac,
  0xa0,
  0xd2,
  0xd4,
  0xc7,
  0x67,
  0xb4,
  0xec,
  0xaf,
  0x2b,
  0x5e,
  0x4c,
  0x76,
  0x5a,
  0xb4,
  0x3c,
  0x71,
  0xba,
  0x4b,
  0xe3,
  0xad,
  0xb6,
  0x0d,
  0x16,
  0xec,
  0xae,
  0x5b,
  0x5f,
  0x9a,
  0x40,
  0xf0,
  0xad,
  0xa3,
  0xb0,
  0x5a,
  0x51,
  0x59,
  0x2e,
  0x69,
  0x9c,
  0x21,
  0x12,
  0x69,
  0xf6,
  0x98,
  0x45,
  0xf0,
  0x0e,
  0xc7,
  0x97,
  0xe1,
  0x9d,
  0x4e,
  0x35,
  0x87,
  0x90,
  0x98,
  0x60,
  0xf0,
  0x16,
  0x8d,
  0xd4,
  0x29,
  0x1e,
  0x15,
  0xbb,
  0xc3,
  0xf5,
  0x76,
  0x51,
  0x96,
  0xa1,
  0x0f,
  0x6c,
  0xf8,
  0x18,
  0x38,
  0x17,
  0xe1,
  0xbd,
  0x25,
  0xfb,
  0x4b,
  0x9c,
  0x2c,
  0xf0,
  0x5a,
  0x66,
  0x30,
  0x52,
  0xa5,
  0x9c,
  0x86,
  0x56,
  0xf0,
  0x48,
  0xaf,
  0xce,
  0x78,
  0x38,
  0x63,
  0x76,
  0xd2,
  0x7a,
  0xa6,
  0xf6,
  0x0b,
  0xc5,
  0xc3,
  0x63,
  0x87,
  0x00,
  0x2f,
  0x10,
  0x1f,
  0x71,
  0x1a,
  0x39,
  0xc3,
  0xe5,
  0xc4,
  0x25,
  0x96,
  0x74,
  0x5c,
  0xae,
  0x4b,
  0x1b,
  0x40,
  0x10,
  0xf0,
  0x8d,
  0x8c,
  0x0f,
  0x78,
  0xac,
  0xb2,
  0x67,
  0x96,
  0x10,
  0x25,
  0x7c,
  0xc3,
  0x14,
  0xe4,
  0x27,
  0x9f,
  0x87,
  0x6e,
  0x97,
  0x1e,
  0xc0,
  0xbd,
  0xf8,
  0x78,
  0xa9,
  0x0e,
  0x53,
  0xa5,
  0x36,
  0x74,
  0x5d,
  0xb4,
  0xd5,
  0x7a,
  0xff,
  0x0f,
  0x94,
  0x06,
  0xd9,
  0xa5,
  0xfd,
  0x19,
  0x06,
  0x2d,
  0xa0,
  0x43,
  0x87,
  0xe3,
  0xe9,
  0xed,
  0xec,
  0x1e,
  0x43,
  0xfc,
  0xf5,
  0x0f,
  0x10,
  0x54,
  0xcb,
  0x78,
  0xf1,
  0xd0,
  0x15,
  0xa5,
  0xc6,
  0x6a,
  0x43,
  0x96,
  0xd7,
  0x18,
  0x0e,
  0x5a,
  0xf9,
  0x74,
  0x3a,
  0xc3,
  0xa3,
  0x60,
  0x7c,
  0x87,
  0x7e,
  0x7f,
  0xff,
  0x0f,
  0x5d,
  0x89,
  0xa2,
  0x69,
  0x4c,
  0x02,
  0xc8,
  0x3c,
  0x52,
  0xba,
  0x45,
  0x78,
  0xca,
  0xe6,
  0xc5,
  0x2d,
  0x2e,
  0xd7,
  0x60,
  0xf0,
  0xfc,
  0xd5,
  0xdb,
  0x2f,
  0x8d,
  0xc3,
  0x1d,
  0x0f,
  0x05,
  0x65,
  0x61,
  0xf0,
  0x1e,
  0xb3,
  0x0e,
  0xa5,
  0x2e,
  0x0c,
  0x0d,
  0xa5,
  0xb6,
  0x24,
  0x05,
  0xe9,
  0x8c,
  0xb1,
  0xed,
  0x0f,
  0x97,
  0x83,
  0x94,
  0x69,
  0x30,
  0x29,
  0x0e,
  0x96,
  0x3e,
  0x1f,
  0xf3,
  0xc3,
  0x9e,
  0x74,
  0x17,
  0xf0,
  0xfe,
  0x7d,
  0x70,
  0x0b,
  0xbe,
  0x6e,
  0xbd,
  0xc3,
  0xf1,
  0xe2,
  0xc9,
  0x2d,
  0x7d,
  0x27,
  0xe1,
  0x78,
  0x46,
  0xb2,
  0x91,
  0xe1,
  0xcd,
  0x3c,
  0x0b,
  0xf0,
  0x7f,
  0xa2,
  0x68,
  0xc3,
  0x75,
  0x38,
  0x5a,
  0x87,
  0xc2,
  0x5f,
  0xa9,
  0x3c,
  0x87,
  0xde,
  0xcf,
  0x29,
  0xd5,
  0x4b,
  0x37,
  0xe1,
  0x6f,
  0x1f,
  0x44,
  0x3e,
  0x0b,
  0x85,
  0xca,
  0x3d,
  0x3c,
  0x34,
  0xdb,
  0x2d,
  0x45,
  0xa7,
  0x7c,
  0x87,
  0x93,
  0xc9,
  0x56,
  0x4b,
  0xca,
  0x48,
  0x25,
  0x5a,
  0xb7,
  0xb6,
  0xaa,
  0x4b,
  0xea,
  0x8b,
  0x30,
  0xa5,
  0xae,
  0x83,
  0xd3,
  0x43,
  0x47,
  0x1a,
  0x81,
  0x69,
  0xcb,
  0xa4,
  0xa1,
  0x78,
  0xa7,
  0x97,
  0xa2,
  0xf0,
  0x80,
  0xca,
  0x6a,
  0xc3,
  0xcf,
  0x43,
  0xc7,
  0xb4,
  0x4a,
  0xd6,
  0xdc,
  0xa5,
  0x46,
  0x6c,
  0xf8,
  0x87,
  0xfe,
  0x23,
  0x76,
  0x8f,
  0x6d,
  0x82,
  0xba,
  0xc3,
  0x59,
  0xd4,
  0xeb,
  0x3c,
  0xd9,
  0xd2,
  0x86,
  0xd3,
  0xed,
  0x52,
  0x75,
  0x96,
  0x6c,
  0x97,
  0x7e,
  0x96,
  0x84,
  0x96,
  0xb3,
  0x4b,
  0x6d,
  0xc1,
  0xda,
  0x3c,
  0x03,
  0x24,
  0x22,
  0xd2,
  0xec,
  0xfe,
  0x65,
  0x96,
  0xc2,
  0x64,
  0xe3,
  0xd2,
  0xd2,
  0x1b,
  0xc4,
  0xa5,
  0x20,
  0x77,
  0x76,
  0x96,
  0x82,
  0x00,
  0x15,
  0xa5,
  0xc3,
  0xda,
  0x09,
  0xe1,
  0x3e,
  0x23,
  0xd9,
  0x0f,
  0xb7,
  0x35,
  0x28,
  0xe1,
  0xc6,
  0x26,
  0x69,
  0x2d,
  0x9d,
  0xdd,
  0x9c,
  0xe1,
  0x1f,
  0x6a,
  0xf1,
  0x5a,
  0xdc,
  0xcb,
  0x11,
  0xc3,
  0x7b,
  0xe4,
  0x24,
  0x96,
  0x59,
  0x6a,
  0x2b,
  0x2d,
  0x05,
  0x52,
  0xb5,
  0x69,
  0x88,
  0x4c,
  0x28,
  0x4f,
  0xf6,
  0x57,
  0x45,
  0xb5,
  0x73,
  0x89,
  0x13,
  0xe9,
  0x4d,
  0x4e,
  0x8e,
  0x3c,
  0x9d,
  0x6b,
  0x10,
  0xf0,
  0xab,
  0xb0,
  0x3a,
  0x5a,
  0xc3,
  0x19,
  0x6e,
  0x96,
  0x20,
  0x74,
  0x38,
  0x96,
  0x24,
  0xf9,
  0x24,
  0xd0,
  0x17,
  0x4e,
  0xc4,
  0x3d,
  0xe6,
  0x0e,
  0x5a,
  0xc3,
  0x80,
  0x81,
  0x9c,
  0x69,
  0x91,
  0x53,
  0x34,
  0x2d,
  0xad,
  0x46,
  0xb3,
  0xc3,
  0xbe,
  0x05,
  0x16,
  0xe1,
  0x58,
  0x54,
  0x27,
  0xd2,
  0x75,
  0xaf,
  0x1e,
  0x16,
  0xf6,
  0xd4,
  0x8d,
  0x5b,
  0x3b,
  0xce,
  0x89,
  0x7a,
  0x41,
  0x7e,
  0x0f,
  0xd2,
  0xc7,
  0x26,
  0x43,
  0xb4,
  0x3d,
  0xb9,
  0x66,
  0x4b,
  0xb9,
  0xef,
  0x77,
  0xb4,
  0x8e,
  0x7d,
  0x82,
  0x5a,
  0x9e,
  0xb9,
  0x1a,
  0x4b,
  0x52,
  0xde,
  0x60,
  0xf0,
  0x89,
  0x9a,
  0xa9,
  0x78,
  0x12,
  0x57,
  0x3c,
  0x78,
  0x5b,
  0x87,
  0x27,
  0xa5,
  0xa8,
  0x7b,
  0x17,
  0xe1,
  0x93,
  0x1c,
  0xcf,
  0xb4,
  0x85,
  0xa6,
  0xca,
  0x5a,
  0x44,
  0x59,
  0xf0,
  0x29,
  0x7e,
  0x5f,
  0xb1,
  0x49,
  0x1a,
  0x67,
  0xb3,
  0x0f,
  0x10,
  0x50,
  0x23,
  0x78,
  0xd0,
  0x32,
  0xcd,
  0x29,
  0x21,
  0x1a,
  0xc5,
  0x2d,
  0xe1,
  0x87,
  0x90,
  0xf0,
  0xee,
  0x3d,
  0x23,
  0xd2,
  0xb5,
  0x26,
  0x5e,
  0xa5,
  0xa2,
  0x1f,
  0xa6,
  0x4b,
  0x9f,
  0x92,
  0x2f,
  0x1e,
  0xef,
  0x28,
  0xe6,
  0xb4,
  0xf0,
  0x5d,
  0x21,
  0xa5,
  0x80,
  0x0f,
  0xa2,
  0x5a,
  0x2a,
  0xae,
  0xb0,
  0x4b,
  0x5b,
  0xbb,
  0xf0,
  0xa5,
  0x70,
  0x50,
  0x53,
  0xad,
  0x92,
  0xd1,
  0x84,
  0xf0,
  0x14,
  0xf3,
  0x4b,
  0xb4,
  0xd2,
  0x29,
  0x88,
  0x3c,
  0xf5,
  0xa3,
  0x9f,
  0x4b,
  0xd1,
  0x25,
  0xe6,
  0x1e,
  0x49,
  0xbe,
  0x33,
  0xc3,
  0xda,
  0x7b,
  0xd4,
  0xc3,
  0x5e,
  0xb7,
  0xb8,
  0x61,
  0x92,
  0xca,
  0x0d,
  0xf0,
  0xd1,
  0x38,
  0xc4,
  0x69,
  0xf2,
  0xc7,
  0x60,
  0x92,
  0xe3,
  0x7a,
  0xb2,
  0xe3,
  0xb0,
  0xe4,
  0xdd,
  0x25,
  0xac,
  0x43,
  0xc9,
  0xe3,
  0x9f,
  0xfc,
  0xfb,
  0x2d,
  0x56,
  0xa6,
  0xe4,
  0x94,
  0x5a,
  0xb1,
  0x7d,
  0x0e,
  0x1f,
  0x7f,
  0xb4,
  0xc2,
  0x32,
  0xd9,
  0x16,
  0xc3,
  0xac,
  0x26,
  0x69,
  0x96,
  0x63,
  0x84,
  0xda,
  0x1e,
  0xfe,
  0x81,
  0xea,
  0x5a,
  0x21,
  0x39,
  0xd2,
  0x69,
  0x7f,
  0x79,
  0x38,
  0xd2,
  0xe0,
  0xaa,
  0xa1,
  0x5e,
  0x7c,
  0x48,
  0x6b,
  0xb4,
  0x89,
  0x4f,
  0x11,
  0x2d,
  0x12,
  0x31,
  0x92,
  0xc3,
  0x68,
  0x90,
  0xb6,
  0x5a,
  0x1c,
  0x37,
  0xfc,
  0x0f,
  0xb7,
  0x69,
  0x45,
  0xa5,
  0x87,
  0xe0,
  0x94,
  0x3c,
  0xb5,
  0x34,
  0x6b,
  0x1e,
  0x8e,
  0x57,
  0x03,
  0xe1,
  0x62,
  0xfa,
  0xaa,
  0x5a,
  0x78,
  0x6a,
  0x2e,
  0x96,
  0xbf,
  0x33,
  0xbf,
  0x4b,
  0xbd,
  0x27,
  0x78,
  0xd2,
  0xf5,
  0x13,
  0x58,
  0x87,
  0x0c,
  0xe6,
  0x2c,
  0xf1,
  0x64,
  0xc0,
  0xd9,
  0x2f,
  0x45,
  0xeb,
  0xb2,
  0x4f,
  0x48,
  0x62,
  0xc3,
  0x3d,
  0xcc,
  0x80,
  0x97,
  0x69,
  0x57,
  0x2c,
  0x78,
  0x4b,
  0x47,
  0x5f,
  0xed,
  0x2d,
  0xcc,
  0x85,
  0x50,
  0xa7,
  0x00,
  0xea,
  0x79,
  0xe0,
  0x25,
  0x64,
  0x11,
  0xc3,
  0x21,
  0xb9,
  0x74,
  0x87,
  0x5d,
  0xcb,
  0x4a,
  0x96,
  0x5b,
  0xbf,
  0xf5,
  0x0b,
  0x0b,
  0x36,
  0x66,
  0x87
};

