#define STIM_W_SIZE 4096
// weights [64 x 2 x 8 x 4]
L2_DATA uint8_t ne16_weights_no_normquant[] = {
  0xe0,
  0x15,
  0x69,
  0x96,
  0x57,
  0x17,
  0x2d,
  0x78,
  0xa5,
  0x7a,
  0xa6,
  0xd3,
  0xf8,
  0x07,
  0xb0,
  0xc3,
  0x7a,
  0xd5,
  0x6b,
  0xb4,
  0xf5,
  0x5b,
  0x02,
  0xf8,
  0x1f,
  0xec,
  0xef,
  0x1e,
  0x9d,
  0x2f,
  0xf2,
  0x0f,
  0xa0,
  0x22,
  0x60,
  0xb4,
  0x29,
  0x54,
  0x26,
  0x1f,
  0x53,
  0x16,
  0x68,
  0x87,
  0xac,
  0x9f,
  0xc0,
  0xf0,
  0x03,
  0x21,
  0x8a,
  0x2d,
  0xa7,
  0x26,
  0x84,
  0x61,
  0x46,
  0x66,
  0xff,
  0x0e,
  0xee,
  0x20,
  0xc7,
  0x0f,
  0x7c,
  0x04,
  0x1e,
  0x2d,
  0xa0,
  0xd9,
  0x06,
  0xf0,
  0xc9,
  0xcb,
  0x10,
  0xe1,
  0x88,
  0xf0,
  0x94,
  0xa5,
  0x05,
  0x52,
  0xff,
  0x2c,
  0xc9,
  0x68,
  0x05,
  0x3c,
  0xe2,
  0x61,
  0x67,
  0x96,
  0xd8,
  0xbe,
  0x0f,
  0x1e,
  0x63,
  0x01,
  0xb9,
  0x69,
  0x72,
  0x4b,
  0x0c,
  0xb4,
  0x8f,
  0xd8,
  0x17,
  0xa4,
  0xda,
  0x5f,
  0x88,
  0x78,
  0x4d,
  0x26,
  0x96,
  0x96,
  0x33,
  0xc5,
  0x40,
  0x3c,
  0x46,
  0xde,
  0x46,
  0x97,
  0xad,
  0x9d,
  0x2c,
  0x1e,
  0xf2,
  0x68,
  0x7e,
  0x2d,
  0x2d,
  0x06,
  0xbf,
  0x48,
  0x53,
  0xb1,
  0x03,
  0xf0,
  0x58,
  0xdc,
  0x9c,
  0x2d,
  0xf7,
  0x7f,
  0xa5,
  0x4b,
  0x9e,
  0x41,
  0x63,
  0x3d,
  0x8a,
  0x0d,
  0xba,
  0x69,
  0x0b,
  0x52,
  0x17,
  0x96,
  0x9f,
  0xba,
  0x7c,
  0x0f,
  0x1f,
  0x81,
  0xa1,
  0xd2,
  0x8b,
  0x38,
  0xcf,
  0xe1,
  0x87,
  0x61,
  0x88,
  0x78,
  0x1d,
  0x2a,
  0xb5,
  0xc3,
  0x5b,
  0xac,
  0xe5,
  0x96,
  0xbc,
  0x9d,
  0x7f,
  0xa5,
  0x5f,
  0xc9,
  0x7e,
  0x3c,
  0x9b,
  0xdf,
  0x4f,
  0xc3,
  0x1d,
  0xa5,
  0x60,
  0xc3,
  0x74,
  0x8b,
  0x1b,
  0x4b,
  0x3f,
  0x1f,
  0x20,
  0xd2,
  0x15,
  0x24,
  0x00,
  0xb4,
  0x5b,
  0xcc,
  0x1d,
  0xe5,
  0x80,
  0x19,
  0x66,
  0x96,
  0x70,
  0xf9,
  0x0b,
  0xe1,
  0x00,
  0xcd,
  0x8e,
  0xf0,
  0x03,
  0x3e,
  0x2e,
  0x87,
  0xc1,
  0xe5,
  0xb6,
  0x69,
  0x6a,
  0x1f,
  0xd8,
  0x2d,
  0x0b,
  0x92,
  0x5a,
  0x69,
  0xec,
  0x14,
  0xfd,
  0x69,
  0xee,
  0xf5,
  0xad,
  0x3c,
  0x7e,
  0xc7,
  0xb9,
  0x4b,
  0xb9,
  0x51,
  0x4e,
  0x96,
  0x50,
  0x53,
  0xfc,
  0x0f,
  0xc0,
  0x92,
  0xe7,
  0x1a,
  0x29,
  0xe8,
  0x93,
  0xe1,
  0xcf,
  0xbb,
  0x63,
  0xf0,
  0xb6,
  0xd1,
  0xff,
  0x69,
  0x19,
  0xba,
  0xc0,
  0x78,
  0x70,
  0xdc,
  0xff,
  0x0f,
  0xc2,
  0x6c,
  0x88,
  0x4b,
  0xac,
  0x3b,
  0xff,
  0x0f,
  0x4d,
  0x3a,
  0x47,
  0x96,
  0x28,
  0x5d,
  0x32,
  0x8f,
  0x30,
  0x9c,
  0x42,
  0x87,
  0xbe,
  0xfd,
  0xf9,
  0x87,
  0xa1,
  0x58,
  0x04,
  0xa5,
  0x48,
  0xf5,
  0x95,
  0x2d,
  0x45,
  0xb1,
  0x81,
  0x69,
  0x3b,
  0xfa,
  0xe4,
  0x1e,
  0x54,
  0x75,
  0xe5,
  0xe1,
  0x6c,
  0x15,
  0x83,
  0x4b,
  0x8e,
  0xe8,
  0xb6,
  0xc3,
  0x06,
  0x49,
  0xe2,
  0xb4,
  0x83,
  0xb4,
  0x6f,
  0xc3,
  0xf4,
  0x45,
  0xd1,
  0x2d,
  0xf9,
  0xb4,
  0xf6,
  0x0f,
  0x2c,
  0xd9,
  0xd2,
  0x2d,
  0x7d,
  0x01,
  0x6c,
  0x96,
  0x11,
  0x3e,
  0x4d,
  0xa5,
  0x21,
  0xc8,
  0x43,
  0xf0,
  0xb0,
  0x82,
  0xfc,
  0x87,
  0xff,
  0x47,
  0x0a,
  0x97,
  0x57,
  0xcb,
  0x44,
  0x3c,
  0x1d,
  0x94,
  0x4e,
  0xd2,
  0x85,
  0xb9,
  0x92,
  0x0d,
  0xb5,
  0x6b,
  0xda,
  0x1e,
  0xa3,
  0x9e,
  0x11,
  0xe5,
  0x21,
  0x0e,
  0xe0,
  0xb4,
  0xae,
  0xa8,
  0x0f,
  0x78,
  0x9d,
  0x84,
  0x9c,
  0x3c,
  0x75,
  0x6f,
  0x00,
  0xd2,
  0xcd,
  0xbc,
  0xed,
  0x78,
  0x0f,
  0xc7,
  0x51,
  0x96,
  0x86,
  0x42,
  0x50,
  0x3c,
  0x23,
  0x03,
  0x68,
  0x97,
  0xfc,
  0xe5,
  0xf7,
  0x0f,
  0x4b,
  0x8e,
  0x8e,
  0x78,
  0x4f,
  0xb5,
  0x2e,
  0x9e,
  0x56,
  0xfb,
  0x88,
  0x78,
  0x47,
  0x9f,
  0xd3,
  0x69,
  0x8e,
  0x0c,
  0x74,
  0x83,
  0x69,
  0x6c,
  0xf3,
  0x94,
  0x0e,
  0xd5,
  0x0e,
  0x3c,
  0x4b,
  0x0a,
  0x60,
  0xda,
  0x50,
  0x0a,
  0x13,
  0xc3,
  0xa4,
  0xf7,
  0x85,
  0xd2,
  0x27,
  0x06,
  0xd5,
  0x2f,
  0x63,
  0x7f,
  0x31,
  0xc3,
  0xe5,
  0x44,
  0x4b,
  0xb4,
  0x06,
  0xc7,
  0x42,
  0xb4,
  0x0f,
  0x42,
  0x0c,
  0xf1,
  0x74,
  0x67,
  0xa3,
  0x58,
  0xb6,
  0xc4,
  0xf7,
  0x2d,
  0x84,
  0x54,
  0xdb,
  0x69,
  0xa6,
  0x2b,
  0xe2,
  0xd2,
  0x51,
  0x89,
  0x76,
  0x1e,
  0x55,
  0x00,
  0xd2,
  0x87,
  0x32,
  0x5b,
  0x55,
  0xb4,
  0xe5,
  0x37,
  0xc8,
  0x3c,
  0xee,
  0xb3,
  0x6b,
  0x4b,
  0x74,
  0xf6,
  0x30,
  0xbe,
  0x64,
  0x13,
  0x54,
  0xb4,
  0x21,
  0x69,
  0x98,
  0x5a,
  0x3e,
  0x8a,
  0x43,
  0x78,
  0xc0,
  0x20,
  0xed,
  0x0f,
  0xb9,
  0x42,
  0x02,
  0x96,
  0x2a,
  0xab,
  0xde,
  0x61,
  0x2c,
  0xf8,
  0x3b,
  0xc3,
  0x5c,
  0xb4,
  0xaa,
  0x5a,
  0xd2,
  0xe2,
  0x4a,
  0xb4,
  0xa3,
  0xc1,
  0x4b,
  0xa5,
  0xfe,
  0x30,
  0x5c,
  0x69,
  0xe5,
  0x10,
  0x0c,
  0xf0,
  0xe5,
  0x6b,
  0xd7,
  0x0f,
  0x9a,
  0x3f,
  0xd9,
  0x28,
  0x82,
  0x7c,
  0xdf,
  0x3e,
  0x71,
  0x49,
  0xda,
  0x2d,
  0x6a,
  0x6b,
  0x3c,
  0x87,
  0x15,
  0x25,
  0xf3,
  0xa5,
  0x4d,
  0x5e,
  0x9f,
  0x34,
  0xf7,
  0x89,
  0x22,
  0xc3,
  0x8c,
  0xd0,
  0xc2,
  0x78,
  0x88,
  0x1c,
  0xef,
  0xd0,
  0xd5,
  0x73,
  0x0b,
  0xc3,
  0x76,
  0x77,
  0x23,
  0xc6,
  0x3a,
  0x4e,
  0xf1,
  0x3c,
  0x77,
  0xf9,
  0x17,
  0xa4,
  0x3f,
  0x11,
  0x2b,
  0xf0,
  0x05,
  0x1e,
  0xbc,
  0xb4,
  0xa4,
  0x28,
  0x92,
  0x4f,
  0x77,
  0x41,
  0x86,
  0x2d,
  0xaf,
  0xcc,
  0xf8,
  0x0f,
  0x3c,
  0x04,
  0x0a,
  0xf0,
  0xd6,
  0x36,
  0x69,
  0x4b,
  0xcb,
  0xcd,
  0x46,
  0xb6,
  0x0b,
  0x82,
  0xb6,
  0x96,
  0xcb,
  0xd6,
  0xd0,
  0x3e,
  0x91,
  0xcd,
  0x82,
  0x1e,
  0x45,
  0x4f,
  0x1a,
  0x69,
  0x8f,
  0xac,
  0x59,
  0x2f,
  0x4f,
  0x35,
  0x16,
  0x2d,
  0x1c,
  0x86,
  0xea,
  0x78,
  0xea,
  0xd8,
  0xde,
  0x2d,
  0x8c,
  0x42,
  0x58,
  0x78,
  0xcc,
  0x1c,
  0x8f,
  0x34,
  0x19,
  0x81,
  0x15,
  0xa5,
  0x56,
  0xb0,
  0x46,
  0x96,
  0x90,
  0xf8,
  0x05,
  0xd2,
  0x9d,
  0x8e,
  0xfa,
  0x4b,
  0x8a,
  0xd0,
  0x89,
  0x78,
  0xae,
  0x86,
  0xd4,
  0x78,
  0x27,
  0x0e,
  0xd9,
  0x2f,
  0x13,
  0x74,
  0x13,
  0xc3,
  0xb3,
  0xb9,
  0xb5,
  0x4b,
  0x05,
  0x5e,
  0xab,
  0x25,
  0x59,
  0xd0,
  0x5c,
  0xb4,
  0x61,
  0x48,
  0xc4,
  0x2d,
  0xad,
  0x55,
  0x61,
  0xd2,
  0xab,
  0xa0,
  0x0f,
  0x3c,
  0x66,
  0x7e,
  0x5a,
  0x2d,
  0xae,
  0x02,
  0x44,
  0xb6,
  0xf9,
  0x1d,
  0x0e,
  0x5a,
  0xc2,
  0x99,
  0xdd,
  0x0f,
  0x37,
  0xc0,
  0x1b,
  0xc3,
  0xa4,
  0x7f,
  0x5c,
  0x96,
  0x66,
  0xf6,
  0xa5,
  0x96,
  0xc3,
  0x50,
  0x14,
  0xf4,
  0xae,
  0x31,
  0x26,
  0xd2,
  0x38,
  0xb2,
  0x99,
  0x2d,
  0xea,
  0xef,
  0x32,
  0x0f,
  0x4f,
  0x39,
  0x85,
  0xf0,
  0x4d,
  0x07,
  0xb4,
  0xc3,
  0xcf,
  0x10,
  0x1a,
  0xe1,
  0xd3,
  0x43,
  0xd0,
  0x3c,
  0xc7,
  0x1a,
  0x2e,
  0xd2,
  0x4e,
  0xda,
  0x44,
  0xb6,
  0x7d,
  0x96,
  0x34,
  0xd2,
  0xda,
  0x5a,
  0xd7,
  0xa5,
  0xe5,
  0x4c,
  0xe2,
  0x53,
  0x80,
  0x0f,
  0xbd,
  0x3c,
  0xd0,
  0x32,
  0xd5,
  0x2d,
  0x6a,
  0x4f,
  0x19,
  0xe1,
  0x56,
  0xbf,
  0x81,
  0xe1,
  0xe0,
  0xfa,
  0x0a,
  0x3c,
  0xd0,
  0x75,
  0xd7,
  0xa4,
  0xb2,
  0x71,
  0xec,
  0x5a,
  0x77,
  0xac,
  0xdb,
  0x2d,
  0x50,
  0x67,
  0xb3,
  0xa5,
  0x1c,
  0x87,
  0xfa,
  0x69,
  0x91,
  0x66,
  0xef,
  0xb4,
  0x9b,
  0xa7,
  0x69,
  0xd2,
  0x68,
  0xf1,
  0xe7,
  0x0f,
  0xa1,
  0xc7,
  0xbc,
  0xf0,
  0xde,
  0x2a,
  0xfb,
  0x0f,
  0x04,
  0xcc,
  0xfc,
  0x39,
  0x26,
  0xf9,
  0xae,
  0x5a,
  0x5e,
  0x9f,
  0x11,
  0xe5,
  0x52,
  0xa4,
  0xa9,
  0x1e,
  0x3f,
  0x78,
  0xa4,
  0x49,
  0x31,
  0xd2,
  0xd4,
  0x69,
  0xef,
  0x3f,
  0x35,
  0xc3,
  0x44,
  0xa3,
  0x64,
  0x5a,
  0xce,
  0x66,
  0xfb,
  0x69,
  0x0a,
  0x81,
  0x1c,
  0x96,
  0xe8,
  0xb6,
  0x04,
  0xb4,
  0xf3,
  0x01,
  0x79,
  0x96,
  0x0e,
  0xd5,
  0xd2,
  0x2d,
  0x1a,
  0x2c,
  0x78,
  0xc3,
  0x11,
  0x64,
  0xfc,
  0x29,
  0x75,
  0x50,
  0xbf,
  0x2d,
  0x75,
  0x59,
  0x1e,
  0x4b,
  0x5c,
  0x95,
  0x66,
  0x94,
  0x7a,
  0xad,
  0xe2,
  0x3c,
  0x95,
  0x14,
  0x8f,
  0x4b,
  0x1e,
  0x7f,
  0x64,
  0x96,
  0x7a,
  0x5b,
  0xb0,
  0xe1,
  0xe4,
  0x00,
  0x1b,
  0xd2,
  0x35,
  0xb2,
  0x2b,
  0xc3,
  0x3d,
  0x3e,
  0x62,
  0x96,
  0x87,
  0xad,
  0x60,
  0x96,
  0xab,
  0xdb,
  0xb8,
  0xe1,
  0x34,
  0x1e,
  0x66,
  0x96,
  0xe0,
  0x57,
  0x23,
  0xd6,
  0x71,
  0xf4,
  0xef,
  0x0f,
  0x76,
  0xc5,
  0x73,
  0x87,
  0x06,
  0xc1,
  0xa7,
  0x1e,
  0xf4,
  0x61,
  0x44,
  0x3c,
  0x08,
  0xa3,
  0x4f,
  0x34,
  0x79,
  0x9d,
  0xc8,
  0x3c,
  0x99,
  0x1b,
  0x08,
  0xc3,
  0x1b,
  0xc0,
  0x4a,
  0xd2,
  0xab,
  0x72,
  0x78,
  0x69,
  0x66,
  0x9b,
  0xca,
  0xb4,
  0x4a,
  0x45,
  0x8a,
  0x78,
  0x7a,
  0x06,
  0x82,
  0xe5,
  0xdd,
  0xdd,
  0x3a,
  0x96,
  0x2a,
  0x9b,
  0xd4,
  0x87,
  0xd4,
  0x89,
  0x61,
  0xa5,
  0xb5,
  0xe2,
  0x59,
  0x2f,
  0x54,
  0x12,
  0xa6,
  0x87,
  0xce,
  0x01,
  0xec,
  0xf0,
  0x3a,
  0x03,
  0x61,
  0xf8,
  0x0c,
  0xaf,
  0x39,
  0x69,
  0xf8,
  0x13,
  0x89,
  0xe3,
  0xfa,
  0xe9,
  0x10,
  0xe1,
  0xb7,
  0xc3,
  0xe1,
  0x96,
  0x3d,
  0xa4,
  0x33,
  0x5a,
  0x40,
  0x94,
  0x90,
  0x3e,
  0x8c,
  0xcd,
  0xee,
  0x1e,
  0x4a,
  0x65,
  0x52,
  0x3c,
  0x54,
  0x60,
  0x20,
  0xf0,
  0x11,
  0x7b,
  0x5b,
  0x87,
  0x1b,
  0x14,
  0x07,
  0xf0,
  0x4c,
  0x8e,
  0x22,
  0x52,
  0x0d,
  0x7b,
  0xb9,
  0xc3,
  0xd6,
  0xa5,
  0x3e,
  0x96,
  0xcd,
  0xea,
  0x90,
  0x2d,
  0x96,
  0xff,
  0x65,
  0x5a,
  0xbd,
  0x71,
  0x78,
  0x87,
  0x52,
  0x15,
  0xa5,
  0x50,
  0xaa,
  0x4c,
  0x76,
  0x3d,
  0xfd,
  0xe4,
  0x05,
  0xb4,
  0xe7,
  0xa4,
  0x95,
  0xa5,
  0xe2,
  0xb5,
  0xd5,
  0x38,
  0x17,
  0x72,
  0x52,
  0xa5,
  0xe0,
  0xc4,
  0x71,
  0xa5,
  0xdb,
  0x5f,
  0xfd,
  0x69,
  0x9e,
  0x3b,
  0xd1,
  0xf0,
  0x4b,
  0x90,
  0x49,
  0xbc,
  0xbe,
  0xf1,
  0xdb,
  0x0f,
  0x6e,
  0xe1,
  0xa3,
  0xd2,
  0xfd,
  0x5b,
  0xe9,
  0x5a,
  0x10,
  0xed,
  0xa9,
  0xe1,
  0x35,
  0xec,
  0xde,
  0x2d,
  0x79,
  0xc8,
  0xf7,
  0x96,
  0x57,
  0x18,
  0x9d,
  0xa5,
  0xfe,
  0x5d,
  0x43,
  0xc2,
  0x9e,
  0xeb,
  0x66,
  0x5a,
  0xb6,
  0x18,
  0xf1,
  0x4b,
  0x20,
  0x64,
  0x52,
  0xb4,
  0x33,
  0x14,
  0xf5,
  0x2d,
  0xee,
  0xf4,
  0x26,
  0x5a,
  0x33,
  0x66,
  0x53,
  0xd0,
  0x36,
  0x6e,
  0x00,
  0xb4,
  0xbd,
  0xa7,
  0xe2,
  0x96,
  0xcb,
  0x4e,
  0x53,
  0xc3,
  0x28,
  0x4f,
  0x9e,
  0x96,
  0xaf,
  0xd6,
  0xbb,
  0x4b,
  0x3b,
  0x9b,
  0x8d,
  0x61,
  0x4d,
  0xf9,
  0xd3,
  0xa5,
  0x02,
  0x97,
  0xe5,
  0x96,
  0xe3,
  0x26,
  0x98,
  0xf0,
  0x49,
  0x02,
  0xb4,
  0x29,
  0x1a,
  0x50,
  0x7b,
  0x0f,
  0x49,
  0x84,
  0x76,
  0x96,
  0x36,
  0x52,
  0xb9,
  0x4b,
  0x19,
  0x7e,
  0x8d,
  0x70,
  0xbe,
  0x56,
  0x31,
  0xc7,
  0x7d,
  0x30,
  0xa6,
  0xc3,
  0x07,
  0x49,
  0x84,
  0xf2,
  0x6d,
  0x93,
  0x08,
  0x5e,
  0x4f,
  0xa4,
  0x0a,
  0x5a,
  0x1a,
  0x8c,
  0x35,
  0xa5,
  0x27,
  0x89,
  0x2c,
  0xa5,
  0xce,
  0xbc,
  0x38,
  0xe9,
  0xe0,
  0x44,
  0xef,
  0x0f,
  0x9e,
  0x52,
  0x49,
  0xb4,
  0x20,
  0x8b,
  0x3a,
  0x7c,
  0x61,
  0x96,
  0xe9,
  0x5a,
  0x86,
  0x68,
  0xdd,
  0x2d,
  0x4f,
  0x9a,
  0x43,
  0x2f,
  0xd8,
  0x5c,
  0x4f,
  0x25,
  0x12,
  0x3b,
  0xad,
  0xe1,
  0xdf,
  0x41,
  0xa6,
  0x1e,
  0x71,
  0x29,
  0xa7,
  0xd0,
  0xd3,
  0xfc,
  0x3a,
  0x1e,
  0x03,
  0x56,
  0x5d,
  0x0f,
  0x5e,
  0xe8,
  0x45,
  0xf0,
  0x86,
  0x43,
  0xaa,
  0x1e,
  0xfe,
  0xa7,
  0xda,
  0x2d,
  0x03,
  0x20,
  0x91,
  0x78,
  0xec,
  0xd9,
  0xb5,
  0x29,
  0xf3,
  0x14,
  0xc4,
  0xd2,
  0xeb,
  0x64,
  0x0a,
  0xd2,
  0xd9,
  0x7e,
  0x84,
  0xf0,
  0xb1,
  0xeb,
  0x06,
  0x96,
  0x6e,
  0xfe,
  0x1d,
  0x2d,
  0xb2,
  0xbe,
  0xcd,
  0x29,
  0x87,
  0x64,
  0x3f,
  0x0f,
  0xdf,
  0xa1,
  0xef,
  0x2d,
  0x4c,
  0xee,
  0x83,
  0x1c,
  0x3a,
  0xba,
  0x69,
  0xf0,
  0x39,
  0x21,
  0xde,
  0x0f,
  0x39,
  0x3e,
  0x1a,
  0xc3,
  0x89,
  0x47,
  0x8b,
  0x78,
  0xea,
  0xca,
  0x75,
  0xa5,
  0xbb,
  0xcd,
  0xe5,
  0x96,
  0xaf,
  0xe4,
  0xe4,
  0xb4,
  0x51,
  0x4d,
  0x38,
  0x5a,
  0x1b,
  0x34,
  0xc0,
  0x5a,
  0x49,
  0x5c,
  0x69,
  0x96,
  0x20,
  0x4c,
  0xc7,
  0xb4,
  0x38,
  0x41,
  0xb5,
  0xe0,
  0x00,
  0x84,
  0xb6,
  0x5a,
  0xc9,
  0x17,
  0xbb,
  0x1e,
  0xe1,
  0x3a,
  0x81,
  0xe1,
  0x79,
  0x37,
  0xb8,
  0xc3,
  0xb8,
  0x9d,
  0x3e,
  0x4b,
  0x00,
  0xdb,
  0xb9,
  0x4b,
  0x74,
  0x5f,
  0xf8,
  0x4f,
  0x01,
  0x98,
  0x90,
  0xf2,
  0xb3,
  0x1f,
  0xcc,
  0x4b,
  0xd3,
  0xb1,
  0xfe,
  0x0f,
  0x01,
  0xe1,
  0x31,
  0xe1,
  0xe3,
  0x6a,
  0x76,
  0xd0,
  0xc2,
  0x1c,
  0x5d,
  0x69,
  0x8a,
  0x13,
  0x58,
  0xb6,
  0x21,
  0x61,
  0x81,
  0x3c,
  0xc7,
  0x19,
  0x3b,
  0xc3,
  0xcb,
  0xd1,
  0x35,
  0xf0,
  0x02,
  0xae,
  0x4e,
  0xb0,
  0x04,
  0xdf,
  0x44,
  0xaf,
  0x2d,
  0x76,
  0xf8,
  0x96,
  0xc8,
  0xdb,
  0x6d,
  0xa5,
  0x44,
  0x26,
  0x5a,
  0xa5,
  0x0c,
  0x7f,
  0x43,
  0xb4,
  0x22,
  0x83,
  0x2a,
  0xf0,
  0x9b,
  0x97,
  0xfe,
  0xc2,
  0xad,
  0x60,
  0xd8,
  0x4b,
  0xe2,
  0xfe,
  0xa8,
  0xf0,
  0xa2,
  0x14,
  0x0b,
  0x69,
  0xf7,
  0x42,
  0xc3,
  0xb4,
  0xc9,
  0x86,
  0x49,
  0x69,
  0xae,
  0x61,
  0x9f,
  0x5a,
  0xa2,
  0x91,
  0xf3,
  0x4a,
  0xc9,
  0x08,
  0x6b,
  0x69,
  0x00,
  0xb9,
  0x6e,
  0x94,
  0xaf,
  0x94,
  0x89,
  0xf0,
  0xbd,
  0x5d,
  0x73,
  0x0f,
  0x83,
  0xd3,
  0xb8,
  0x4b,
  0x93,
  0xbc,
  0xf3,
  0xc2,
  0x9f,
  0xd1,
  0x97,
  0x96,
  0x61,
  0xa7,
  0x34,
  0x5a,
  0xb8,
  0x5d,
  0x7e,
  0x0b,
  0x2c,
  0x8d,
  0x9a,
  0x5a,
  0x9f,
  0x44,
  0x96,
  0xe1,
  0x0f,
  0xa3,
  0xd0,
  0x69,
  0xe7,
  0xc5,
  0x31,
  0xe1,
  0xd6,
  0x00,
  0x8a,
  0x78,
  0x77,
  0x9f,
  0x9e,
  0x6d,
  0x05,
  0x7e,
  0xda,
  0x2d,
  0x28,
  0xfc,
  0xbf,
  0x4b,
  0x9d,
  0xb5,
  0xab,
  0x4f,
  0x60,
  0x32,
  0x73,
  0xa4,
  0x95,
  0xc1,
  0x84,
  0x4b,
  0x34,
  0xf7,
  0x06,
  0xa5,
  0xb1,
  0x21,
  0xaf,
  0x87,
  0x0d,
  0x99,
  0x70,
  0xe1,
  0xa9,
  0x21,
  0x97,
  0x69,
  0xbd,
  0x2e,
  0xa8,
  0xf0,
  0x45,
  0x93,
  0x74,
  0xb4,
  0x6e,
  0xaf,
  0xb4,
  0x3c,
  0x52,
  0xff,
  0x07,
  0xa5,
  0x3e,
  0x67,
  0xe5,
  0x3c,
  0xe1,
  0x5f,
  0x80,
  0xe1,
  0x2e,
  0x2a,
  0xbe,
  0x4b,
  0x31,
  0x6f,
  0xb6,
  0x5a,
  0x16,
  0xdd,
  0x77,
  0x0f,
  0x76,
  0x51,
  0x8a,
  0x5a,
  0x09,
  0x80,
  0x24,
  0xc3,
  0x23,
  0xa7,
  0x50,
  0xb4,
  0x00,
  0x34,
  0xaa,
  0x78,
  0x8a,
  0xf7,
  0xc0,
  0x1e,
  0xf9,
  0x48,
  0x85,
  0xd2,
  0x1d,
  0x91,
  0x41,
  0x5a,
  0x68,
  0x8b,
  0xa7,
  0x3c,
  0x69,
  0xfd,
  0x97,
  0x69,
  0x62,
  0x90,
  0x9c,
  0x7a,
  0x9b,
  0xd4,
  0x7c,
  0x96,
  0xa9,
  0x60,
  0x3d,
  0x78,
  0x56,
  0xec,
  0x71,
  0x96,
  0x10,
  0xf8,
  0x74,
  0xa5,
  0xc4,
  0xd5,
  0x27,
  0x0f,
  0x08,
  0x1d,
  0x9a,
  0x5a,
  0xb4,
  0x61,
  0xc7,
  0x38,
  0xa9,
  0xb2,
  0xc6,
  0x1e,
  0x34,
  0x3a,
  0x65,
  0x96,
  0x9d,
  0xa8,
  0x20,
  0x5a,
  0x7e,
  0xdb,
  0x0c,
  0xf0,
  0x15,
  0xc8,
  0x22,
  0xd2,
  0x7e,
  0x0e,
  0x28,
  0xd2,
  0x4a,
  0x63,
  0xb9,
  0xd2,
  0x72,
  0xde,
  0x19,
  0xa6,
  0x95,
  0x52,
  0xd8,
  0x34,
  0x1f,
  0xb0,
  0x44,
  0xf5,
  0x1c,
  0x2c,
  0xc7,
  0x1e,
  0xea,
  0x23,
  0x4d,
  0x1e,
  0xec,
  0xa0,
  0xd9,
  0x3c,
  0xe0,
  0x07,
  0xcb,
  0xe1,
  0x24,
  0x44,
  0x86,
  0x5b,
  0x57,
  0xd2,
  0x67,
  0xb4,
  0x6e,
  0x5e,
  0x97,
  0xc3,
  0x0c,
  0x8e,
  0x72,
  0xf0,
  0xfe,
  0x81,
  0x42,
  0xf0,
  0xaf,
  0x7e,
  0xa2,
  0xd2,
  0x58,
  0x14,
  0xe8,
  0x78,
  0x2d,
  0xeb,
  0x8e,
  0x4b,
  0x6c,
  0x56,
  0x45,
  0xe1,
  0x13,
  0xb2,
  0x11,
  0xe9,
  0xc3,
  0xdd,
  0x34,
  0xc3,
  0x6e,
  0xc4,
  0xdc,
  0x34,
  0x9b,
  0x3a,
  0xbc,
  0x7c,
  0x96,
  0x7d,
  0x06,
  0xb5,
  0x7a,
  0x2f,
  0x01,
  0xf8,
  0x51,
  0xb0,
  0xf8,
  0x2d,
  0x83,
  0x9d,
  0x9d,
  0x69,
  0x96,
  0x65,
  0x5c,
  0xb6,
  0x83,
  0x7d,
  0x2f,
  0xd2,
  0x07,
  0xdb,
  0xf6,
  0x96,
  0x33,
  0x92,
  0xc6,
  0xd2,
  0x7a,
  0xf3,
  0x6d,
  0x2d,
  0x70,
  0xc1,
  0x39,
  0x69,
  0x17,
  0xc7,
  0xec,
  0x96,
  0x82,
  0x13,
  0xd1,
  0xa4,
  0xe0,
  0xeb,
  0xaf,
  0x0f,
  0x61,
  0xb2,
  0xb3,
  0x2d,
  0x5b,
  0x6d,
  0x08,
  0xf9,
  0x56,
  0x56,
  0x30,
  0xb4,
  0x85,
  0x5b,
  0xd0,
  0xe1,
  0x97,
  0x91,
  0xe6,
  0x5a,
  0xe9,
  0xee,
  0x91,
  0x2d,
  0x8b,
  0x81,
  0x0c,
  0xf0,
  0x85,
  0xb4,
  0x01,
  0xcb,
  0xce,
  0xd1,
  0x4b,
  0xf0,
  0x81,
  0xde,
  0xf2,
  0x3c,
  0x09,
  0xdf,
  0x58,
  0xa5,
  0xea,
  0x1a,
  0xf8,
  0x4b,
  0x06,
  0xbe,
  0x5f,
  0x87,
  0xc3,
  0x59,
  0x03,
  0xa5,
  0xcb,
  0xa8,
  0x4a,
  0x1e,
  0x63,
  0xf6,
  0xa6,
  0xd2,
  0x67,
  0x78,
  0x15,
  0x0e,
  0x6e,
  0xd0,
  0xa7,
  0x1e,
  0x1c,
  0x64,
  0x4c,
  0xb6,
  0x6d,
  0x8f,
  0x49,
  0xd2,
  0xb4,
  0x74,
  0xe0,
  0xb4,
  0x5d,
  0xa1,
  0x40,
  0x3c,
  0x01,
  0x0c,
  0x7a,
  0x87,
  0x11,
  0xc1,
  0x48,
  0x78,
  0x6c,
  0x10,
  0xc6,
  0x96,
  0x35,
  0x9f,
  0x53,
  0xa5,
  0x90,
  0xd2,
  0xc2,
  0x1e,
  0x16,
  0xfa,
  0xaf,
  0x0f,
  0xc5,
  0x28,
  0x25,
  0xf8,
  0x8f,
  0xbb,
  0xfd,
  0x25,
  0xb0,
  0x78,
  0xd3,
  0x69,
  0x28,
  0xae,
  0x91,
  0x4b,
  0x8b,
  0x42,
  0xc6,
  0xd2,
  0x67,
  0x4a,
  0x1a,
  0x6b,
  0x5d,
  0xa3,
  0x6d,
  0x0f,
  0x1c,
  0x4d,
  0x36,
  0xc3,
  0xa4,
  0x89,
  0x1f,
  0x69,
  0x83,
  0x2f,
  0xc4,
  0xb0,
  0x8c,
  0x6e,
  0x54,
  0xa5,
  0x0b,
  0x83,
  0xf0,
  0x78,
  0xf1,
  0x12,
  0xd6,
  0xa5,
  0xe3,
  0x65,
  0xa4,
  0x5a,
  0x41,
  0xbe,
  0x39,
  0x5a,
  0x5d,
  0xd6,
  0xfe,
  0x87,
  0xa7,
  0xdf,
  0x86,
  0x1e,
  0xde,
  0xc0,
  0xef,
  0x0f,
  0x46,
  0x0b,
  0xff,
  0x2d,
  0x83,
  0x95,
  0x9c,
  0x7a,
  0x29,
  0xd2,
  0xf4,
  0x0f,
  0x62,
  0x37,
  0x19,
  0xe5,
  0xb4,
  0x57,
  0xd1,
  0xe1,
  0x85,
  0x0e,
  0x36,
  0x96,
  0x72,
  0x3d,
  0xfb,
  0x07,
  0xfe,
  0x45,
  0x59,
  0xe1,
  0x64,
  0x22,
  0x1d,
  0xc3,
  0xdb,
  0x09,
  0x01,
  0xf8,
  0xce,
  0x33,
  0xcc,
  0x7a,
  0xf5,
  0xae,
  0x9f,
  0x87,
  0x5a,
  0xd3,
  0x82,
  0x87,
  0x22,
  0x20,
  0xb1,
  0xe5,
  0xd0,
  0xb7,
  0x99,
  0x5a,
  0x62,
  0x0b,
  0xea,
  0xe1,
  0x2c,
  0x59,
  0xa8,
  0x70,
  0xd1,
  0x83,
  0x37,
  0x4f,
  0xbe,
  0xcd,
  0x2b,
  0x5b,
  0xb6,
  0x70,
  0x09,
  0x78,
  0xd0,
  0x6e,
  0x7a,
  0x0f,
  0x9a,
  0xa2,
  0x6a,
  0xc1,
  0x2a,
  0xf8,
  0x66,
  0x96,
  0x9e,
  0x58,
  0x86,
  0x1e,
  0xfb,
  0xe6,
  0x1d,
  0xf0,
  0xfb,
  0x72,
  0xde,
  0x87,
  0xeb,
  0x00,
  0xe5,
  0x5a,
  0x71,
  0x00,
  0x08,
  0x5f,
  0x3c,
  0x49,
  0xaf,
  0x4b,
  0xd1,
  0xd1,
  0x40,
  0x96,
  0x5c,
  0x1f,
  0x57,
  0x0e,
  0x11,
  0xea,
  0xaa,
  0x5a,
  0x74,
  0xa9,
  0xb3,
  0x69,
  0xc6,
  0x3f,
  0x2b,
  0x96,
  0x88,
  0xe8,
  0x8f,
  0xd2,
  0x59,
  0x42,
  0xf9,
  0x24,
  0x40,
  0x12,
  0xc9,
  0x69,
  0x8f,
  0x24,
  0xd8,
  0x78,
  0x1d,
  0x8a,
  0xf8,
  0x4f,
  0x22,
  0xd0,
  0x32,
  0xc3,
  0x8f,
  0x1f,
  0x73,
  0xda,
  0x72,
  0xc2,
  0xe5,
  0x1e,
  0xac,
  0xb3,
  0xe8,
  0x4b,
  0x19,
  0xa0,
  0xb2,
  0x4b,
  0x8c,
  0xa9,
  0x7f,
  0x96,
  0xa2,
  0x14,
  0xcb,
  0x3c,
  0x99,
  0xbc,
  0x0c,
  0x79,
  0xfd,
  0x32,
  0x97,
  0xc3,
  0x25,
  0xff,
  0x92,
  0xd2,
  0xa2,
  0xc5,
  0x40,
  0xb5,
  0xc5,
  0x08,
  0xa2,
  0x4b,
  0xe2,
  0x74,
  0x69,
  0x96,
  0x42,
  0x99,
  0xa1,
  0x78,
  0x87,
  0x76,
  0xf3,
  0x96,
  0xfe,
  0x33,
  0x84,
  0x4b,
  0x04,
  0xcb,
  0xcd,
  0xb4,
  0x73,
  0x48,
  0x04,
  0xf2,
  0x6f,
  0x20,
  0xd3,
  0x2d,
  0x6f,
  0x11,
  0x32,
  0x85,
  0x47,
  0x14,
  0x3f,
  0x1e,
  0x9e,
  0xf3,
  0x7b,
  0x87,
  0x04,
  0xec,
  0x20,
  0xc3,
  0x0e,
  0xdd,
  0x52,
  0x78,
  0xba,
  0xea,
  0x4f,
  0xb4,
  0xd2,
  0x23,
  0x07,
  0x3c,
  0x58,
  0x6d,
  0xe5,
  0x5a,
  0x6b,
  0xe9,
  0x82,
  0x4b,
  0x80,
  0x76,
  0xbc,
  0x5a,
  0xda,
  0x43,
  0x31,
  0x85,
  0x2e,
  0x69,
  0x3d,
  0x69,
  0xc9,
  0x45,
  0xc7,
  0xb4,
  0x6c,
  0x15,
  0x3a,
  0xa5,
  0xac,
  0x49,
  0xce,
  0x3c,
  0x00,
  0xcc,
  0xd7,
  0x34,
  0x83,
  0x72,
  0xa6,
  0x87,
  0x7a,
  0xf9,
  0xf8,
  0x70,
  0xa3,
  0x39,
  0x0d,
  0xe1,
  0xe6,
  0x1c,
  0xb1,
  0xf0,
  0x63,
  0x16,
  0x6b,
  0xe1,
  0x98,
  0xa8,
  0x36,
  0xb4,
  0x85,
  0x7c,
  0xc1,
  0x5a,
  0x5d,
  0xd0,
  0x0b,
  0x5a,
  0xd2,
  0x55,
  0x45,
  0xb2,
  0x41,
  0x45,
  0xa0,
  0x5e,
  0xa1,
  0x7e,
  0x1d,
  0x4b,
  0x1b,
  0xaa,
  0x40,
  0xb6,
  0x7e,
  0x17,
  0x92,
  0xf0,
  0x48,
  0xf9,
  0x3d,
  0x69,
  0xd4,
  0x38,
  0xf0,
  0xd2,
  0x6f,
  0x7e,
  0x9f,
  0x3c,
  0xc3,
  0xd2,
  0xe8,
  0x34,
  0x01,
  0x1b,
  0x57,
  0xe3,
  0x3f,
  0xa4,
  0x76,
  0x87,
  0x06,
  0x25,
  0xce,
  0x3c,
  0x25,
  0x7b,
  0x82,
  0xf1,
  0xb9,
  0x11,
  0xe9,
  0xb4,
  0xda,
  0x9a,
  0xd6,
  0x2d,
  0x37,
  0x16,
  0x37,
  0xc1,
  0x3d,
  0x94,
  0x30,
  0xc7,
  0xec,
  0x55,
  0xba,
  0x0f,
  0xa5,
  0x4d,
  0xbc,
  0xd2,
  0x3f,
  0xff,
  0xa3,
  0x5a,
  0xf0,
  0x95,
  0xe5,
  0xb4,
  0x0f,
  0x1a,
  0x15,
  0xe1,
  0xf6,
  0xde,
  0x96,
  0x69,
  0x2a,
  0xe2,
  0xc4,
  0x0f,
  0x4d,
  0x8c,
  0xb2,
  0x78,
  0x47,
  0x09,
  0xfc,
  0x70,
  0xd4,
  0x3c,
  0xb9,
  0x78,
  0x1d,
  0xcd,
  0x0b,
  0xe5,
  0x71,
  0x71,
  0x3f,
  0x87,
  0xef,
  0x50,
  0xc7,
  0x92,
  0x66,
  0xa8,
  0x10,
  0xa5,
  0x3b,
  0x9f,
  0x87,
  0x1e,
  0x7a,
  0xd8,
  0xcf,
  0x5a,
  0x03,
  0x27,
  0x95,
  0xe1,
  0xe8,
  0x25,
  0xb2,
  0xe5,
  0x94,
  0x4e,
  0x80,
  0x78,
  0xd6,
  0x8d,
  0x86,
  0x0f,
  0xdc,
  0xd3,
  0x2c,
  0xf0,
  0x19,
  0x99,
  0x87,
  0x5a,
  0x88,
  0x7b,
  0x7f,
  0x87,
  0x9c,
  0x7e,
  0x6e,
  0x94,
  0xe8,
  0x94,
  0x28,
  0x4b,
  0x6a,
  0x8f,
  0x44,
  0x38,
  0x56,
  0x0e,
  0x89,
  0x4b,
  0xeb,
  0xab,
  0x3b,
  0x5a,
  0x45,
  0x91,
  0xa8,
  0xd2,
  0x60,
  0x53,
  0xaa,
  0x1e,
  0xca,
  0xcb,
  0xaf,
  0x3c,
  0x1a,
  0x9e,
  0xf3,
  0x0f,
  0x6c,
  0x69,
  0x70,
  0x96,
  0x42,
  0xb2,
  0xf2,
  0x0f,
  0x4e,
  0xc5,
  0xfb,
  0x69,
  0xbc,
  0xf5,
  0x72,
  0xc1,
  0x0e,
  0x69,
  0x1d,
  0xe1,
  0x48,
  0xf9,
  0xe2,
  0x0f,
  0x94,
  0x96,
  0x66,
  0xf1,
  0x0b,
  0xc7,
  0x80,
  0x5b,
  0x99,
  0xe6,
  0xee,
  0x0f,
  0x07,
  0x58,
  0x76,
  0x87,
  0xf1,
  0x96,
  0x5a,
  0x87,
  0x24,
  0x35,
  0x6f,
  0x5a,
  0xe0,
  0xcc,
  0xf0,
  0xf0,
  0xde,
  0xe4,
  0xb0,
  0x4b,
  0xe3,
  0xd7,
  0x37,
  0x87,
  0x9c,
  0xcc,
  0xbd,
  0x78,
  0xa5,
  0x17,
  0x13,
  0xe3,
  0xc6,
  0xe4,
  0x24,
  0x5a,
  0x7d,
  0xfb,
  0x58,
  0x2e,
  0x07,
  0x77,
  0x53,
  0x87,
  0x28,
  0xb5,
  0xd4,
  0x3c,
  0x85,
  0xe4,
  0x44,
  0xb0,
  0x44,
  0x6d,
  0xe6,
  0x96,
  0xed,
  0x6c,
  0x16,
  0xa5,
  0xca,
  0x87,
  0xf1,
  0x07,
  0x8b,
  0x82,
  0xc3,
  0x78,
  0x8e,
  0x24,
  0x7f,
  0x87,
  0xb5,
  0xee,
  0xe4,
  0x52,
  0x38,
  0xfd,
  0x67,
  0x85,
  0x66,
  0xec,
  0x3a,
  0x4b,
  0x5b,
  0x2a,
  0xfa,
  0x4b,
  0x95,
  0x1f,
  0x20,
  0xf0,
  0xd7,
  0x6f,
  0xd3,
  0x2d,
  0x74,
  0x14,
  0x72,
  0x8f,
  0x76,
  0x15,
  0x70,
  0xf0,
  0x8e,
  0xce,
  0x2d,
  0x96,
  0xac,
  0x9d,
  0x54,
  0xe3,
  0x26,
  0xa2,
  0x3c,
  0x94,
  0x0f,
  0x29,
  0x71,
  0x96,
  0x5b,
  0x5d,
  0x2a,
  0xb4,
  0x70,
  0x50,
  0x70,
  0x87,
  0xe4,
  0xb6,
  0xe9,
  0x3c,
  0x0a,
  0xec,
  0x0b,
  0x5a,
  0xc8,
  0x55,
  0x51,
  0x69,
  0x8b,
  0xb9,
  0x2f,
  0xd2,
  0x2d,
  0x00,
  0xb3,
  0xf4,
  0xb8,
  0xe8,
  0x2b,
  0xd2,
  0x87,
  0x0a,
  0x3c,
  0x8f,
  0x17,
  0x24,
  0x85,
  0x96,
  0xdf,
  0xb9,
  0xae,
  0x16,
  0xd9,
  0x17,
  0x40,
  0xf0,
  0x07,
  0x4d,
  0xc8,
  0x78,
  0xf6,
  0x1b,
  0xad,
  0xc1,
  0xa4,
  0xae,
  0x8e,
  0x61,
  0x9a,
  0x3f,
  0xff,
  0x0f,
  0xd6,
  0x4e,
  0x18,
  0xe1,
  0x89,
  0xff,
  0xe7,
  0x1e,
  0x83,
  0x6c,
  0x36,
  0x94,
  0x5f,
  0xe2,
  0x57,
  0x2d,
  0x4d,
  0xca,
  0x49,
  0x3c,
  0xfd,
  0x32,
  0xc6,
  0x0f,
  0x90,
  0xef,
  0x8a,
  0x52,
  0x84,
  0x98,
  0xa5,
  0xd2,
  0xa0,
  0x97,
  0xa4,
  0x78,
  0x2a,
  0x5d,
  0x1f,
  0xa5,
  0xd2,
  0x3a,
  0x95,
  0x69,
  0x55,
  0xdf,
  0xb9,
  0x4b,
  0x34,
  0x80,
  0x4c,
  0xb4,
  0xf0,
  0x82,
  0x7e,
  0xe1,
  0xbc,
  0x72,
  0x3c,
  0xd2,
  0xd8,
  0xdb,
  0x6e,
  0x1e,
  0x9c,
  0x7b,
  0xe1,
  0xa5,
  0x6a,
  0xd0,
  0x25,
  0xe3,
  0xed,
  0x0b,
  0x75,
  0x87,
  0xbe,
  0x76,
  0xd9,
  0x0f,
  0x8b,
  0x23,
  0x73,
  0xd0,
  0xd2,
  0x91,
  0xcb,
  0x69,
  0x82,
  0xc3,
  0x51,
  0x87,
  0x61,
  0x10,
  0x9c,
  0x78,
  0xba,
  0xd0,
  0xa9,
  0x0f,
  0x0d,
  0x52,
  0x86,
  0xd2,
  0x36,
  0x2e,
  0xce,
  0x1e,
  0xda,
  0x66,
  0x11,
  0xad,
  0x3d,
  0x26,
  0x78,
  0x87,
  0xe2,
  0x7e,
  0x07,
  0xf0,
  0x83,
  0x84,
  0x39,
  0xc3,
  0x38,
  0x91,
  0xe5,
  0xb4,
  0xde,
  0x4b,
  0xd8,
  0x2f,
  0x2d,
  0x6b,
  0x76,
  0xa5,
  0xb8,
  0xaa,
  0x1a,
  0xa5,
  0xd2,
  0x9b,
  0xe2,
  0x78,
  0x20,
  0x4a,
  0xaa,
  0x5a,
  0x62,
  0x9a,
  0x54,
  0xbc,
  0x3a,
  0x5f,
  0xeb,
  0x4b,
  0x44,
  0x24,
  0xb5,
  0xf0,
  0x32,
  0xd0,
  0x00,
  0x69,
  0xfb,
  0x9f,
  0x9d,
  0x69,
  0x70,
  0xf7,
  0x51,
  0xf0,
  0xa6,
  0x9b,
  0x1d,
  0x69,
  0xe3,
  0x63,
  0x7c,
  0x87,
  0x58,
  0xf4,
  0x64,
  0xd2,
  0x84,
  0x2a,
  0x31,
  0xc3,
  0x11,
  0xd3,
  0x75,
  0x4a,
  0xc5,
  0xe0,
  0xab,
  0x58,
  0x94,
  0xc5,
  0x9a,
  0x2e,
  0x84,
  0xac,
  0x54,
  0x87,
  0x77,
  0x78,
  0x65,
  0x1e,
  0xff,
  0x92,
  0x84,
  0x3c,
  0xc8,
  0xc6,
  0x1c,
  0x87,
  0xa6,
  0x19,
  0x1c,
  0xa5,
  0x29,
  0xe5,
  0x85,
  0x1e,
  0x53,
  0x50,
  0xdb,
  0x2d,
  0x98,
  0x60,
  0xff,
  0x2d,
  0xd1,
  0x72,
  0x63,
  0xd2,
  0xb2,
  0x6f,
  0x1a,
  0xd2,
  0xd1,
  0xae,
  0x15,
  0xf0,
  0x73,
  0xc6,
  0xd4,
  0xa7,
  0x44,
  0x49,
  0xc9,
  0x3e,
  0x96,
  0x98,
  0x75,
  0x87,
  0x91,
  0x1d,
  0x32,
  0x78,
  0x81,
  0xb0,
  0x17,
  0xe1,
  0x57,
  0xd6,
  0xbf,
  0x07,
  0x88,
  0x1f,
  0xe1,
  0x96,
  0x4c,
  0x93,
  0x08,
  0xf0,
  0x89,
  0xf9,
  0xbd,
  0x4b,
  0x33,
  0xa5,
  0x24,
  0xf0,
  0x60,
  0x51,
  0x01,
  0xd2,
  0x61,
  0x37,
  0x2a,
  0x96,
  0xe6,
  0x41,
  0xc2,
  0x96,
  0x25,
  0xd5,
  0xcb,
  0xe1,
  0x24,
  0xe9,
  0xa3,
  0x5a,
  0x83,
  0x85,
  0x75,
  0x8f,
  0x93,
  0xd7,
  0x6c,
  0x29,
  0xb5,
  0x36,
  0xcc,
  0x70,
  0xcf,
  0xb4,
  0x84,
  0x3c,
  0xfb,
  0xea,
  0xfb,
  0xc3,
  0xf3,
  0xa5,
  0xab,
  0x4b,
  0x3f,
  0x96,
  0xba,
  0x4b,
  0xde,
  0x12,
  0x22,
  0xd2,
  0xc5,
  0xe4,
  0x5c,
  0x1e,
  0x9d,
  0xa7,
  0x68,
  0xd2,
  0xd0,
  0xfc,
  0xf8,
  0x0f,
  0x80,
  0x63,
  0x11,
  0xa5,
  0xdc,
  0x69,
  0xe0,
  0x3c,
  0xfe,
  0xf7,
  0x18,
  0xf0,
  0x22,
  0x4e,
  0xbe,
  0x0f,
  0xe0,
  0x14,
  0xed,
  0x3c,
  0x87,
  0xba,
  0xc0,
  0x78,
  0x59,
  0x82,
  0xcf,
  0x0b,
  0x98,
  0xbf,
  0xb1,
  0xe0,
  0xa4,
  0x28,
  0xc3,
  0x0f,
  0xdf,
  0x5b,
  0x2e,
  0xd2,
  0x1d,
  0x85,
  0x0e,
  0x87,
  0x66,
  0xb3,
  0x57,
  0x2c,
  0x25,
  0x6b,
  0x96,
  0x1e,
  0x66,
  0xcd,
  0x8f,
  0x5a,
  0x3b,
  0x65,
  0x11,
  0xe0,
  0xbe,
  0x52,
  0xaf,
  0x0f,
  0xbb,
  0x97,
  0x92,
  0xe1,
  0x3f,
  0x87,
  0x0c,
  0xd2,
  0x37,
  0x81,
  0x3b,
  0xd2,
  0xbd,
  0x14,
  0xaa,
  0xd2,
  0x85,
  0x6b,
  0x2b,
  0x5a,
  0xd3,
  0x79,
  0x9e,
  0x78,
  0x8c,
  0x75,
  0x39,
  0xc3,
  0x71,
  0xe0,
  0xa4,
  0x96,
  0x92,
  0xd8,
  0x8c,
  0xb4,
  0x17,
  0x18,
  0xbc,
  0x0f,
  0x2d,
  0x4a,
  0x9a,
  0xa5,
  0x46,
  0xf7,
  0x28,
  0xc3,
  0x13,
  0x00,
  0x95,
  0xa1,
  0x1f,
  0x07,
  0x8e,
  0x79,
  0xa8,
  0x65,
  0x84,
  0x78,
  0xed,
  0xe9,
  0x37,
  0xe1,
  0x72,
  0xf2,
  0x2a,
  0x1c,
  0x04,
  0x9f,
  0x74,
  0x96,
  0x2f,
  0xea,
  0xcc,
  0x3c,
  0x61,
  0x70,
  0x08,
  0xf0,
  0xf1,
  0xec,
  0xe2,
  0x1c,
  0xc1,
  0x9e,
  0x0c,
  0xd2,
  0x51,
  0x4b,
  0xa6,
  0x5a,
  0xb9,
  0x49,
  0xfc,
  0x4b,
  0x94,
  0x8f,
  0x76,
  0xa5,
  0xb2,
  0xc4,
  0x68,
  0xf0,
  0x75,
  0x95,
  0x20,
  0x78,
  0x4b,
  0x4c,
  0xa0,
  0x5a,
  0x8c,
  0x90,
  0x3f,
  0x0f,
  0xa0,
  0xdf,
  0xc1,
  0xb4,
  0x98,
  0xb1,
  0xd5,
  0x29,
  0xcf,
  0xb7,
  0xd7,
  0xa1,
  0x70,
  0x51,
  0x6f,
  0x1c,
  0xf2,
  0xdb,
  0xfc,
  0x2d,
  0xfa,
  0xba,
  0xfd,
  0x0f,
  0xed,
  0x4c,
  0xef,
  0x1a,
  0x7d,
  0x88,
  0x33,
  0xc3,
  0x7b,
  0x51,
  0x68,
  0xd2,
  0x7c,
  0x31,
  0x6d,
  0xa5,
  0x02,
  0xbe,
  0x1a,
  0x69,
  0x42,
  0x7d,
  0xe5,
  0x1e,
  0x17,
  0x01,
  0x02,
  0xf0,
  0x67,
  0xd4,
  0xeb,
  0x4b,
  0x2f,
  0xb5,
  0x05,
  0xb4,
  0xa2,
  0xb8,
  0x1e,
  0x5a,
  0x8b,
  0x01,
  0x5c,
  0xa5,
  0x22,
  0xad,
  0x31,
  0xc3,
  0x46,
  0x9b,
  0x06,
  0x87,
  0xe2,
  0x34,
  0xbe,
  0x5e,
  0x84,
  0xbd,
  0x84,
  0xf3,
  0x66,
  0xb9,
  0x40,
  0x9f,
  0xff,
  0x73,
  0xca,
  0x07,
  0x16,
  0x4b,
  0xd0,
  0xb4,
  0x4a,
  0x6d,
  0x11,
  0xe1,
  0x5e,
  0xc3,
  0x65,
  0x96,
  0xdc,
  0x28,
  0x15,
  0xe1,
  0x4b,
  0xaa,
  0x59,
  0xc3,
  0x34,
  0xdd,
  0x3e,
  0xd2,
  0x91,
  0xc2,
  0x0b,
  0xc2,
  0x10,
  0x7a,
  0xd6,
  0x2d,
  0x2a,
  0x5c,
  0xa7,
  0x09,
  0x70,
  0x37,
  0x9a,
  0x87,
  0x00,
  0x10,
  0x80,
  0xf0,
  0x0f,
  0x8e,
  0xce,
  0xb4,
  0xf5,
  0xf0,
  0x72,
  0x87,
  0x6e,
  0xd3,
  0xaf,
  0xd0,
  0xf0,
  0xe5,
  0x3a,
  0xd2,
  0xf2,
  0xfd,
  0xdc,
  0xb4,
  0x04,
  0x3e,
  0xcc,
  0x29,
  0x3c,
  0xa3,
  0x25,
  0xe5,
  0x67,
  0xf5,
  0x9e,
  0x78,
  0x2c,
  0x72,
  0xcc,
  0xb0,
  0xd7,
  0x72,
  0x59,
  0xa5,
  0x76,
  0x88,
  0xc4,
  0x78,
  0x8b,
  0xe8,
  0xba,
  0xc1,
  0xb8,
  0xb6,
  0xd4,
  0x5a,
  0xa3,
  0x40,
  0xd9,
  0x2d,
  0xf2,
  0x55,
  0xca,
  0x0f,
  0xd5,
  0xad,
  0xf5,
  0xa5,
  0x34,
  0xa3,
  0xf2,
  0x4b,
  0x43,
  0xbd,
  0x71,
  0x87,
  0x53,
  0xbe,
  0xd7,
  0xa4,
  0x2c,
  0xca,
  0x18,
  0x6b,
  0xe8,
  0xb5,
  0x63,
  0xda,
  0x2c,
  0x67,
  0x1c,
  0xc3,
  0x52,
  0x48,
  0xfb,
  0x1e,
  0xba,
  0x81,
  0x30,
  0xf0,
  0x14,
  0x91,
  0xc2,
  0x69,
  0x3d,
  0x2b,
  0x3b,
  0xda,
  0x34,
  0x8e,
  0x67,
  0x96,
  0xc9,
  0x8a,
  0xb9,
  0x5a,
  0x52,
  0xa2,
  0x34,
  0xd2,
  0x68,
  0x98,
  0xc5,
  0x3d,
  0xc7,
  0x9b,
  0xc7,
  0xa5,
  0x4c,
  0x97,
  0x05,
  0xbc,
  0x60,
  0x0e,
  0x69,
  0xc3,
  0x2e,
  0x2e,
  0xba,
  0xd2,
  0x34,
  0xe6,
  0x26,
  0x96,
  0x05,
  0x35,
  0xae,
  0xd1,
  0xe2,
  0xf4,
  0xfe,
  0x1e,
  0x0b,
  0x2b,
  0xbd,
  0x69,
  0x95,
  0x65,
  0x51,
  0xa5,
  0x83,
  0x01,
  0x31,
  0xc3,
  0xa3,
  0x6a,
  0x67,
  0xd3,
  0x3b,
  0xce,
  0x10,
  0xe5,
  0xfe,
  0xb8,
  0xfe,
  0x5a,
  0x47,
  0xbf,
  0x1e,
  0x7c,
  0x46,
  0x9b,
  0xe9,
  0x78,
  0x3b,
  0xe9,
  0xfb,
  0x5a,
  0x01,
  0xbc,
  0xc0,
  0x69,
  0xc6,
  0x10,
  0xe3,
  0x78,
  0x2b,
  0x32,
  0x7f,
  0x85,
  0x8d,
  0x66,
  0xa0,
  0x78,
  0x6c,
  0x44,
  0x16,
  0x96,
  0x69,
  0x76,
  0x6f,
  0x90,
  0x72,
  0x4e,
  0x40,
  0xfa,
  0x35,
  0x16,
  0xa6,
  0x5e,
  0xc9,
  0x02,
  0xbb,
  0x0f,
  0xdd,
  0xe9,
  0x23,
  0x78,
  0x29,
  0x87,
  0x85,
  0xf0,
  0xf4,
  0x2b,
  0x75,
  0x87,
  0x16,
  0x35,
  0x63,
  0xd2,
  0x97,
  0xe8,
  0xe8,
  0x1c,
  0x78,
  0xe1,
  0x16,
  0x96,
  0x83,
  0x6b,
  0xd4,
  0xb0,
  0x9b,
  0x63,
  0xb4,
  0x4b,
  0x00,
  0x82,
  0x31,
  0xe9,
  0x39,
  0xe0,
  0xe1,
  0x5a,
  0x9c,
  0x74,
  0x52,
  0xa5,
  0xfb,
  0x94,
  0x67,
  0x96,
  0x9d,
  0xb1,
  0x0c,
  0xf0,
  0x86,
  0xdf,
  0x20,
  0xd0,
  0x08,
  0x67,
  0x44,
  0xb4,
  0xb9,
  0xeb,
  0xe9,
  0x1e,
  0x5b,
  0x3a,
  0xab,
  0xc3,
  0x3d,
  0x65,
  0x64,
  0xbd,
  0x5b,
  0x99,
  0xfb,
  0x1f,
  0x0e,
  0x33,
  0x00,
  0xf0,
  0xa8,
  0xcd,
  0x89,
  0x3c,
  0xfe,
  0xd1,
  0x73,
  0xa4,
  0x74,
  0xd0,
  0xd1,
  0xe1,
  0xae,
  0xb2,
  0xc6,
  0x1e,
  0x6a,
  0xde,
  0xff,
  0x87,
  0xdb,
  0x54,
  0x93,
  0x2d,
  0xa4,
  0x68,
  0x2f,
  0x69,
  0x24,
  0x58,
  0x06,
  0xd2,
  0xe9,
  0x44,
  0x2d,
  0x0f,
  0x87,
  0x61,
  0xbc,
  0x4b,
  0x7d,
  0x47,
  0x2f,
  0x4b,
  0x49,
  0x16,
  0x8f,
  0x78,
  0xc4,
  0x24,
  0x99,
  0x69,
  0x9e,
  0xd5,
  0xd4,
  0x0f,
  0xfa,
  0x74,
  0xe6,
  0x1e,
  0x52,
  0xb2,
  0x4f,
  0x38,
  0x96,
  0x74,
  0x9e,
  0x1e,
  0x2b,
  0x1c,
  0xed,
  0x1e,
  0xfd,
  0x40,
  0x10,
  0x87,
  0xa4,
  0x54,
  0x73,
  0xc3,
  0x79,
  0x8e,
  0x5d,
  0xe1,
  0xd4,
  0x27,
  0xa3,
  0xc3,
  0x55,
  0x5f,
  0x39,
  0xc3,
  0xae,
  0xf6,
  0x9b,
  0x4b,
  0xdb,
  0xca,
  0x1d,
  0x78,
  0x83,
  0x8d,
  0xa3,
  0x5a,
  0xe4,
  0xe3,
  0x7a,
  0x1e,
  0xd4,
  0x0d,
  0x80,
  0x69,
  0xdb,
  0xff,
  0x0b,
  0xf0,
  0x2d,
  0x68,
  0x38,
  0x4a,
  0x41,
  0xea,
  0x3a,
  0x4b,
  0x14,
  0xc1,
  0xa2,
  0xd2,
  0x89,
  0x59,
  0x15,
  0xe0,
  0x4a,
  0x05,
  0x99,
  0xe1,
  0x71,
  0xf0,
  0xe5,
  0xa5,
  0x0e,
  0x14,
  0x3d,
  0xc3,
  0xae,
  0x33,
  0xf2,
  0x87,
  0x74,
  0xf8,
  0xb4,
  0xc3,
  0x34,
  0xce,
  0x9a,
  0xe1,
  0x0b,
  0x4a,
  0xba,
  0xbc,
  0x3c,
  0xc2,
  0xd3,
  0xa4,
  0xef,
  0x60,
  0xf4,
  0x0f,
  0xcb,
  0xd3,
  0xe9,
  0x16,
  0xbf,
  0x73,
  0xb7,
  0x1e,
  0xce,
  0xf2,
  0xd8,
  0x78,
  0x61,
  0x49,
  0x88,
  0x7b,
  0xaf,
  0x93,
  0xf1,
  0x0f,
  0x3b,
  0xa7,
  0x91,
  0x4f,
  0x3b,
  0x64,
  0xc0,
  0x5a,
  0x35,
  0x78,
  0xfd,
  0x96,
  0x09,
  0x8f,
  0xf8,
  0x0f,
  0x30,
  0xe6,
  0xe7,
  0x0b,
  0xd0,
  0x3e,
  0x01,
  0xb4
};

