#define STIM_W_SIZE 2048
// weights [64 x 1 x 8 x 4]
L2_DATA uint8_t ne16_weights_streamin[] = {
  0x9d,
  0x48,
  0xa7,
  0xf0,
  0x0c,
  0x98,
  0x5c,
  0x3e,
  0xf0,
  0x91,
  0x1d,
  0x69,
  0x67,
  0x19,
  0xd3,
  0xa5,
  0xe6,
  0xba,
  0x73,
  0x87,
  0xee,
  0xaa,
  0x70,
  0x1e,
  0x8b,
  0xa8,
  0xe2,
  0x5a,
  0x6d,
  0x08,
  0x25,
  0xf0,
  0xc4,
  0xed,
  0x07,
  0x3c,
  0x46,
  0xeb,
  0xd8,
  0xe1,
  0x34,
  0x85,
  0x86,
  0xf0,
  0x5e,
  0x8e,
  0x3d,
  0xe1,
  0x59,
  0x91,
  0x3f,
  0x0f,
  0x45,
  0x13,
  0x4e,
  0x7a,
  0x9f,
  0xd4,
  0x64,
  0x29,
  0x5f,
  0xb2,
  0x81,
  0x2d,
  0x33,
  0xf3,
  0x95,
  0x5a,
  0xc6,
  0xad,
  0xbe,
  0xc1,
  0xd0,
  0x72,
  0x64,
  0xb9,
  0xa2,
  0x17,
  0x69,
  0x96,
  0x24,
  0xb2,
  0xf9,
  0x07,
  0x41,
  0x79,
  0x71,
  0x96,
  0x2b,
  0x79,
  0x37,
  0x87,
  0x06,
  0xaa,
  0x4e,
  0xb4,
  0x08,
  0xcf,
  0xb2,
  0x78,
  0xc1,
  0x9e,
  0xd6,
  0x2d,
  0xd5,
  0x17,
  0x92,
  0xc3,
  0xba,
  0xcd,
  0xc3,
  0x79,
  0x6b,
  0x48,
  0xa0,
  0x5b,
  0x15,
  0x0b,
  0x64,
  0xbc,
  0xbf,
  0x73,
  0xda,
  0x43,
  0x47,
  0x2b,
  0x7c,
  0x1a,
  0xd0,
  0x1f,
  0x93,
  0x4b,
  0x45,
  0xd0,
  0xe6,
  0x96,
  0x6d,
  0x1d,
  0x7d,
  0xe0,
  0x3e,
  0x17,
  0xb9,
  0x4b,
  0x5a,
  0x58,
  0x80,
  0x69,
  0x15,
  0x12,
  0x34,
  0xda,
  0x63,
  0x48,
  0x80,
  0x5a,
  0xd9,
  0x4f,
  0x48,
  0xa5,
  0x25,
  0x43,
  0x91,
  0x69,
  0x72,
  0x1c,
  0x5d,
  0xe1,
  0x64,
  0xb3,
  0x0b,
  0x4b,
  0xdf,
  0x01,
  0x54,
  0xb4,
  0x26,
  0x56,
  0x9d,
  0x69,
  0xfe,
  0x6a,
  0xe4,
  0x1c,
  0x1a,
  0xab,
  0x09,
  0x69,
  0xfa,
  0x0e,
  0x47,
  0x96,
  0x4d,
  0xbc,
  0xe4,
  0x1e,
  0x85,
  0x80,
  0x13,
  0x87,
  0x97,
  0x85,
  0x07,
  0xe1,
  0xe6,
  0xaf,
  0x51,
  0x69,
  0x40,
  0xa2,
  0xa0,
  0x5e,
  0xae,
  0x7e,
  0x6e,
  0x1e,
  0x36,
  0xe8,
  0xe5,
  0xb0,
  0x9e,
  0x5a,
  0x1c,
  0x2d,
  0xf7,
  0x28,
  0xb2,
  0x4b,
  0xdc,
  0x89,
  0xe1,
  0xd2,
  0x36,
  0x57,
  0x51,
  0xa5,
  0x91,
  0x2c,
  0xaa,
  0x52,
  0x38,
  0x2e,
  0x80,
  0x7a,
  0xc6,
  0x16,
  0x85,
  0xb4,
  0x79,
  0xb6,
  0x42,
  0x9e,
  0xf9,
  0x9a,
  0x72,
  0x0f,
  0xd7,
  0xf9,
  0xb4,
  0x3c,
  0x79,
  0x3f,
  0x74,
  0xd2,
  0x38,
  0x0d,
  0x6f,
  0x5a,
  0x9b,
  0x67,
  0xf6,
  0x5a,
  0xac,
  0x29,
  0x74,
  0x87,
  0x06,
  0x82,
  0xf0,
  0x5a,
  0xe9,
  0x01,
  0x24,
  0xf0,
  0xc4,
  0xbc,
  0x3f,
  0x85,
  0xf0,
  0x8e,
  0x2d,
  0x70,
  0x83,
  0x83,
  0xfb,
  0xc3,
  0x7a,
  0xde,
  0xcf,
  0x3c,
  0x4b,
  0x71,
  0x99,
  0x69,
  0xfb,
  0xed,
  0xd2,
  0xe1,
  0xaa,
  0x35,
  0x5b,
  0xa5,
  0x81,
  0xf5,
  0x29,
  0x5a,
  0x17,
  0x19,
  0xeb,
  0x1e,
  0x12,
  0x78,
  0xd0,
  0x69,
  0xb4,
  0xd4,
  0x0c,
  0x96,
  0x7f,
  0x14,
  0xa6,
  0x4f,
  0xc7,
  0x09,
  0x33,
  0xe0,
  0xf8,
  0x38,
  0x72,
  0x96,
  0xb4,
  0x58,
  0x20,
  0xd2,
  0x9c,
  0x8a,
  0x46,
  0x1e,
  0xc5,
  0x6f,
  0x62,
  0x1c,
  0xad,
  0x6c,
  0x99,
  0x69,
  0x79,
  0x08,
  0x99,
  0x4b,
  0x49,
  0x27,
  0xf0,
  0x1e,
  0xf6,
  0x31,
  0xec,
  0x78,
  0xad,
  0x13,
  0x24,
  0xd2,
  0x22,
  0xec,
  0xe3,
  0x96,
  0x10,
  0xb5,
  0x72,
  0x9e,
  0x9c,
  0xfb,
  0xb4,
  0x69,
  0xc1,
  0x83,
  0x5a,
  0x69,
  0x9a,
  0x93,
  0xcd,
  0x0f,
  0x1d,
  0x85,
  0xcb,
  0x4b,
  0x8d,
  0x3d,
  0x9c,
  0x6d,
  0x20,
  0x04,
  0x6e,
  0xd2,
  0xc6,
  0x46,
  0x0a,
  0xb4,
  0x08,
  0xdb,
  0xf0,
  0xc3,
  0xd3,
  0x3c,
  0x38,
  0x1e,
  0x05,
  0x2c,
  0x86,
  0x5a,
  0x2a,
  0xf8,
  0xab,
  0x5a,
  0xce,
  0xd3,
  0x10,
  0xf8,
  0x5b,
  0x82,
  0x68,
  0xf0,
  0x2c,
  0x33,
  0x6f,
  0x96,
  0x57,
  0x90,
  0x42,
  0xf0,
  0x0a,
  0xf2,
  0xdc,
  0x78,
  0xc7,
  0x1a,
  0xd0,
  0xb4,
  0x02,
  0x2d,
  0x8f,
  0xb4,
  0xd3,
  0x10,
  0x22,
  0xe1,
  0x68,
  0x71,
  0x56,
  0x9a,
  0xeb,
  0x93,
  0x5f,
  0x2d,
  0x2b,
  0xe3,
  0xc5,
  0xb6,
  0x96,
  0xa2,
  0x9c,
  0xa5,
  0x5e,
  0x4c,
  0xf7,
  0x0f,
  0x98,
  0xac,
  0x89,
  0x6b,
  0x80,
  0x65,
  0x12,
  0xe1,
  0x53,
  0x4b,
  0x2d,
  0x96,
  0x78,
  0x26,
  0xc8,
  0x5b,
  0xd0,
  0x62,
  0x76,
  0x87,
  0x33,
  0xdd,
  0xdf,
  0x26,
  0x23,
  0x8d,
  0x69,
  0x78,
  0xa1,
  0xa0,
  0xbe,
  0x4b,
  0x74,
  0x84,
  0xea,
  0x5a,
  0xe5,
  0x72,
  0xbe,
  0x5a,
  0xbe,
  0xad,
  0xd8,
  0x2f,
  0x38,
  0xed,
  0xcc,
  0x3c,
  0x11,
  0x33,
  0xdf,
  0xc3,
  0x7d,
  0x24,
  0xf7,
  0x4b,
  0x4e,
  0x77,
  0x2f,
  0x49,
  0x35,
  0x33,
  0x25,
  0xf0,
  0x6a,
  0x20,
  0xb3,
  0x4b,
  0xa0,
  0x35,
  0x6b,
  0xc3,
  0xde,
  0x65,
  0x6f,
  0x8e,
  0x6e,
  0xb7,
  0x22,
  0xb4,
  0x18,
  0x38,
  0xd9,
  0x3c,
  0x1c,
  0x53,
  0xf0,
  0x87,
  0x23,
  0x95,
  0xfe,
  0x83,
  0xd7,
  0x9f,
  0xd9,
  0xa5,
  0x3e,
  0x09,
  0xe5,
  0x1e,
  0x1b,
  0x4c,
  0xb4,
  0x61,
  0x61,
  0xe7,
  0x3d,
  0xc3,
  0x7f,
  0xf1,
  0xb1,
  0x3c,
  0xfb,
  0x72,
  0x1f,
  0x69,
  0x47,
  0x96,
  0x2b,
  0x97,
  0x33,
  0x51,
  0xa6,
  0xc3,
  0x56,
  0x81,
  0x26,
  0xd2,
  0xf6,
  0x5f,
  0xa5,
  0x5a,
  0xf0,
  0xee,
  0xc3,
  0x2d,
  0xaa,
  0xf1,
  0xf5,
  0x87,
  0xaf,
  0x0d,
  0xac,
  0x1e,
  0x4c,
  0xd6,
  0x87,
  0x78,
  0x6c,
  0xaa,
  0x5e,
  0x0b,
  0xa0,
  0xce,
  0x46,
  0xb4,
  0x12,
  0x7c,
  0x27,
  0xd2,
  0xf4,
  0x3d,
  0xd1,
  0x2e,
  0x22,
  0x8e,
  0x08,
  0x79,
  0x21,
  0x0a,
  0x6d,
  0x1a,
  0x0a,
  0xf3,
  0x3d,
  0xd2,
  0xff,
  0xca,
  0x3a,
  0x87,
  0xc1,
  0x24,
  0x88,
  0xf1,
  0xfb,
  0xed,
  0xe1,
  0x1e,
  0x39,
  0x58,
  0x57,
  0x96,
  0x96,
  0x4c,
  0xef,
  0x0b,
  0xfa,
  0x46,
  0x98,
  0x7a,
  0x6c,
  0xf3,
  0x7a,
  0x1e,
  0xa7,
  0xcc,
  0x85,
  0xf0,
  0x97,
  0x46,
  0xec,
  0x2d,
  0x22,
  0xd5,
  0x43,
  0x96,
  0xd4,
  0xbd,
  0x6f,
  0x0f,
  0xdc,
  0x19,
  0x93,
  0xf2,
  0xbd,
  0x0e,
  0x9a,
  0x4b,
  0x41,
  0x85,
  0x2b,
  0xd0,
  0xae,
  0x7a,
  0x6d,
  0xa5,
  0xaf,
  0x76,
  0x64,
  0x0f,
  0xa1,
  0x9b,
  0x85,
  0x2f,
  0x80,
  0x4d,
  0x50,
  0xbc,
  0x4d,
  0x91,
  0x50,
  0xeb,
  0x62,
  0xdb,
  0x66,
  0x1e,
  0xca,
  0x08,
  0xfb,
  0x0f,
  0x1d,
  0xc3,
  0xd5,
  0x69,
  0x43,
  0xe0,
  0x2b,
  0xd2,
  0x12,
  0xef,
  0xec,
  0x2d,
  0x66,
  0xb1,
  0x93,
  0x78,
  0xf2,
  0x48,
  0x2c,
  0x78,
  0x3c,
  0x7a,
  0xeb,
  0x58,
  0x21,
  0xec,
  0x2d,
  0x78,
  0x8e,
  0xec,
  0x61,
  0xe1,
  0x40,
  0xb7,
  0xe9,
  0x78,
  0x97,
  0x1a,
  0x7a,
  0xe9,
  0x47,
  0xf1,
  0x5d,
  0xa5,
  0xa1,
  0x89,
  0x99,
  0x6b,
  0xac,
  0x9e,
  0xe4,
  0xb1,
  0xcb,
  0xeb,
  0x8a,
  0x96,
  0x62,
  0x7d,
  0x9e,
  0x96,
  0xb2,
  0x82,
  0xff,
  0xc3,
  0xef,
  0xa8,
  0x2f,
  0x69,
  0x22,
  0xe0,
  0xc0,
  0xb7,
  0xd4,
  0xf7,
  0x94,
  0xd2,
  0xdb,
  0xf1,
  0x6b,
  0xd2,
  0x09,
  0x9a,
  0x7b,
  0x1e,
  0x68,
  0x90,
  0x65,
  0x96,
  0xc2,
  0x2f,
  0x70,
  0xb4,
  0xcb,
  0xcc,
  0x67,
  0x97,
  0xce,
  0x04,
  0xa7,
  0xf0,
  0xf2,
  0xb4,
  0xd9,
  0x5a,
  0x67,
  0x8a,
  0xdf,
  0x78,
  0xff,
  0x62,
  0xf6,
  0x1a,
  0x15,
  0x0f,
  0xd7,
  0x2d,
  0x8f,
  0x94,
  0x95,
  0x68,
  0x50,
  0x71,
  0x7d,
  0x2d,
  0x94,
  0x83,
  0xe4,
  0x3c,
  0xb2,
  0x7c,
  0x1a,
  0xc3,
  0xe4,
  0xc9,
  0x09,
  0xf0,
  0xb4,
  0x42,
  0x9c,
  0xe1,
  0x39,
  0x53,
  0xd2,
  0x61,
  0x3b,
  0x71,
  0x81,
  0x6d,
  0x73,
  0x7a,
  0x25,
  0xbc,
  0x90,
  0xc4,
  0x20,
  0xe1,
  0xba,
  0xbc,
  0x41,
  0xf0,
  0x44,
  0x76,
  0x4a,
  0xb4,
  0xa1,
  0xa3,
  0x29,
  0xd2,
  0x6c,
  0x13,
  0x00,
  0xda,
  0x38,
  0x07,
  0x36,
  0xd6,
  0x9e,
  0x1c,
  0x55,
  0x2d,
  0xd5,
  0x02,
  0xfd,
  0x5a,
  0xe0,
  0x33,
  0x29,
  0xd2,
  0x1e,
  0x8d,
  0x6b,
  0x69,
  0x85,
  0xb9,
  0x9b,
  0x3c,
  0xe7,
  0x10,
  0x37,
  0x87,
  0xf8,
  0x7c,
  0x94,
  0xf1,
  0x75,
  0x48,
  0x7c,
  0xd2,
  0x62,
  0xd1,
  0x5b,
  0xe1,
  0x94,
  0xec,
  0x06,
  0x96,
  0x8c,
  0x2c,
  0x5f,
  0x78,
  0x40,
  0x31,
  0x59,
  0xc3,
  0x97,
  0x1e,
  0x30,
  0xc3,
  0x5b,
  0x11,
  0x39,
  0xf0,
  0x8d,
  0xa4,
  0xf5,
  0xe1,
  0x27,
  0x9b,
  0x4d,
  0xa5,
  0x38,
  0x72,
  0xba,
  0x5a,
  0xb2,
  0x9d,
  0x39,
  0x4f,
  0xce,
  0x4d,
  0xd0,
  0xe3,
  0xfa,
  0x1c,
  0xf2,
  0x0f,
  0x30,
  0xe3,
  0xb3,
  0x5a,
  0x50,
  0x02,
  0x30,
  0xc3,
  0x83,
  0x7e,
  0x6b,
  0x5a,
  0x01,
  0xa7,
  0x25,
  0x96,
  0x07,
  0x5c,
  0x04,
  0x96,
  0x85,
  0x27,
  0x2e,
  0xd2,
  0xe0,
  0xc3,
  0xd7,
  0xa4,
  0xac,
  0x6c,
  0xda,
  0x2d,
  0x4c,
  0xc1,
  0xbc,
  0x69,
  0xe5,
  0x19,
  0xf9,
  0xd2,
  0x95,
  0xd3,
  0x54,
  0x0e,
  0x41,
  0x19,
  0xbb,
  0x49,
  0xb7,
  0xc6,
  0x11,
  0xe1,
  0x5d,
  0xb9,
  0x0a,
  0x5a,
  0x6b,
  0x69,
  0x92,
  0xc7,
  0x89,
  0xde,
  0x41,
  0x3c,
  0x3a,
  0xc3,
  0xee,
  0x1e,
  0xce,
  0xdc,
  0xdb,
  0x3c,
  0x26,
  0x87,
  0x1f,
  0xe1,
  0xd9,
  0xf0,
  0x82,
  0x78,
  0x75,
  0x65,
  0x47,
  0xb0,
  0x40,
  0x47,
  0x98,
  0x69,
  0xfe,
  0xbb,
  0x2e,
  0xd2,
  0xcb,
  0xc6,
  0x7c,
  0x96,
  0x47,
  0xaf,
  0x66,
  0xb4,
  0x31,
  0x8c,
  0x2d,
  0x78,
  0x90,
  0x02,
  0xd0,
  0xb2,
  0x58,
  0x45,
  0xd3,
  0xf9,
  0xf4,
  0xcd,
  0x82,
  0xd2,
  0x08,
  0x8f,
  0x63,
  0xd2,
  0x89,
  0x9a,
  0xdb,
  0x2d,
  0x10,
  0xf5,
  0x9c,
  0x2d,
  0x48,
  0xb1,
  0x16,
  0xe1,
  0x0b,
  0x8a,
  0x32,
  0xf0,
  0xf4,
  0x8e,
  0x71,
  0x87,
  0x0e,
  0x22,
  0xce,
  0x38,
  0xa7,
  0x50,
  0xc5,
  0x2f,
  0xbd,
  0xa3,
  0x99,
  0xc3,
  0x2d,
  0xeb,
  0x83,
  0x0f,
  0x9f,
  0x15,
  0x5b,
  0x2d,
  0xcf,
  0xdf,
  0xd0,
  0x2f,
  0x3d,
  0xa2,
  0x8d,
  0x78,
  0xc9,
  0x58,
  0xa5,
  0xf0,
  0x01,
  0x14,
  0xc6,
  0x69,
  0x8f,
  0x3e,
  0x15,
  0xe1,
  0x6d,
  0xe7,
  0x59,
  0xa5,
  0x99,
  0x44,
  0x01,
  0x7a,
  0x34,
  0x06,
  0x59,
  0xa5,
  0xca,
  0x9b,
  0xa2,
  0x78,
  0x2c,
  0x05,
  0xe7,
  0x96,
  0xb1,
  0xb1,
  0x24,
  0x1e,
  0xd4,
  0x64,
  0x1d,
  0x34,
  0xe4,
  0x74,
  0xb9,
  0x6c,
  0xf0,
  0x46,
  0x21,
  0xd2,
  0xb5,
  0x9c,
  0xcf,
  0x38,
  0xab,
  0x7d,
  0x48,
  0x3c,
  0xf8,
  0x81,
  0xe0,
  0x69,
  0x16,
  0xd3,
  0xfa,
  0x4b,
  0x3c,
  0xd4,
  0x77,
  0x0f,
  0xf3,
  0x65,
  0x04,
  0xbc,
  0x16,
  0x73,
  0x1f,
  0x2c,
  0xde,
  0xd6,
  0x13,
  0xe1,
  0x89,
  0x44,
  0x82,
  0xd3,
  0x0e,
  0x52,
  0x8f,
  0x5a,
  0x8d,
  0x5d,
  0xa7,
  0x5a,
  0xef,
  0x81,
  0xea,
  0x96,
  0xa3,
  0x55,
  0x15,
  0x69,
  0xf4,
  0xd2,
  0xef,
  0x5a,
  0xb1,
  0xce,
  0xb0,
  0x0f,
  0xe4,
  0x04,
  0x74,
  0x87,
  0x5f,
  0xcd,
  0xb6,
  0x5a,
  0x8f,
  0xe4,
  0x6d,
  0xd3,
  0xf3,
  0x7a,
  0x0e,
  0xa5,
  0x95,
  0x1a,
  0xff,
  0x0f,
  0x24,
  0xe8,
  0x51,
  0xa5,
  0xd7,
  0xb7,
  0x6c,
  0x1e,
  0x4a,
  0x97,
  0xb0,
  0x69,
  0xbb,
  0x12,
  0x5f,
  0xa5,
  0x10,
  0x00,
  0xd7,
  0xa5,
  0xf8,
  0x0b,
  0x6f,
  0x0f,
  0xb1,
  0x1c,
  0xdb,
  0x3c,
  0x48,
  0x07,
  0x8f,
  0x3e,
  0x71,
  0x73,
  0xb3,
  0x4b,
  0x1c,
  0x31,
  0x3a,
  0x87,
  0x5a,
  0x22,
  0x7b,
  0x4b,
  0x0f,
  0x33,
  0xda,
  0x0f,
  0xed,
  0x40,
  0x18,
  0xad,
  0x9a,
  0x6e,
  0xb7,
  0x0f,
  0x3f,
  0xa4,
  0x8b,
  0x25,
  0x5b,
  0x3f,
  0xde,
  0xa4,
  0xec,
  0x90,
  0x4a,
  0x1e,
  0xec,
  0xdf,
  0x80,
  0x78,
  0x67,
  0xee,
  0xd4,
  0x69,
  0x5d,
  0x00,
  0xf8,
  0x69,
  0x74,
  0x8d,
  0xbb,
  0x5a,
  0xf3,
  0x2d,
  0x99,
  0xa5,
  0xfb,
  0x1a,
  0xec,
  0x4b,
  0x46,
  0x02,
  0x3e,
  0x4b,
  0x48,
  0x8b,
  0x19,
  0xb4,
  0x64,
  0x93,
  0x1f,
  0x87,
  0x8e,
  0xa3,
  0x4c,
  0x3c,
  0x16,
  0x71,
  0x07,
  0xad,
  0x1a,
  0x35,
  0xc3,
  0x3c,
  0xb0,
  0x31,
  0x2e,
  0x94,
  0xf8,
  0x2e,
  0xfe,
  0x1c,
  0xcc,
  0x9c,
  0xe2,
  0x96,
  0x7a,
  0xf5,
  0x20,
  0xc3,
  0x7f,
  0xcf,
  0x15,
  0xa5,
  0x09,
  0x36,
  0x82,
  0xf0,
  0x84,
  0xa2,
  0x2e,
  0xd0,
  0xd5,
  0x25,
  0x70,
  0xd2,
  0xea,
  0x9f,
  0xb7,
  0x1e,
  0x64,
  0x79,
  0x21,
  0x69,
  0xb1,
  0xb4,
  0xb6,
  0x1e,
  0x7f,
  0x06,
  0x0c,
  0xd2,
  0x80,
  0x14,
  0x09,
  0xf0,
  0x88,
  0x5e,
  0xad,
  0x5a,
  0x31,
  0xd4,
  0x6b,
  0xda,
  0x61,
  0xb9,
  0xe0,
  0x52,
  0x1d,
  0x4f,
  0x5c,
  0xb4,
  0x14,
  0x81,
  0xed,
  0x5a,
  0x89,
  0x75,
  0x22,
  0xe1,
  0xf7,
  0x9d,
  0x9d,
  0x61,
  0xde,
  0x3b,
  0xd4,
  0x43,
  0x5b,
  0x5b,
  0xd6,
  0x3c,
  0x2b,
  0x5a,
  0xd8,
  0x25,
  0x46,
  0xee,
  0x56,
  0x87,
  0x32,
  0x9c,
  0x78,
  0x0f,
  0x4a,
  0x3c,
  0xab,
  0x5a,
  0x04,
  0xa4,
  0x73,
  0xb4,
  0xd6,
  0x60,
  0x9e,
  0x3c,
  0x46,
  0xf7,
  0xbf,
  0x16,
  0x91,
  0x43,
  0x6d,
  0x1e,
  0x31,
  0xc3,
  0x87,
  0xf0,
  0x57,
  0xd2,
  0x82,
  0xf0,
  0x67,
  0x15,
  0x4e,
  0xf0,
  0x6e,
  0x26,
  0x68,
  0x0f,
  0x9f,
  0xfe,
  0x08,
  0xf0,
  0xff,
  0x0e,
  0x54,
  0xa5,
  0xb4,
  0x80,
  0x8e,
  0x0f,
  0x88,
  0x31,
  0x06,
  0xd2,
  0x05,
  0x5f,
  0xe6,
  0x4b,
  0xcf,
  0x1d,
  0xe7,
  0x0f,
  0x87,
  0x20,
  0x54,
  0xa7,
  0x05,
  0x2e,
  0x2f,
  0x5a,
  0x70,
  0x9c,
  0x5f,
  0xb4,
  0x17,
  0xa6,
  0x7a,
  0x87,
  0x71,
  0xee,
  0x62,
  0x1d,
  0xc1,
  0x90,
  0xb4,
  0x78,
  0x9e,
  0x57,
  0x42,
  0xf0,
  0x30,
  0xca,
  0x0b,
  0x5a,
  0x3c,
  0xc5,
  0x3c,
  0x2d,
  0x72,
  0xd2,
  0x66,
  0xb4,
  0x27,
  0x6a,
  0x43,
  0xd2,
  0xcb,
  0x89,
  0xf0,
  0x87,
  0x55,
  0x66,
  0x02,
  0xd2,
  0xc9,
  0x59,
  0xf6,
  0x0f,
  0xed,
  0xd8,
  0xed,
  0x78,
  0x46,
  0x75,
  0x50,
  0x3e,
  0x85,
  0x54,
  0xba,
  0xe1,
  0xbf,
  0xb2,
  0xfb,
  0x0d,
  0xa0,
  0x4c,
  0xe1,
  0x69,
  0x93,
  0xdf,
  0x21,
  0x69,
  0xfc,
  0xac,
  0x7c,
  0xb4,
  0x4c,
  0x23,
  0x08,
  0x78,
  0x6d,
  0xd7,
  0x57,
  0xa4,
  0x34,
  0x87,
  0x07,
  0xb4,
  0x02,
  0x7d,
  0xda,
  0x2d,
  0x33,
  0x75,
  0x19,
  0xf0,
  0x4e,
  0xfc,
  0xb6,
  0x1e,
  0x18,
  0xc7,
  0xd5,
  0xf2,
  0xe0,
  0xdc,
  0x2a,
  0x78,
  0xa6,
  0x24,
  0xd7,
  0x1c,
  0x77,
  0x1b,
  0x31,
  0xe1,
  0xdf,
  0xa6,
  0x98,
  0xf0,
  0x04,
  0x69,
  0xa1,
  0xd6,
  0xde,
  0xe8,
  0x9e,
  0x4a,
  0x14,
  0x25,
  0x76,
  0x8f,
  0x04,
  0x32,
  0xb8,
  0x4b,
  0x93,
  0x37,
  0x96,
  0x5a,
  0xd0,
  0x07,
  0xbd,
  0xf0,
  0x75,
  0x20,
  0x75,
  0xa5,
  0x8f,
  0x6d,
  0xc4,
  0xb4,
  0x63,
  0xf7,
  0xfe,
  0x1e,
  0xfb,
  0x42,
  0x8a,
  0x34,
  0xba,
  0xaa,
  0xb8,
  0x4b,
  0x0d,
  0xaa,
  0xea,
  0x5a,
  0xf0,
  0x0a,
  0xd7,
  0xa5,
  0xff,
  0x2b,
  0xea,
  0x5b,
  0x4b,
  0x64,
  0x5f,
  0xa1,
  0x70,
  0x89,
  0xf4,
  0x3c,
  0x1d,
  0x04,
  0x6a,
  0x96,
  0xe7,
  0x0f,
  0x1c,
  0xe1,
  0x05,
  0x9e,
  0x49,
  0x1e,
  0xdd,
  0x3f,
  0x50,
  0x87,
  0xde,
  0x5d,
  0x9a,
  0x78,
  0x6e,
  0x4d,
  0xbd,
  0x25,
  0xcd,
  0x57,
  0x0a,
  0xe1,
  0x7c,
  0x79,
  0x08,
  0xf0,
  0x7d,
  0xaf,
  0xfb,
  0xda,
  0xfd,
  0xc0,
  0x21,
  0x1e,
  0x0e,
  0x24,
  0x67,
  0xb4,
  0x34,
  0x28,
  0xed,
  0x0d,
  0xcf,
  0xd3,
  0x4b,
  0xa7,
  0x8c,
  0xa0,
  0xfe,
  0x07,
  0x7b,
  0x99,
  0xb3,
  0xd0,
  0x77,
  0x0c,
  0x60,
  0x96,
  0x7f,
  0xf5,
  0x3f,
  0xc1,
  0xe2,
  0xad,
  0x0a,
  0x78,
  0xeb,
  0xf3,
  0x42,
  0xc3,
  0x9d,
  0xb0,
  0xd5,
  0xa5,
  0x66,
  0xfe,
  0x1c,
  0xa7,
  0x8c,
  0x08,
  0x0b,
  0x69,
  0x89,
  0x9b,
  0xbd,
  0x69,
  0xb1,
  0x92,
  0x84,
  0x78,
  0xcb,
  0xb7,
  0xfb,
  0x4b,
  0x65,
  0xa5,
  0x77,
  0xa5,
  0xd5,
  0xe5,
  0x3f,
  0x4b,
  0x40,
  0x97,
  0xee,
  0x2d,
  0x30,
  0xf3,
  0xe7,
  0x14,
  0x70,
  0x20,
  0x28,
  0xf0,
  0x13,
  0x64,
  0xb0,
  0x78,
  0x1d,
  0x75,
  0xba,
  0xe1,
  0x57,
  0x5a,
  0xbb,
  0x4a,
  0x14,
  0x37,
  0x0a,
  0xf0,
  0x53,
  0xce,
  0xee,
  0x1d,
  0x75,
  0x3e,
  0x57,
  0x87,
  0xb7,
  0x28,
  0x27,
  0xbc,
  0x15,
  0x0a,
  0x6b,
  0x96,
  0xe9,
  0x15,
  0xc4,
  0x3c,
  0xae,
  0x54,
  0x25,
  0xf0,
  0xc1,
  0x4f,
  0x9d,
  0xa5,
  0xda,
  0xee,
  0xab,
  0xf0,
  0x6e,
  0x83,
  0x13,
  0xe1,
  0xcd,
  0x3e,
  0x77,
  0x58,
  0x36,
  0x4d,
  0xbf,
  0x1e,
  0xdd,
  0xcb,
  0x77,
  0x94,
  0x30,
  0x35,
  0xc9,
  0xb6,
  0xcf,
  0x0c,
  0xcc,
  0x3c,
  0x20,
  0x04,
  0xcf,
  0x34,
  0x34,
  0x26,
  0x1a,
  0xf0,
  0x5a,
  0x6c,
  0x9f,
  0x4b,
  0xe1,
  0x53,
  0xaa,
  0x5a,
  0x55,
  0xaa,
  0xdb,
  0x3c,
  0xc8,
  0x0b,
  0xf6,
  0xd2,
  0x09,
  0xb4,
  0xb0,
  0x43,
  0x89,
  0x9c,
  0xe0,
  0x78,
  0x75,
  0x4b,
  0x9d,
  0x96,
  0xd7,
  0x42,
  0x1c,
  0xe1,
  0xa4,
  0xbb,
  0xfb,
  0x4b,
  0xd7,
  0x93,
  0x3b,
  0x78,
  0xef,
  0x32,
  0x45,
  0x2d,
  0xed,
  0x19,
  0x41,
  0xf0,
  0x93,
  0x55,
  0x90,
  0x69,
  0x60,
  0x73,
  0x32,
  0xd2,
  0x5e,
  0xaa,
  0xe5,
  0x2d,
  0x06,
  0x16,
  0x25,
  0xe1,
  0x90,
  0x71,
  0x5b,
  0xa5,
  0xd4,
  0x85,
  0x3a,
  0x5a,
  0xb8,
  0x77,
  0xb8,
  0x69,
  0x2b,
  0xb9,
  0x52,
  0x1e,
  0x08,
  0x77,
  0xf0,
  0x1e,
  0xb8,
  0x44,
  0xe7,
  0x1e,
  0x03,
  0x07,
  0xd1,
  0x69
};

