#define STIM_W_SIZE 16384
// weights [32 x 2 x 8 x 3 x 3 x 4]
L2_DATA uint8_t ne16_weights_padding[] = {
  0xf7,
  0x34,
  0x7b,
  0x2e,
  0x8f,
  0x2b,
  0xaa,
  0x92,
  0xaf,
  0xb8,
  0xe5,
  0xba,
  0x5b,
  0x81,
  0x9c,
  0x61,
  0x49,
  0xce,
  0x29,
  0x32,
  0xc4,
  0x1a,
  0x14,
  0xb2,
  0x56,
  0xa1,
  0xc9,
  0x4b,
  0xc3,
  0xc1,
  0x9d,
  0x0f,
  0xf1,
  0x7e,
  0x01,
  0x47,
  0x7c,
  0x67,
  0x11,
  0x76,
  0x66,
  0x18,
  0xa3,
  0xde,
  0x33,
  0xf6,
  0xbb,
  0x2e,
  0xe7,
  0x94,
  0x0c,
  0xde,
  0x09,
  0xf6,
  0x7b,
  0x58,
  0x37,
  0x61,
  0x4a,
  0x9c,
  0x9a,
  0x46,
  0x55,
  0x0f,
  0x7c,
  0xdf,
  0x05,
  0x6b,
  0xef,
  0x88,
  0x94,
  0x9f,
  0xf7,
  0x70,
  0xda,
  0x16,
  0x51,
  0xf9,
  0x09,
  0xa5,
  0x80,
  0x1d,
  0x57,
  0x7e,
  0xb2,
  0x3a,
  0xd7,
  0x19,
  0xa2,
  0x7b,
  0x7c,
  0x3d,
  0x0d,
  0x88,
  0x0f,
  0x05,
  0xbc,
  0x39,
  0x49,
  0x18,
  0xfc,
  0xa2,
  0x5f,
  0xa3,
  0x28,
  0x10,
  0x5f,
  0x0e,
  0x5e,
  0xd7,
  0xcd,
  0x88,
  0x2c,
  0x43,
  0x18,
  0x0e,
  0x85,
  0x45,
  0xbb,
  0x13,
  0xcf,
  0xcd,
  0x53,
  0x29,
  0xbd,
  0xdc,
  0xff,
  0x0f,
  0xa3,
  0x3c,
  0x73,
  0x0c,
  0xdf,
  0x3f,
  0x04,
  0xd0,
  0xc1,
  0xfb,
  0x16,
  0x7b,
  0xa4,
  0x94,
  0xd3,
  0x9d,
  0x5b,
  0xc2,
  0x0e,
  0x8c,
  0x7b,
  0x11,
  0x7d,
  0xf3,
  0x83,
  0xf5,
  0x4d,
  0x2b,
  0x07,
  0xec,
  0x65,
  0x05,
  0xcd,
  0xee,
  0x18,
  0xab,
  0xef,
  0xe3,
  0x7f,
  0x29,
  0x59,
  0x3e,
  0x4a,
  0x2d,
  0xc5,
  0x3e,
  0xd1,
  0x6a,
  0xc7,
  0x6f,
  0x83,
  0xeb,
  0x47,
  0x7b,
  0x8f,
  0xf6,
  0xe1,
  0x22,
  0x00,
  0x20,
  0x0b,
  0x34,
  0x9c,
  0x0a,
  0xea,
  0xe8,
  0x50,
  0xab,
  0xcd,
  0xbf,
  0x15,
  0xd9,
  0xc9,
  0x31,
  0x66,
  0xee,
  0xe6,
  0x9e,
  0xd9,
  0xfb,
  0xb3,
  0xcf,
  0x92,
  0xe0,
  0xd7,
  0x8b,
  0xcd,
  0xb6,
  0xf5,
  0x0a,
  0x30,
  0xa8,
  0x27,
  0xe9,
  0x05,
  0x01,
  0x15,
  0x17,
  0xef,
  0x54,
  0x32,
  0x40,
  0xea,
  0x06,
  0x36,
  0xcc,
  0x99,
  0x90,
  0x19,
  0x61,
  0x26,
  0x04,
  0x58,
  0xb0,
  0x6c,
  0x1e,
  0x28,
  0x74,
  0x32,
  0x49,
  0x1e,
  0xd5,
  0xcf,
  0xd7,
  0xf8,
  0x16,
  0xf2,
  0x0e,
  0x2e,
  0x8f,
  0x2b,
  0x0a,
  0x92,
  0xaf,
  0xb8,
  0xe2,
  0xba,
  0x5b,
  0x31,
  0x9c,
  0x61,
  0x49,
  0xcd,
  0x29,
  0x32,
  0xc4,
  0x1a,
  0x14,
  0xb2,
  0x54,
  0xa1,
  0xc9,
  0xeb,
  0xc3,
  0xc1,
  0x9d,
  0x01,
  0x10,
  0x40,
  0x0e,
  0x47,
  0x7c,
  0x67,
  0xe1,
  0x76,
  0x66,
  0x18,
  0xa0,
  0xde,
  0x33,
  0xc6,
  0xbb,
  0x2e,
  0xe7,
  0x95,
  0x0c,
  0xde,
  0x89,
  0xf6,
  0x7b,
  0x58,
  0x39,
  0x61,
  0x4a,
  0x6c,
  0x9a,
  0x46,
  0x55,
  0xec,
  0x5d,
  0xa5,
  0x05,
  0x6d,
  0xef,
  0x88,
  0x44,
  0x9f,
  0xf7,
  0x70,
  0xd0,
  0x16,
  0x51,
  0x89,
  0x09,
  0xa5,
  0x80,
  0x13,
  0x57,
  0x7e,
  0xd2,
  0x3a,
  0xd7,
  0x19,
  0xaa,
  0x7b,
  0x7c,
  0x8d,
  0x0d,
  0x88,
  0x0f,
  0x3e,
  0xe3,
  0xd6,
  0x00,
  0x1c,
  0xfc,
  0xa2,
  0xef,
  0xa3,
  0x28,
  0x10,
  0x58,
  0x0e,
  0x5e,
  0xb7,
  0xcd,
  0x88,
  0x2c,
  0x45,
  0x18,
  0x0e,
  0xa5,
  0x45,
  0xbb,
  0x13,
  0xc8,
  0xcd,
  0x53,
  0x19,
  0xbd,
  0xdc,
  0xff,
  0xe5,
  0x9a,
  0x11,
  0x06,
  0x0a,
  0xdf,
  0x3f,
  0xf4,
  0xd0,
  0xc1,
  0xfb,
  0x1a,
  0x7b,
  0xa4,
  0x94,
  0xd3,
  0x9d,
  0x5b,
  0xc1,
  0x0e,
  0x8c,
  0x0b,
  0x11,
  0x7d,
  0xf3,
  0x88,
  0xf5,
  0x4d,
  0x2b,
  0x07,
  0xec,
  0x65,
  0xa1,
  0xee,
  0x84,
  0x05,
  0xae,
  0xef,
  0xe3,
  0x8f,
  0x29,
  0x59,
  0x3e,
  0x4e,
  0x2d,
  0xc5,
  0xbe,
  0xd1,
  0x6a,
  0xc7,
  0x63,
  0x83,
  0xeb,
  0x97,
  0x7b,
  0x8f,
  0xf6,
  0xe4,
  0x22,
  0x00,
  0xb0,
  0x0b,
  0x34,
  0x9c,
  0x8a,
  0x89,
  0x7e,
  0x03,
  0xa4,
  0xcd,
  0xbf,
  0x05,
  0xd9,
  0xc9,
  0x31,
  0x6e,
  0xee,
  0xe6,
  0xbe,
  0xd9,
  0xfb,
  0xb3,
  0xc7,
  0x92,
  0xe0,
  0x97,
  0x8b,
  0xcd,
  0xb6,
  0xfa,
  0x0a,
  0x30,
  0x88,
  0x27,
  0xe9,
  0x05,
  0x28,
  0xfe,
  0x0c,
  0x05,
  0x59,
  0x32,
  0x40,
  0x7a,
  0x06,
  0x36,
  0xcc,
  0x91,
  0x90,
  0x19,
  0x41,
  0x26,
  0x04,
  0x58,
  0xb9,
  0x6c,
  0x1e,
  0x68,
  0x74,
  0x32,
  0x49,
  0x15,
  0xd5,
  0xcf,
  0x77,
  0xf8,
  0x16,
  0xf2,
  0xd7,
  0x51,
  0xf3,
  0x0a,
  0x00,
  0x01,
  0xe4,
  0xc3,
  0x6f,
  0xe1,
  0x69,
  0xd0,
  0x5b,
  0xbe,
  0x84,
  0xc4,
  0x69,
  0xe5,
  0xe6,
  0xdb,
  0x19,
  0x96,
  0x10,
  0x0f,
  0x9e,
  0x92,
  0x79,
  0xcc,
  0xb2,
  0xdb,
  0x3d,
  0x45,
  0xb2,
  0x09,
  0xd3,
  0x09,
  0xde,
  0x55,
  0x5a,
  0xf0,
  0x50,
  0x18,
  0x0b,
  0xfb,
  0x21,
  0x41,
  0x34,
  0x7c,
  0x93,
  0x4e,
  0x05,
  0xd5,
  0x42,
  0x88,
  0xd8,
  0x16,
  0x5e,
  0x62,
  0xf5,
  0x2a,
  0x74,
  0x6a,
  0x24,
  0xc0,
  0x00,
  0x7d,
  0x49,
  0x06,
  0x33,
  0x6e,
  0x0d,
  0x64,
  0x08,
  0xc4,
  0xcb,
  0xbc,
  0x44,
  0x5b,
  0x7e,
  0x17,
  0x11,
  0xd4,
  0x93,
  0xd3,
  0x82,
  0xfa,
  0x37,
  0x9a,
  0xdb,
  0x31,
  0x7f,
  0x8f,
  0xb0,
  0x65,
  0x6b,
  0x68,
  0xfa,
  0x0f,
  0xaa,
  0x04,
  0xae,
  0x19,
  0x61,
  0xf3,
  0x94,
  0x2b,
  0xd5,
  0xa8,
  0x4d,
  0x50,
  0xbb,
  0x3c,
  0xea,
  0x23,
  0x32,
  0xc2,
  0x52,
  0x44,
  0x8d,
  0xf7,
  0x7d,
  0xa7,
  0xf4,
  0x07,
  0x77,
  0xfa,
  0x07,
  0x38,
  0xfa,
  0x2f,
  0x7d,
  0x05,
  0xea,
  0x4e,
  0x58,
  0x51,
  0x70,
  0x5b,
  0x08,
  0x6f,
  0x85,
  0xb0,
  0x66,
  0xfb,
  0xce,
  0xbb,
  0x2c,
  0x83,
  0x28,
  0x59,
  0x73,
  0x85,
  0x60,
  0x2f,
  0xaf,
  0x43,
  0x2f,
  0x0d,
  0xf1,
  0x9f,
  0xd8,
  0xba,
  0xff,
  0x03,
  0x98,
  0xe8,
  0x37,
  0xc3,
  0xd5,
  0x6e,
  0xbc,
  0x09,
  0xf6,
  0x8f,
  0xe8,
  0x68,
  0x8c,
  0x6d,
  0x81,
  0xd3,
  0xb5,
  0x5f,
  0x3d,
  0x24,
  0x77,
  0x99,
  0x62,
  0xe2,
  0x1e,
  0x56,
  0x18,
  0xed,
  0x44,
  0x7a,
  0x1f,
  0x01,
  0xe2,
  0xcf,
  0x50,
  0xe5,
  0x7d,
  0x5f,
  0xe8,
  0x1d,
  0x4e,
  0x9d,
  0xa8,
  0x6b,
  0xaf,
  0x68,
  0x87,
  0x9d,
  0xb1,
  0x03,
  0x79,
  0x24,
  0x37,
  0x74,
  0x62,
  0x42,
  0x1f,
  0x5a,
  0x59,
  0xfd,
  0xc1,
  0xde,
  0x25,
  0x0d,
  0x1d,
  0x35,
  0xaf,
  0x3e,
  0x82,
  0xa1,
  0x17,
  0xe2,
  0xb1,
  0x62,
  0x17,
  0x94,
  0x50,
  0x96,
  0x78,
  0x66,
  0x4e,
  0xbc,
  0xc6,
  0xdb,
  0x88,
  0xca,
  0x9d,
  0xbd,
  0xe0,
  0xa5,
  0xa6,
  0x02,
  0x3e,
  0xa5,
  0xda,
  0x0a,
  0xc7,
  0x6f,
  0xe1,
  0xe9,
  0xd0,
  0x5b,
  0xbe,
  0x84,
  0xc4,
  0x69,
  0x35,
  0xe6,
  0xdb,
  0x19,
  0x9c,
  0x10,
  0x0f,
  0x2e,
  0x92,
  0x79,
  0xcc,
  0xbd,
  0xdb,
  0x3d,
  0x75,
  0xb2,
  0x09,
  0xd3,
  0x4d,
  0x9e,
  0x00,
  0x04,
  0xf1,
  0x50,
  0x18,
  0x4b,
  0xfb,
  0x21,
  0x41,
  0x3d,
  0x7c,
  0x93,
  0x0e,
  0x05,
  0xd5,
  0x42,
  0x88,
  0xd8,
  0x16,
  0x5e,
  0x62,
  0xf5,
  0x2a,
  0x70,
  0x6a,
  0x24,
  0x60,
  0x00,
  0x7d,
  0x49,
  0x65,
  0x53,
  0x68,
  0x02,
  0x6f,
  0x08,
  0xc4,
  0x7b,
  0xbc,
  0x44,
  0x5b,
  0x7b,
  0x17,
  0x11,
  0xd4,
  0x93,
  0xd3,
  0x82,
  0xfa,
  0x37,
  0x9a,
  0x7b,
  0x31,
  0x7f,
  0x8f,
  0xb3,
  0x65,
  0x6b,
  0x38,
  0xfa,
  0x0f,
  0xaa,
  0x48,
  0xdc,
  0x2f,
  0x0c,
  0xf4,
  0x94,
  0x2b,
  0x35,
  0xa8,
  0x4d,
  0x50,
  0xb8,
  0x3c,
  0xea,
  0x33,
  0x32,
  0xc2,
  0x52,
  0x49,
  0x8d,
  0xf7,
  0x6d,
  0xa7,
  0xf4,
  0x07,
  0x70,
  0xfa,
  0x07,
  0xb8,
  0xfa,
  0x2f,
  0x7d,
  0x00,
  0xe6,
  0x5f,
  0x0e,
  0x54,
  0x70,
  0x5b,
  0x58,
  0x6f,
  0x85,
  0xb0,
  0x6f,
  0xfb,
  0xce,
  0xcb,
  0x2c,
  0x83,
  0x28,
  0x5b,
  0x73,
  0x85,
  0xd0,
  0x2f,
  0xaf,
  0x43,
  0x27,
  0x0d,
  0xf1,
  0x3f,
  0xd8,
  0xba,
  0xff,
  0x6a,
  0x90,
  0xec,
  0x05,
  0xc9,
  0xd5,
  0x6e,
  0x9c,
  0x09,
  0xf6,
  0x8f,
  0xe6,
  0x68,
  0x8c,
  0xcd,
  0x81,
  0xd3,
  0xb5,
  0x57,
  0x3d,
  0x24,
  0xd7,
  0x99,
  0x62,
  0xe2,
  0x15,
  0x56,
  0x18,
  0x2d,
  0x44,
  0x7a,
  0x1f,
  0x01,
  0xb0,
  0xed,
  0x0e,
  0xe9,
  0x7d,
  0x5f,
  0x98,
  0x1d,
  0x4e,
  0x9d,
  0xa6,
  0x6b,
  0xaf,
  0xc8,
  0x87,
  0x9d,
  0xb1,
  0x0e,
  0x79,
  0x24,
  0x17,
  0x74,
  0x62,
  0x42,
  0x10,
  0x5a,
  0x59,
  0x2d,
  0xc1,
  0xde,
  0x25,
  0x01,
  0x92,
  0xfd,
  0x0a,
  0x36,
  0x82,
  0xa1,
  0x67,
  0xe2,
  0xb1,
  0x62,
  0x19,
  0x94,
  0x50,
  0x36,
  0x78,
  0x66,
  0x4e,
  0xb1,
  0xc6,
  0xdb,
  0xe8,
  0xca,
  0x9d,
  0xbd,
  0xe3,
  0xa5,
  0xa6,
  0xd2,
  0x3e,
  0xa5,
  0xda,
  0xfe,
  0x6d,
  0x92,
  0x01,
  0xe4,
  0x09,
  0x40,
  0xed,
  0xeb,
  0xf0,
  0xf9,
  0xa1,
  0xee,
  0x48,
  0xa9,
  0xea,
  0xb1,
  0xf7,
  0x3b,
  0x3c,
  0x22,
  0x6d,
  0xd2,
  0x55,
  0xb7,
  0xb0,
  0x68,
  0x24,
  0x87,
  0x5a,
  0xd2,
  0x8d,
  0x3c,
  0x6e,
  0x3c,
  0x00,
  0x36,
  0x85,
  0x26,
  0x15,
  0xfa,
  0xc7,
  0xc4,
  0xbf,
  0x92,
  0xdf,
  0xed,
  0x14,
  0x5d,
  0x9d,
  0x94,
  0x87,
  0x18,
  0xf3,
  0x56,
  0x40,
  0xb4,
  0x97,
  0x1a,
  0xd1,
  0x29,
  0x4a,
  0x54,
  0x02,
  0xe0,
  0x75,
  0x03,
  0x0d,
  0xc4,
  0xfd,
  0xc2,
  0x81,
  0xdd,
  0x9d,
  0xde,
  0xc5,
  0xdb,
  0xa7,
  0x1e,
  0xc2,
  0x76,
  0xca,
  0x92,
  0x02,
  0x8a,
  0x94,
  0x95,
  0x44,
  0x0a,
  0x8f,
  0x77,
  0x88,
  0x27,
  0x55,
  0x7a,
  0xcf,
  0xe8,
  0x99,
  0x92,
  0x09,
  0x60,
  0xfe,
  0xe5,
  0xec,
  0xec,
  0x26,
  0xe9,
  0x48,
  0x0d,
  0xb0,
  0x86,
  0xb4,
  0xa9,
  0x51,
  0xa0,
  0xb7,
  0x50,
  0xe0,
  0x1c,
  0xc1,
  0x1a,
  0x0d,
  0x8f,
  0x64,
  0x23,
  0x5b,
  0xf6,
  0xb7,
  0xb0,
  0x12,
  0x6b,
  0x0d,
  0x06,
  0xc9,
  0x5e,
  0x01,
  0x96,
  0x31,
  0xd9,
  0x42,
  0xcb,
  0x34,
  0x44,
  0xe0,
  0xfe,
  0x57,
  0x23,
  0x60,
  0x92,
  0xae,
  0x5c,
  0xe4,
  0xcc,
  0x37,
  0xb7,
  0x10,
  0x61,
  0x87,
  0xe8,
  0x36,
  0x71,
  0xc6,
  0x24,
  0x03,
  0x00,
  0xdb,
  0xee,
  0x80,
  0xbd,
  0x59,
  0xda,
  0x12,
  0x25,
  0x70,
  0xcb,
  0x17,
  0x5f,
  0x1f,
  0xa6,
  0x3f,
  0x14,
  0x10,
  0x9d,
  0x59,
  0x4d,
  0x31,
  0xc4,
  0x5b,
  0xbb,
  0x7d,
  0xc3,
  0x5d,
  0x74,
  0xee,
  0x00,
  0x00,
  0x20,
  0xd9,
  0xaf,
  0x53,
  0xb5,
  0xba,
  0xd9,
  0x53,
  0x05,
  0xf1,
  0xe3,
  0x1c,
  0xde,
  0x15,
  0x26,
  0x77,
  0xdc,
  0x19,
  0x9a,
  0x5c,
  0xdf,
  0xf2,
  0x47,
  0x5b,
  0x2f,
  0x7d,
  0x92,
  0x57,
  0x61,
  0x81,
  0x88,
  0x01,
  0xdf,
  0x26,
  0x19,
  0xbc,
  0x4a,
  0x45,
  0x24,
  0xac,
  0xda,
  0x0f,
  0x3c,
  0xeb,
  0x21,
  0xea,
  0xd9,
  0x88,
  0x23,
  0xe7,
  0x67,
  0xa3,
  0x20,
  0x8c,
  0xb8,
  0xa4,
  0xd4,
  0xa2,
  0x6d,
  0xa8,
  0x8b,
  0x7b,
  0xf7,
  0x0e,
  0xea,
  0xeb,
  0xf0,
  0x79,
  0xa1,
  0xee,
  0x48,
  0xa8,
  0xea,
  0xb1,
  0x37,
  0x3b,
  0x3c,
  0x22,
  0x6c,
  0xd2,
  0x55,
  0x47,
  0xb0,
  0x68,
  0x24,
  0x8e,
  0x5a,
  0xd2,
  0x6d,
  0x3c,
  0x6e,
  0x3c,
  0xca,
  0x00,
  0xa0,
  0x0d,
  0x1b,
  0xfa,
  0xc7,
  0x14,
  0xbf,
  0x92,
  0xdf,
  0xe2,
  0x14,
  0x5d,
  0xbd,
  0x94,
  0x87,
  0x18,
  0xf6,
  0x56,
  0x40,
  0xf4,
  0x97,
  0x1a,
  0xd1,
  0x2d,
  0x4a,
  0x54,
  0x82,
  0xe0,
  0x75,
  0x03,
  0xc3,
  0xf5,
  0xbb,
  0x0b,
  0x8a,
  0xdd,
  0x9d,
  0xfe,
  0xc5,
  0xdb,
  0xa7,
  0x19,
  0xc2,
  0x76,
  0x5a,
  0x92,
  0x02,
  0x8a,
  0x96,
  0x95,
  0x44,
  0xaa,
  0x8f,
  0x77,
  0x88,
  0x2c,
  0x55,
  0x7a,
  0xdf,
  0xe8,
  0x99,
  0x92,
  0x39,
  0x27,
  0x7a,
  0x07,
  0xe7,
  0xec,
  0x26,
  0x39,
  0x48,
  0x0d,
  0xb0,
  0x80,
  0xb4,
  0xa9,
  0x81,
  0xa0,
  0xb7,
  0x50,
  0xe5,
  0x1c,
  0xc1,
  0xfa,
  0x0d,
  0x8f,
  0x64,
  0x22,
  0x5b,
  0xf6,
  0x27,
  0xb0,
  0x12,
  0x6b,
  0xe6,
  0x9e,
  0xb8,
  0x05,
  0x02,
  0x96,
  0x31,
  0x99,
  0x42,
  0xcb,
  0x34,
  0x46,
  0xe0,
  0xfe,
  0x37,
  0x23,
  0x60,
  0x92,
  0xa2,
  0x5c,
  0xe4,
  0xec,
  0x37,
  0xb7,
  0x10,
  0x6d,
  0x87,
  0xe8,
  0xf6,
  0x71,
  0xc6,
  0x24,
  0x41,
  0xa9,
  0x6e,
  0x0f,
  0x87,
  0xbd,
  0x59,
  0x0a,
  0x12,
  0x25,
  0x70,
  0xc7,
  0x17,
  0x5f,
  0xcf,
  0xa6,
  0x3f,
  0x14,
  0x13,
  0x9d,
  0x59,
  0x5d,
  0x31,
  0xc4,
  0x5b,
  0xb9,
  0x7d,
  0xc3,
  0x9d,
  0x74,
  0xee,
  0x00,
  0xe9,
  0xa8,
  0x7e,
  0x0b,
  0x53,
  0xb5,
  0xba,
  0xb9,
  0x53,
  0x05,
  0xf1,
  0xef,
  0x1c,
  0xde,
  0x95,
  0x26,
  0x77,
  0xdc,
  0x13,
  0x9a,
  0x5c,
  0x5f,
  0xf2,
  0x47,
  0x5b,
  0x21,
  0x7d,
  0x92,
  0xc7,
  0x61,
  0x81,
  0x88,
  0xdf,
  0xa9,
  0x56,
  0x0b,
  0xbc,
  0x4a,
  0x45,
  0x44,
  0xac,
  0xda,
  0x0f,
  0x30,
  0xeb,
  0x21,
  0x6a,
  0xd9,
  0x88,
  0x23,
  0xec,
  0x67,
  0xa3,
  0xa0,
  0x8c,
  0xb8,
  0xa4,
  0xde,
  0xa2,
  0x6d,
  0x38,
  0x8b,
  0x7b,
  0xf7,
  0x30,
  0x56,
  0xa1,
  0x04,
  0x0c,
  0x00,
  0xda,
  0xed,
  0x1a,
  0x2e,
  0xb1,
  0x0c,
  0x36,
  0x7e,
  0xa1,
  0x34,
  0xcd,
  0x61,
  0x7b,
  0x04,
  0xfa,
  0xa1,
  0xa9,
  0x7a,
  0x68,
  0x59,
  0x8e,
  0xf8,
  0xba,
  0xcc,
  0x58,
  0x48,
  0x88,
  0x38,
  0x80,
  0x08,
  0x5c,
  0xbf,
  0xbb,
  0x46,
  0x22,
  0xed,
  0xc7,
  0x6e,
  0x30,
  0xaf,
  0x72,
  0xa8,
  0x50,
  0x49,
  0x3d,
  0xe5,
  0x0d,
  0xd9,
  0x63,
  0x1c,
  0xa4,
  0xd6,
  0x6e,
  0x76,
  0x0b,
  0xfb,
  0x6e,
  0x52,
  0xfe,
  0x82,
  0x95,
  0x0a,
  0x73,
  0xa2,
  0x77,
  0x40,
  0x7a,
  0x42,
  0xa3,
  0x46,
  0x90,
  0xef,
  0xd6,
  0xed,
  0x7a,
  0x9b,
  0x58,
  0xae,
  0xae,
  0x38,
  0x83,
  0xb5,
  0x7e,
  0x88,
  0x73,
  0xce,
  0x32,
  0xf3,
  0x14,
  0xeb,
  0x6c,
  0x88,
  0x6c,
  0x0d,
  0xee,
  0x89,
  0x5b,
  0x9d,
  0x7a,
  0xd7,
  0xce,
  0x81,
  0x4c,
  0x15,
  0xb2,
  0xfd,
  0xc2,
  0x52,
  0x82,
  0x12,
  0x46,
  0x65,
  0x57,
  0x0f,
  0x99,
  0x13,
  0xfa,
  0xa9,
  0xc3,
  0x92,
  0x9b,
  0xbb,
  0x19,
  0x67,
  0x46,
  0x07,
  0x94,
  0xea,
  0xf6,
  0x9c,
  0x38,
  0xbf,
  0xeb,
  0x76,
  0xfa,
  0xc8,
  0xed,
  0x8f,
  0xc6,
  0x7c,
  0xc6,
  0x18,
  0xd1,
  0x8b,
  0xec,
  0x4e,
  0x81,
  0x4e,
  0xf6,
  0x9e,
  0xae,
  0xff,
  0x1a,
  0x8f,
  0x48,
  0xf2,
  0xc2,
  0x0e,
  0x8e,
  0xea,
  0xb7,
  0xb9,
  0x65,
  0x13,
  0x05,
  0xe1,
  0x0a,
  0x16,
  0xd7,
  0xb4,
  0x9d,
  0x08,
  0x39,
  0x6d,
  0xdb,
  0xd1,
  0x8e,
  0x65,
  0x0d,
  0xce,
  0xba,
  0x6f,
  0x68,
  0x55,
  0x61,
  0x6e,
  0xa4,
  0xf0,
  0xcb,
  0x03,
  0x9d,
  0x6a,
  0xb5,
  0x8e,
  0x6a,
  0x1f,
  0x27,
  0xe8,
  0x48,
  0x78,
  0xe5,
  0xb7,
  0x09,
  0xa0,
  0x21,
  0x09,
  0x93,
  0x71,
  0x44,
  0x63,
  0x39,
  0xc6,
  0xb0,
  0x3d,
  0x67,
  0xf3,
  0x21,
  0x6c,
  0x29,
  0xd8,
  0x0a,
  0x07,
  0x63,
  0x15,
  0x4a,
  0x61,
  0x95,
  0xe0,
  0xd8,
  0x17,
  0xb5,
  0x87,
  0x1a,
  0x48,
  0xf6,
  0x5f,
  0xde,
  0xf6,
  0x2c,
  0x8e,
  0xbb,
  0x9c,
  0xf6,
  0x39,
  0x4d,
  0xc0,
  0x98,
  0x08,
  0xde,
  0x93,
  0xd7,
  0x0f,
  0xb5,
  0x08,
  0xee,
  0x1a,
  0x2e,
  0x21,
  0x0c,
  0x36,
  0x7e,
  0xa0,
  0x34,
  0xcd,
  0x61,
  0x7b,
  0x04,
  0xfa,
  0xa7,
  0xa9,
  0x7a,
  0x68,
  0x59,
  0x8e,
  0xf8,
  0xba,
  0xcc,
  0x58,
  0xa8,
  0x88,
  0x38,
  0x80,
  0x6a,
  0x44,
  0x0b,
  0x05,
  0x49,
  0x22,
  0xed,
  0x67,
  0x6e,
  0x30,
  0xaf,
  0x7c,
  0xa8,
  0x50,
  0xf9,
  0x3d,
  0xe5,
  0x0d,
  0xdf,
  0x63,
  0x1c,
  0xb4,
  0xd6,
  0x6e,
  0x76,
  0x09,
  0xfb,
  0x6e,
  0xd2,
  0xfe,
  0x82,
  0x95,
  0x62,
  0x66,
  0xbf,
  0x0d,
  0x4f,
  0x7a,
  0x42,
  0xb3,
  0x46,
  0x90,
  0xef,
  0xd2,
  0xed,
  0x7a,
  0x0b,
  0x58,
  0xae,
  0xae,
  0x3b,
  0x83,
  0xb5,
  0xfe,
  0x88,
  0x73,
  0xce,
  0x34,
  0xf3,
  0x14,
  0x0b,
  0x6c,
  0x88,
  0x6c,
  0x42,
  0xdc,
  0x8a,
  0x06,
  0x92,
  0x7a,
  0xd7,
  0x8e,
  0x81,
  0x4c,
  0x15,
  0xbd,
  0xfd,
  0xc2,
  0xa2,
  0x82,
  0x12,
  0x46,
  0x6f,
  0x57,
  0x0f,
  0x59,
  0x13,
  0xfa,
  0xa9,
  0xc9,
  0x92,
  0x9b,
  0x2b,
  0x19,
  0x67,
  0x46,
  0x7d,
  0x84,
  0x2c,
  0x0c,
  0x9a,
  0x38,
  0xbf,
  0x8b,
  0x76,
  0xfa,
  0xc8,
  0xe6,
  0x8f,
  0xc6,
  0x2c,
  0xc6,
  0x18,
  0xd1,
  0x8a,
  0xec,
  0x4e,
  0x21,
  0x4e,
  0xf6,
  0x9e,
  0xa9,
  0xff,
  0x1a,
  0x7f,
  0x48,
  0xf2,
  0xc2,
  0x3f,
  0x19,
  0x0c,
  0x01,
  0xb7,
  0x65,
  0x13,
  0x45,
  0xe1,
  0x0a,
  0x16,
  0xdf,
  0xb4,
  0x9d,
  0x88,
  0x39,
  0x6d,
  0xdb,
  0xd3,
  0x8e,
  0x65,
  0xcd,
  0xce,
  0xba,
  0x6f,
  0x64,
  0x55,
  0x61,
  0xde,
  0xa4,
  0xf0,
  0xcb,
  0xa9,
  0xb0,
  0x5b,
  0x06,
  0x86,
  0x6a,
  0x1f,
  0x17,
  0xe8,
  0x48,
  0x78,
  0xed,
  0xb7,
  0x09,
  0x10,
  0x21,
  0x09,
  0x93,
  0x7b,
  0x44,
  0x63,
  0x59,
  0xc6,
  0xb0,
  0x3d,
  0x62,
  0xf3,
  0x21,
  0x2c,
  0x29,
  0xd8,
  0x0a,
  0x01,
  0xf2,
  0x50,
  0x04,
  0x68,
  0x95,
  0xe0,
  0xe8,
  0x17,
  0xb5,
  0x87,
  0x12,
  0x48,
  0xf6,
  0xff,
  0xde,
  0xf6,
  0x2c,
  0x84,
  0xbb,
  0x9c,
  0x26,
  0x39,
  0x4d,
  0xc0,
  0x99,
  0x08,
  0xde,
  0xd3,
  0xd7,
  0x0f,
  0xb5,
  0xfe,
  0x0f,
  0xa7,
  0x0b,
  0x46,
  0xb4,
  0x50,
  0x08,
  0x37,
  0x3a,
  0x87,
  0xe3,
  0xef,
  0x6c,
  0x58,
  0xe8,
  0xcb,
  0xdd,
  0xcc,
  0x79,
  0x01,
  0xf0,
  0x44,
  0xd4,
  0x57,
  0xf4,
  0x87,
  0x6d,
  0x59,
  0xc4,
  0x7a,
  0xe2,
  0xf4,
  0xc2,
  0x45,
  0x07,
  0x66,
  0xf6,
  0xdb,
  0xdc,
  0x23,
  0x96,
  0x89,
  0xcf,
  0x97,
  0xb3,
  0x15,
  0x6c,
  0x62,
  0xbc,
  0xd0,
  0x40,
  0xcc,
  0x09,
  0x40,
  0xf4,
  0x21,
  0x45,
  0x0a,
  0xbb,
  0x44,
  0x5b,
  0x73,
  0x4f,
  0x78,
  0x84,
  0x86,
  0x0b,
  0xc4,
  0xad,
  0x68,
  0x08,
  0x78,
  0x43,
  0x1f,
  0x8a,
  0x54,
  0x84,
  0xb4,
  0x9a,
  0xb2,
  0x43,
  0x4d,
  0xbb,
  0x1d,
  0x3a,
  0xe6,
  0x81,
  0x97,
  0x93,
  0x2d,
  0xed,
  0xa5,
  0x25,
  0xb2,
  0x41,
  0xf2,
  0xef,
  0x78,
  0x09,
  0x47,
  0xc8,
  0xc2,
  0xcc,
  0xa0,
  0x8e,
  0x28,
  0x5b,
  0xac,
  0x60,
  0x94,
  0xf9,
  0x44,
  0xcb,
  0x98,
  0x93,
  0xc1,
  0xbb,
  0x4e,
  0x4b,
  0x22,
  0x62,
  0xf0,
  0x07,
  0x1d,
  0xd0,
  0x3f,
  0x20,
  0x4d,
  0x9d,
  0x73,
  0x04,
  0x93,
  0xc1,
  0x10,
  0x3a,
  0xa0,
  0xa9,
  0xce,
  0xa8,
  0xca,
  0xdb,
  0x68,
  0x2a,
  0x0c,
  0x8f,
  0x21,
  0xe1,
  0x60,
  0x86,
  0xf5,
  0x7a,
  0x9f,
  0x84,
  0xf8,
  0x8d,
  0xbe,
  0xdf,
  0x4b,
  0xe6,
  0x0c,
  0x16,
  0xec,
  0x02,
  0x0a,
  0xbb,
  0x65,
  0x34,
  0x3a,
  0xa8,
  0x1a,
  0x9c,
  0xbd,
  0x4b,
  0xcf,
  0xde,
  0x50,
  0x98,
  0xab,
  0x01,
  0x5e,
  0x21,
  0xa3,
  0x2e,
  0x61,
  0xe1,
  0x73,
  0xc7,
  0x37,
  0x01,
  0x66,
  0x3a,
  0x62,
  0xcd,
  0x52,
  0x0b,
  0x20,
  0x0f,
  0x45,
  0x1c,
  0x2d,
  0xaf,
  0xfe,
  0x9e,
  0x7c,
  0x7b,
  0xe8,
  0x5a,
  0x25,
  0xd3,
  0x69,
  0xe5,
  0xe0,
  0x05,
  0x81,
  0xde,
  0x29,
  0x86,
  0x53,
  0xa5,
  0x3f,
  0x1c,
  0x6a,
  0x0a,
  0xf8,
  0xd1,
  0x68,
  0x08,
  0xff,
  0x70,
  0xba,
  0xe3,
  0xd1,
  0x50,
  0x01,
  0x61,
  0x83,
  0x84,
  0x13,
  0xa5,
  0xaa,
  0x2d,
  0x96,
  0x1e,
  0x1f,
  0xfa,
  0x7e,
  0xa4,
  0xd6,
  0x7d,
  0x8c,
  0x18,
  0xc0,
  0xe3,
  0x95,
  0xf5,
  0x03,
  0x2e,
  0x97,
  0x05,
  0x0a,
  0x37,
  0x3a,
  0x97,
  0xe3,
  0xef,
  0x6c,
  0x55,
  0xe8,
  0xcb,
  0xcd,
  0xcc,
  0x79,
  0x01,
  0xfd,
  0x44,
  0xd4,
  0xd7,
  0xf4,
  0x87,
  0x6d,
  0x57,
  0xc4,
  0x7a,
  0xb2,
  0xf4,
  0xc2,
  0x45,
  0x2d,
  0xa4,
  0xe5,
  0x00,
  0xd5,
  0x23,
  0x96,
  0xd9,
  0xcf,
  0x97,
  0xb3,
  0x1e,
  0x6c,
  0x62,
  0xcc,
  0xd0,
  0x40,
  0xcc,
  0x00,
  0x40,
  0xf4,
  0x11,
  0x45,
  0x0a,
  0xbb,
  0x4b,
  0x5b,
  0x73,
  0xbf,
  0x78,
  0x84,
  0x86,
  0x47,
  0xcc,
  0xa7,
  0x06,
  0x02,
  0x78,
  0x43,
  0x3f,
  0x8a,
  0x54,
  0x84,
  0xbd,
  0x9a,
  0xb2,
  0xe3,
  0x4d,
  0xbb,
  0x1d,
  0x3d,
  0xe6,
  0x81,
  0x37,
  0x93,
  0x2d,
  0xed,
  0xa0,
  0x25,
  0xb2,
  0xa1,
  0xf2,
  0xef,
  0x78,
  0x6c,
  0xc1,
  0xe6,
  0x09,
  0xcb,
  0xa0,
  0x8e,
  0x68,
  0x5b,
  0xac,
  0x60,
  0x93,
  0xf9,
  0x44,
  0x2b,
  0x98,
  0x93,
  0xc1,
  0xb0,
  0x4e,
  0x4b,
  0x22,
  0x62,
  0xf0,
  0x07,
  0x10,
  0xd0,
  0x3f,
  0xd0,
  0x4d,
  0x9d,
  0x73,
  0x75,
  0x49,
  0xf3,
  0x02,
  0x37,
  0xa0,
  0xa9,
  0x2e,
  0xa8,
  0xca,
  0xdb,
  0x65,
  0x2a,
  0x0c,
  0x1f,
  0x21,
  0xe1,
  0x60,
  0x88,
  0xf5,
  0x7a,
  0xef,
  0x84,
  0xf8,
  0x8d,
  0xbc,
  0xdf,
  0x4b,
  0x26,
  0x0c,
  0x16,
  0xec,
  0xd7,
  0x4e,
  0x58,
  0x0e,
  0x32,
  0x3a,
  0xa8,
  0xfa,
  0x9c,
  0xbd,
  0x4b,
  0xc0,
  0xde,
  0x50,
  0xd8,
  0xab,
  0x01,
  0x5e,
  0x2e,
  0xa3,
  0x2e,
  0xe1,
  0xe1,
  0x73,
  0xc7,
  0x3e,
  0x01,
  0x66,
  0x2a,
  0x62,
  0xcd,
  0x52,
  0x2a,
  0x11,
  0x12,
  0x01,
  0x13,
  0x2d,
  0xaf,
  0x7e,
  0x9e,
  0x7c,
  0x7b,
  0xe1,
  0x5a,
  0x25,
  0xd3,
  0x69,
  0xe5,
  0xe0,
  0x04,
  0x81,
  0xde,
  0xc9,
  0x86,
  0x53,
  0xa5,
  0x34,
  0x1c,
  0x6a,
  0x6a,
  0xf8,
  0xd1,
  0x68,
  0xf6,
  0x1d,
  0x52,
  0x05,
  0xec,
  0xd1,
  0x50,
  0x81,
  0x61,
  0x83,
  0x84,
  0x1e,
  0xa5,
  0xaa,
  0x2d,
  0x96,
  0x1e,
  0x1f,
  0xf3,
  0x7e,
  0xa4,
  0x36,
  0x7d,
  0x8c,
  0x18,
  0xcb,
  0xe3,
  0x95,
  0x95,
  0x03,
  0x2e,
  0x97,
  0x09,
  0xe2,
  0xad,
  0x0e,
  0x42,
  0x5a,
  0x0e,
  0x38,
  0x14,
  0xd0,
  0x6d,
  0x92,
  0x56,
  0xde,
  0x74,
  0x44,
  0xc7,
  0x50,
  0x13,
  0x7b,
  0x3f,
  0xf8,
  0x7e,
  0xc5,
  0xa2,
  0x19,
  0x05,
  0x79,
  0x63,
  0xc3,
  0x64,
  0x82,
  0x86,
  0x83,
  0xf6,
  0x03,
  0xc4,
  0x7c,
  0x6a,
  0x2e,
  0x3a,
  0x7d,
  0x1f,
  0x2c,
  0xeb,
  0xbf,
  0x98,
  0xe4,
  0xfc,
  0x84,
  0xd3,
  0xef,
  0x43,
  0xf0,
  0xa0,
  0x2f,
  0xcb,
  0x3a,
  0x8b,
  0x8d,
  0x2f,
  0x11,
  0x06,
  0x9b,
  0x96,
  0x69,
  0xf5,
  0x0b,
  0x16,
  0x6c,
  0x9e,
  0x69,
  0xad,
  0xbd,
  0x91,
  0xf5,
  0x25,
  0x61,
  0x33,
  0xea,
  0xb5,
  0xa8,
  0xc9,
  0xa4,
  0x90,
  0x5b,
  0x9a,
  0xe9,
  0x66,
  0x03,
  0xcd,
  0x99,
  0x99,
  0x97,
  0x4d,
  0x5f,
  0x5b,
  0x1f,
  0x8f,
  0x03,
  0x97,
  0x34,
  0x2f,
  0x8d,
  0x57,
  0x73,
  0x37,
  0xd9,
  0xd1,
  0x68,
  0x5f,
  0x8d,
  0x62,
  0x87,
  0xa7,
  0xd4,
  0xc1,
  0x7b,
  0xe7,
  0x8a,
  0x77,
  0x02,
  0xb0,
  0xbd,
  0x8a,
  0x6f,
  0xea,
  0xf1,
  0xa7,
  0x28,
  0xdb,
  0x02,
  0xed,
  0x84,
  0xe5,
  0xd5,
  0x71,
  0x4e,
  0x7c,
  0x16,
  0xe7,
  0x55,
  0xe9,
  0x0f,
  0x18,
  0x41,
  0xcb,
  0x99,
  0x1a,
  0x9f,
  0x11,
  0x83,
  0xb9,
  0x85,
  0xbc,
  0xf7,
  0x03,
  0xe9,
  0x7f,
  0xa0,
  0x5c,
  0xf8,
  0x7f,
  0x0b,
  0x12,
  0x21,
  0x11,
  0xf3,
  0x2b,
  0x27,
  0x9b,
  0x0f,
  0x11,
  0xe3,
  0x65,
  0xbd,
  0x5d,
  0xb7,
  0x6f,
  0x1a,
  0x60,
  0x82,
  0xa7,
  0xe5,
  0x36,
  0xa3,
  0xd4,
  0xf9,
  0x12,
  0xbf,
  0x2e,
  0xeb,
  0x40,
  0x92,
  0xb5,
  0x0f,
  0xdf,
  0x21,
  0x55,
  0x73,
  0xe2,
  0x27,
  0x8b,
  0x09,
  0x5f,
  0x69,
  0xe5,
  0xb5,
  0xfe,
  0xb7,
  0xab,
  0x39,
  0x32,
  0xcf,
  0x36,
  0xe5,
  0x58,
  0xc8,
  0x97,
  0xfe,
  0x8a,
  0x3b,
  0x78,
  0xf1,
  0x47,
  0x9a,
  0xb3,
  0x07,
  0x20,
  0xde,
  0xea,
  0x0c,
  0x9d,
  0xd8,
  0x74,
  0xf2,
  0xac,
  0x94,
  0x1a,
  0x48,
  0x21,
  0x48,
  0x54,
  0xc6,
  0xcf,
  0x30,
  0xc9,
  0x1a,
  0xa7,
  0x3f,
  0x2a,
  0x05,
  0x75,
  0x84,
  0x82,
  0x0e,
  0xb8,
  0x65,
  0x4c,
  0x08,
  0x35,
  0x14,
  0xd0,
  0x5d,
  0x92,
  0x56,
  0xde,
  0x75,
  0x44,
  0xc7,
  0xc0,
  0x13,
  0x7b,
  0x3f,
  0xf7,
  0x7e,
  0xc5,
  0xc2,
  0x19,
  0x05,
  0x79,
  0x62,
  0xc3,
  0x64,
  0xb2,
  0x86,
  0x83,
  0xf6,
  0xa1,
  0x4a,
  0x83,
  0x0f,
  0x21,
  0x3a,
  0x7d,
  0x3f,
  0x2c,
  0xeb,
  0xbf,
  0x9a,
  0xe4,
  0xfc,
  0xd4,
  0xd3,
  0xef,
  0x43,
  0xf2,
  0xa0,
  0x2f,
  0x1b,
  0x3a,
  0x8b,
  0x8d,
  0x29,
  0x11,
  0x06,
  0x8b,
  0x96,
  0x69,
  0xf5,
  0x7a,
  0xad,
  0x70,
  0x02,
  0x61,
  0xad,
  0xbd,
  0x01,
  0xf5,
  0x25,
  0x61,
  0x32,
  0xea,
  0xb5,
  0x68,
  0xc9,
  0xa4,
  0x90,
  0x5c,
  0x9a,
  0xe9,
  0x06,
  0x03,
  0xcd,
  0x99,
  0x9f,
  0x97,
  0x4d,
  0x8f,
  0x5b,
  0x1f,
  0x8f,
  0xf1,
  0x97,
  0x55,
  0x0d,
  0x8a,
  0x57,
  0x73,
  0x17,
  0xd9,
  0xd1,
  0x68,
  0x5a,
  0x8d,
  0x62,
  0xa7,
  0xa7,
  0xd4,
  0xc1,
  0x7a,
  0xe7,
  0x8a,
  0xd7,
  0x02,
  0xb0,
  0xbd,
  0x85,
  0x6f,
  0xea,
  0xb1,
  0xa7,
  0x28,
  0xdb,
  0x2f,
  0x82,
  0xdf,
  0x04,
  0xd1,
  0x71,
  0x4e,
  0xac,
  0x16,
  0xe7,
  0x55,
  0xee,
  0x0f,
  0x18,
  0x61,
  0xcb,
  0x99,
  0x1a,
  0x90,
  0x11,
  0x83,
  0x09,
  0x85,
  0xbc,
  0xf7,
  0x09,
  0xe9,
  0x7f,
  0xe0,
  0x5c,
  0xf8,
  0x7f,
  0xf1,
  0x0a,
  0x10,
  0x0e,
  0xfe,
  0x2b,
  0x27,
  0xbb,
  0x0f,
  0x11,
  0xe3,
  0x69,
  0xbd,
  0x5d,
  0x77,
  0x6f,
  0x1a,
  0x60,
  0x84,
  0xa7,
  0xe5,
  0xc6,
  0xa3,
  0xd4,
  0xf9,
  0x1f,
  0xbf,
  0x2e,
  0xab,
  0x40,
  0x92,
  0xb5,
  0xb3,
  0x96,
  0xbf,
  0x07,
  0x76,
  0xe2,
  0x27,
  0xab,
  0x09,
  0x5f,
  0x69,
  0xe2,
  0xb5,
  0xfe,
  0xe7,
  0xab,
  0x39,
  0x32,
  0xcc,
  0x36,
  0xe5,
  0x08,
  0xc8,
  0x97,
  0xfe,
  0x8b,
  0x3b,
  0x78,
  0xc1,
  0x47,
  0x9a,
  0xb3,
  0xf1,
  0xbf,
  0xa1,
  0x06,
  0x09,
  0x9d,
  0xd8,
  0x54,
  0xf2,
  0xac,
  0x94,
  0x1d,
  0x48,
  0x21,
  0x98,
  0x54,
  0xc6,
  0xcf,
  0x33,
  0xc9,
  0x1a,
  0xf7,
  0x3f,
  0x2a,
  0x05,
  0x76,
  0x84,
  0x82,
  0x3e,
  0xb8,
  0x65,
  0x4c,
  0x0e,
  0x40,
  0x4e,
  0x09,
  0xaa,
  0x34,
  0xf8,
  0xbc,
  0x6e,
  0x63,
  0x8a,
  0xed,
  0x0b,
  0x1a,
  0xbb,
  0x9f,
  0x86,
  0xd5,
  0xea,
  0x0c,
  0xcc,
  0xfb,
  0x0e,
  0x2c,
  0xed,
  0xee,
  0x7f,
  0x35,
  0xc2,
  0xb4,
  0xfe,
  0x11,
  0x12,
  0xb5,
  0x42,
  0x0a,
  0xd7,
  0x0a,
  0x27,
  0xc7,
  0xe7,
  0x00,
  0x41,
  0x00,
  0xc9,
  0xb0,
  0x6b,
  0x06,
  0x80,
  0x2c,
  0x62,
  0x2e,
  0x6a,
  0x6c,
  0xcc,
  0xee,
  0x6d,
  0xac,
  0x0a,
  0xa4,
  0x54,
  0xda,
  0xf0,
  0x09,
  0x8e,
  0xa5,
  0x3c,
  0x08,
  0x7f,
  0x59,
  0xd5,
  0x00,
  0x00,
  0x33,
  0xb1,
  0xb3,
  0x2b,
  0xdf,
  0x8c,
  0xa0,
  0x24,
  0xe8,
  0xd4,
  0x40,
  0x06,
  0xf1,
  0x02,
  0x26,
  0x7e,
  0x5b,
  0x2c,
  0x21,
  0x60,
  0x97,
  0x5e,
  0xb4,
  0xfe,
  0x0c,
  0x41,
  0x00,
  0x22,
  0xf8,
  0x4d,
  0x59,
  0x7d,
  0x21,
  0x65,
  0x2e,
  0x81,
  0x8f,
  0x20,
  0xb5,
  0x2b,
  0x9a,
  0x70,
  0xf5,
  0xcf,
  0x4d,
  0xe0,
  0xd4,
  0xe4,
  0x13,
  0x57,
  0xb2,
  0x70,
  0x71,
  0x99,
  0x5f,
  0x3c,
  0x0f,
  0x79,
  0x02,
  0xaf,
  0x00,
  0xe1,
  0xa7,
  0xd0,
  0xd3,
  0xbe,
  0x63,
  0x0e,
  0x15,
  0xb5,
  0x73,
  0xa9,
  0xec,
  0x83,
  0x06,
  0x4b,
  0x2b,
  0x92,
  0xb3,
  0x3c,
  0xc1,
  0x4c,
  0x79,
  0xd0,
  0xb1,
  0xee,
  0xbc,
  0x70,
  0xf5,
  0x44,
  0x02,
  0x6b,
  0xf9,
  0x7b,
  0x08,
  0x34,
  0xfa,
  0xd4,
  0xd9,
  0x70,
  0xde,
  0xc1,
  0x82,
  0x17,
  0x15,
  0xb0,
  0xde,
  0x03,
  0x0f,
  0x12,
  0xc1,
  0xd2,
  0xfe,
  0x24,
  0x2c,
  0x13,
  0xc6,
  0xdc,
  0x54,
  0x7e,
  0xeb,
  0x9d,
  0x03,
  0xff,
  0x1b,
  0x6a,
  0x03,
  0xa4,
  0xc3,
  0x74,
  0x52,
  0x7e,
  0xdd,
  0x49,
  0xe6,
  0x1d,
  0x18,
  0xf0,
  0x5f,
  0x0d,
  0x4f,
  0x02,
  0xd1,
  0x26,
  0x76,
  0x4c,
  0x0e,
  0x73,
  0xca,
  0x5a,
  0xd5,
  0x38,
  0x6d,
  0x59,
  0x00,
  0x00,
  0xe4,
  0x94,
  0xfe,
  0x5b,
  0x2c,
  0x8b,
  0xad,
  0x81,
  0x62,
  0xbe,
  0x19,
  0xe0,
  0xe7,
  0x0f,
  0xa1,
  0xf2,
  0xb0,
  0xfd,
  0x2e,
  0xc9,
  0x8d,
  0xf3,
  0xf3,
  0x8c,
  0x3d,
  0x25,
  0x2a,
  0xc7,
  0x96,
  0xa6,
  0x0f,
  0xbc,
  0x6e,
  0x63,
  0x1a,
  0xed,
  0x0b,
  0x1a,
  0xb5,
  0x9f,
  0x86,
  0x05,
  0xea,
  0x0c,
  0xcc,
  0xff,
  0x0e,
  0x2c,
  0xfd,
  0xee,
  0x7f,
  0x35,
  0xc5,
  0xb4,
  0xfe,
  0xd1,
  0x12,
  0xb5,
  0x42,
  0x9d,
  0xec,
  0xcb,
  0x0f,
  0xcd,
  0xe7,
  0x00,
  0x01,
  0x00,
  0xc9,
  0xb0,
  0x67,
  0x06,
  0x80,
  0x4c,
  0x62,
  0x2e,
  0x6a,
  0x6c,
  0xcc,
  0xee,
  0xfd,
  0xac,
  0x0a,
  0xa4,
  0x5d,
  0xda,
  0xf0,
  0x99,
  0x8e,
  0xa5,
  0x3c,
  0x17,
  0x4a,
  0x53,
  0x05,
  0x05,
  0x00,
  0x33,
  0x31,
  0xb3,
  0x2b,
  0xdf,
  0x82,
  0xa0,
  0x24,
  0xa8,
  0xd4,
  0x40,
  0x06,
  0xfe,
  0x02,
  0x26,
  0xbe,
  0x5b,
  0x2c,
  0x21,
  0x62,
  0x97,
  0x5e,
  0xd4,
  0xfe,
  0x0c,
  0x41,
  0x1c,
  0x2b,
  0xa5,
  0x0d,
  0x57,
  0x7d,
  0x21,
  0xf5,
  0x2e,
  0x81,
  0x8f,
  0x23,
  0xb5,
  0x2b,
  0x5a,
  0x70,
  0xf5,
  0xcf,
  0x4f,
  0xe0,
  0xd4,
  0xb4,
  0x13,
  0x57,
  0xb2,
  0x78,
  0x71,
  0x99,
  0xef,
  0x3c,
  0x0f,
  0x79,
  0xdb,
  0x25,
  0x46,
  0x08,
  0xae,
  0xd0,
  0xd3,
  0xde,
  0x63,
  0x0e,
  0x15,
  0xbe,
  0x73,
  0xa9,
  0x9c,
  0x83,
  0x06,
  0x4b,
  0x2f,
  0x92,
  0xb3,
  0x6c,
  0xc1,
  0x4c,
  0x79,
  0xd6,
  0xb1,
  0xee,
  0xac,
  0x70,
  0xf5,
  0x44,
  0x40,
  0xa9,
  0xca,
  0x0f,
  0x04,
  0x34,
  0xfa,
  0x94,
  0xd9,
  0x70,
  0xde,
  0xc6,
  0x82,
  0x17,
  0x35,
  0xb0,
  0xde,
  0x03,
  0x09,
  0x12,
  0xc1,
  0x82,
  0xfe,
  0x24,
  0x2c,
  0x16,
  0xc6,
  0xdc,
  0xd4,
  0x7e,
  0xeb,
  0x9d,
  0x5d,
  0xd1,
  0x04,
  0x06,
  0x02,
  0xa4,
  0xc3,
  0x94,
  0x52,
  0x7e,
  0xdd,
  0x46,
  0xe6,
  0x1d,
  0xd8,
  0xf0,
  0x5f,
  0x0d,
  0x4f,
  0x02,
  0xd1,
  0x86,
  0x76,
  0x4c,
  0x0e,
  0x77,
  0xca,
  0x5a,
  0xe5,
  0x38,
  0x6d,
  0x59,
  0x4b,
  0x73,
  0x76,
  0x0e,
  0xfd,
  0x5b,
  0x2c,
  0x6b,
  0xad,
  0x81,
  0x62,
  0xb9,
  0x19,
  0xe0,
  0x27,
  0x0f,
  0xa1,
  0xf2,
  0xb0,
  0xfd,
  0x2e,
  0x79,
  0x8d,
  0xf3,
  0xf3,
  0x88,
  0x3d,
  0x25,
  0x2a,
  0xc7,
  0x96,
  0xa6,
  0xb4,
  0x8c,
  0x99,
  0x01,
  0xc9,
  0xbe,
  0xfc,
  0x4d,
  0x45,
  0x70,
  0x38,
  0xd7,
  0xfc,
  0x4f,
  0x64,
  0x40,
  0xc1,
  0x43,
  0x1a,
  0xbb,
  0xc0,
  0xc6,
  0xcf,
  0x1a,
  0x39,
  0x00,
  0x00,
  0xcd,
  0x80,
  0x97,
  0xef,
  0x84,
  0x3b,
  0x7f,
  0x4e,
  0x03,
  0xa1,
  0x34,
  0x55,
  0x45,
  0x45,
  0xc7,
  0xef,
  0x89,
  0xfa,
  0x8d,
  0xbb,
  0xda,
  0x0d,
  0xc1,
  0x9a,
  0x20,
  0x1e,
  0xea,
  0x03,
  0x4f,
  0x4c,
  0xf2,
  0x32,
  0xbe,
  0x7d,
  0x79,
  0x2d,
  0x26,
  0x94,
  0x5d,
  0xf7,
  0x04,
  0xb1,
  0x52,
  0xda,
  0x79,
  0x3f,
  0x32,
  0xb1,
  0x89,
  0xd7,
  0x24,
  0xb9,
  0x46,
  0x66,
  0xe1,
  0x64,
  0x7c,
  0x5a,
  0x7f,
  0xab,
  0xe7,
  0x91,
  0x39,
  0x14,
  0x1b,
  0x15,
  0x4a,
  0x94,
  0x68,
  0x2f,
  0xe9,
  0xe4,
  0x0b,
  0x5d,
  0x62,
  0x84,
  0xdb,
  0xd2,
  0x4b,
  0xf8,
  0x8e,
  0x4d,
  0x5d,
  0xf2,
  0xec,
  0xaf,
  0x4b,
  0x93,
  0xdd,
  0xee,
  0xec,
  0x67,
  0xa3,
  0x96,
  0x0e,
  0x48,
  0xc7,
  0x96,
  0xe3,
  0x38,
  0x00,
  0x25,
  0x5d,
  0x90,
  0x04,
  0x94,
  0xaa,
  0xfc,
  0xf5,
  0xbd,
  0x3b,
  0x04,
  0xee,
  0x4b,
  0xfa,
  0xe6,
  0x30,
  0x03,
  0x2c,
  0x34,
  0x36,
  0x9e,
  0xdd,
  0xf7,
  0x49,
  0x4c,
  0xc0,
  0x8c,
  0xbe,
  0xa7,
  0x2e,
  0xb6,
  0x0c,
  0xcf,
  0x07,
  0xfc,
  0x02,
  0x15,
  0x4d,
  0x60,
  0x67,
  0x5f,
  0xa4,
  0xdc,
  0x0b,
  0x84,
  0xdd,
  0x29,
  0xbc,
  0x29,
  0xba,
  0x65,
  0x1c,
  0x0e,
  0x3c,
  0x5f,
  0x51,
  0xe1,
  0xc6,
  0x50,
  0xd7,
  0x64,
  0xe9,
  0xe3,
  0x46,
  0x46,
  0xf4,
  0x64,
  0x0d,
  0x34,
  0x67,
  0xe7,
  0x69,
  0x51,
  0x8d,
  0x68,
  0x0b,
  0x0f,
  0xd4,
  0x81,
  0xb4,
  0xab,
  0xc3,
  0x7c,
  0x56,
  0x8f,
  0xb1,
  0x57,
  0x49,
  0xe1,
  0xa0,
  0x54,
  0xd7,
  0x04,
  0xcb,
  0x7a,
  0x4f,
  0x05,
  0x57,
  0x64,
  0x0a,
  0xcb,
  0x98,
  0x19,
  0x96,
  0xae,
  0x72,
  0xb7,
  0xf4,
  0xf0,
  0x2b,
  0x5e,
  0x4b,
  0x54,
  0x38,
  0x8b,
  0xa9,
  0x70,
  0x4e,
  0xa8,
  0xb6,
  0x1e,
  0x7f,
  0xab,
  0x28,
  0xfb,
  0x34,
  0x85,
  0xb9,
  0xfa,
  0xa8,
  0x9b,
  0x01,
  0x44,
  0x45,
  0x70,
  0x38,
  0xd7,
  0xfc,
  0x4f,
  0x6b,
  0x40,
  0xc1,
  0x53,
  0x1a,
  0xbb,
  0xc0,
  0xcf,
  0xcf,
  0x1a,
  0x59,
  0x00,
  0x00,
  0xcd,
  0x88,
  0x97,
  0xef,
  0x84,
  0x3b,
  0x7f,
  0x4e,
  0xac,
  0x28,
  0xa7,
  0x03,
  0x44,
  0x45,
  0xc7,
  0x0f,
  0x89,
  0xfa,
  0x8d,
  0xb5,
  0xda,
  0x0d,
  0xa1,
  0x9a,
  0x20,
  0x1e,
  0xe8,
  0x03,
  0x4f,
  0xec,
  0xf2,
  0x32,
  0xbe,
  0x7f,
  0x79,
  0x2d,
  0xe6,
  0x94,
  0x5d,
  0xf7,
  0xf0,
  0x5c,
  0x07,
  0x06,
  0x7d,
  0x3f,
  0x32,
  0x41,
  0x89,
  0xd7,
  0x24,
  0xbe,
  0x46,
  0x66,
  0xf1,
  0x64,
  0x7c,
  0x5a,
  0x70,
  0xab,
  0xe7,
  0x41,
  0x39,
  0x14,
  0x1b,
  0x19,
  0x4a,
  0x94,
  0x78,
  0x2f,
  0xe9,
  0xe4,
  0xc3,
  0xf0,
  0x35,
  0x0b,
  0xde,
  0xd2,
  0x4b,
  0x58,
  0x8e,
  0x4d,
  0x5d,
  0xfa,
  0xec,
  0xaf,
  0xcb,
  0x93,
  0xdd,
  0xee,
  0xe6,
  0x67,
  0xa3,
  0x46,
  0x0e,
  0x48,
  0xc7,
  0x9f,
  0xe3,
  0x38,
  0x50,
  0x25,
  0x5d,
  0x90,
  0xf9,
  0x94,
  0xbe,
  0x03,
  0xf2,
  0xbd,
  0x3b,
  0x14,
  0xee,
  0x4b,
  0xfa,
  0xe3,
  0x30,
  0x03,
  0x1c,
  0x34,
  0x36,
  0x9e,
  0xd1,
  0xf7,
  0x49,
  0x5c,
  0xc0,
  0x8c,
  0xbe,
  0xad,
  0x2e,
  0xb6,
  0xcc,
  0xcf,
  0x07,
  0xfc,
  0xdb,
  0x4c,
  0x51,
  0x04,
  0x69,
  0x5f,
  0xa4,
  0xac,
  0x0b,
  0x84,
  0xdd,
  0x2a,
  0xbc,
  0x29,
  0x3a,
  0x65,
  0x1c,
  0x0e,
  0x3e,
  0x5f,
  0x51,
  0x71,
  0xc6,
  0x50,
  0xd7,
  0x67,
  0xe9,
  0xe3,
  0xd6,
  0x46,
  0xf4,
  0x64,
  0x26,
  0x0b,
  0x11,
  0x0e,
  0x69,
  0x51,
  0x8d,
  0x88,
  0x0b,
  0x0f,
  0xd4,
  0x8c,
  0xb4,
  0xab,
  0x33,
  0x7c,
  0x56,
  0x8f,
  0xbc,
  0x57,
  0x49,
  0x71,
  0xa0,
  0x54,
  0xd7,
  0x07,
  0xcb,
  0x7a,
  0x4f,
  0x05,
  0x57,
  0x64,
  0x59,
  0x8f,
  0x85,
  0x0b,
  0x96,
  0xae,
  0x72,
  0x77,
  0xf4,
  0xf0,
  0x2b,
  0x51,
  0x4b,
  0x54,
  0xc8,
  0x8b,
  0xa9,
  0x70,
  0x43,
  0xa8,
  0xb6,
  0x8e,
  0x7f,
  0xab,
  0x28,
  0xf8,
  0x34,
  0x85,
  0xb9,
  0xfa,
  0xa8,
  0x9b,
  0xa6,
  0x70,
  0x7e,
  0x05,
  0x8a,
  0x72,
  0x3a,
  0xf3,
  0xec,
  0xb8,
  0xb2,
  0x08,
  0x2e,
  0x7d,
  0x5f,
  0x5c,
  0xff,
  0x40,
  0x7e,
  0x94,
  0xd7,
  0x0e,
  0x3e,
  0x19,
  0x58,
  0x0f,
  0x8e,
  0xc3,
  0x23,
  0xab,
  0x32,
  0x35,
  0xbb,
  0xe8,
  0xc9,
  0x02,
  0xcf,
  0x75,
  0x60,
  0xd3,
  0xa4,
  0x51,
  0x9e,
  0x19,
  0x31,
  0xd9,
  0x58,
  0xe4,
  0x83,
  0xb2,
  0x00,
  0x98,
  0xdb,
  0x70,
  0x48,
  0x95,
  0xee,
  0x49,
  0xc2,
  0xbe,
  0xe5,
  0x4a,
  0xb8,
  0x3d,
  0x1a,
  0x7b,
  0x79,
  0x01,
  0x0c,
  0x5f,
  0xb3,
  0x09,
  0x6a,
  0x52,
  0xb1,
  0xce,
  0x2c,
  0xc8,
  0xf0,
  0x63,
  0x68,
  0x4d,
  0x1a,
  0xae,
  0x54,
  0x0a,
  0x89,
  0x1f,
  0x7c,
  0x8b,
  0x88,
  0x43,
  0xae,
  0xf2,
  0x32,
  0x22,
  0x44,
  0x68,
  0x80,
  0x0b,
  0x4f,
  0xe9,
  0x3b,
  0x93,
  0xae,
  0x2a,
  0x6e,
  0x39,
  0x2d,
  0x5b,
  0xea,
  0x78,
  0xa7,
  0x40,
  0x82,
  0xd1,
  0x2c,
  0x86,
  0x42,
  0xfe,
  0x49,
  0x65,
  0xcf,
  0xc3,
  0x0b,
  0xdd,
  0x97,
  0xc4,
  0x1b,
  0x45,
  0x3e,
  0x05,
  0xcd,
  0x14,
  0x45,
  0x46,
  0x32,
  0x47,
  0x1e,
  0x01,
  0x71,
  0xb0,
  0x23,
  0xa4,
  0xe8,
  0x98,
  0xcf,
  0x28,
  0x5e,
  0x73,
  0x59,
  0xf6,
  0x32,
  0x63,
  0x39,
  0x14,
  0x45,
  0xd0,
  0xea,
  0x84,
  0x25,
  0xe4,
  0x80,
  0x06,
  0xb2,
  0x10,
  0xe1,
  0x03,
  0x7e,
  0x79,
  0xb8,
  0x98,
  0x1c,
  0xe0,
  0xb0,
  0x74,
  0xed,
  0x13,
  0x01,
  0xd7,
  0x15,
  0x79,
  0x3e,
  0xe4,
  0x3a,
  0x6c,
  0x36,
  0x94,
  0xb7,
  0x24,
  0x20,
  0x0b,
  0x92,
  0x70,
  0x0f,
  0x07,
  0xf5,
  0x58,
  0xb8,
  0x21,
  0x33,
  0x73,
  0x35,
  0x80,
  0x6f,
  0xca,
  0x82,
  0x25,
  0xce,
  0x53,
  0x07,
  0x96,
  0x96,
  0x33,
  0xdf,
  0xe8,
  0x00,
  0xe9,
  0x08,
  0x05,
  0x35,
  0x40,
  0xa6,
  0x15,
  0x53,
  0x60,
  0x2e,
  0x04,
  0x0a,
  0xe7,
  0x57,
  0xdc,
  0xc5,
  0x8c,
  0xc9,
  0x7f,
  0x90,
  0x3f,
  0x7d,
  0xdb,
  0x11,
  0xac,
  0xfc,
  0x69,
  0x69,
  0xcc,
  0x20,
  0x17,
  0xef,
  0x96,
  0xf7,
  0xfa,
  0xca,
  0xbf,
  0x59,
  0xe8,
  0xec,
  0x9f,
  0xd1,
  0x0b,
  0xfd,
  0xec,
  0xb8,
  0x22,
  0x08,
  0x2e,
  0x7d,
  0x58,
  0x5c,
  0xff,
  0x10,
  0x7e,
  0x94,
  0xd7,
  0x07,
  0x3e,
  0x19,
  0xa8,
  0x0f,
  0x8e,
  0xc3,
  0x26,
  0xab,
  0x32,
  0x95,
  0xbb,
  0xe8,
  0xc9,
  0xf5,
  0x98,
  0x8a,
  0x0e,
  0xd9,
  0xa4,
  0x51,
  0x1e,
  0x19,
  0x31,
  0xd9,
  0x5b,
  0xe4,
  0x83,
  0xc2,
  0x00,
  0x98,
  0xdb,
  0x7d,
  0x48,
  0x95,
  0x6e,
  0x49,
  0xc2,
  0xbe,
  0xe7,
  0x4a,
  0xb8,
  0xfd,
  0x1a,
  0x7b,
  0x79,
  0x46,
  0xdd,
  0x6e,
  0x00,
  0x03,
  0x6a,
  0x52,
  0x81,
  0xce,
  0x2c,
  0xc8,
  0xfc,
  0x63,
  0x68,
  0xdd,
  0x1a,
  0xae,
  0x54,
  0x0c,
  0x89,
  0x1f,
  0x9c,
  0x8b,
  0x88,
  0x43,
  0xa8,
  0xf2,
  0x32,
  0x82,
  0x44,
  0x68,
  0x80,
  0x1e,
  0xfa,
  0x20,
  0x0e,
  0x94,
  0xae,
  0x2a,
  0x4e,
  0x39,
  0x2d,
  0x5b,
  0xea,
  0x78,
  0xa7,
  0x10,
  0x82,
  0xd1,
  0x2c,
  0x8d,
  0x42,
  0xfe,
  0x19,
  0x65,
  0xcf,
  0xc3,
  0x09,
  0xdd,
  0x97,
  0x74,
  0x1b,
  0x45,
  0x3e,
  0x79,
  0xd0,
  0xd5,
  0x03,
  0x4f,
  0x32,
  0x47,
  0x7e,
  0x01,
  0x71,
  0xb0,
  0x2c,
  0xa4,
  0xe8,
  0x08,
  0xcf,
  0x28,
  0x5e,
  0x71,
  0x59,
  0xf6,
  0x92,
  0x63,
  0x39,
  0x14,
  0x45,
  0xd0,
  0xea,
  0xc4,
  0x25,
  0xe4,
  0x80,
  0xf1,
  0x6a,
  0xdb,
  0x04,
  0x0d,
  0x7e,
  0x79,
  0x28,
  0x98,
  0x1c,
  0xe0,
  0xbe,
  0x74,
  0xed,
  0x43,
  0x01,
  0xd7,
  0x15,
  0x7b,
  0x3e,
  0xe4,
  0x1a,
  0x6c,
  0x36,
  0x94,
  0xb2,
  0x24,
  0x20,
  0x4b,
  0x92,
  0x70,
  0x0f,
  0x37,
  0xc4,
  0xb7,
  0x02,
  0x29,
  0x33,
  0x73,
  0x65,
  0x80,
  0x6f,
  0xca,
  0x86,
  0x25,
  0xce,
  0xa3,
  0x07,
  0x96,
  0x96,
  0x39,
  0xdf,
  0xe8,
  0x30,
  0xe9,
  0x08,
  0x05,
  0x37,
  0x40,
  0xa6,
  0xc5,
  0x53,
  0x60,
  0x2e,
  0xa3,
  0x40,
  0x97,
  0x02,
  0xd2,
  0xc5,
  0x8c,
  0x99,
  0x7f,
  0x90,
  0x3f,
  0x71,
  0xdb,
  0x11,
  0xfc,
  0xfc,
  0x69,
  0x69,
  0xc6,
  0x20,
  0x17,
  0xcf,
  0x96,
  0xf7,
  0xfa,
  0xc8,
  0xbf,
  0x59,
  0x38,
  0xec,
  0x9f,
  0xd1,
  0x5c,
  0xbf,
  0x68,
  0x0d,
  0x8f,
  0xa9,
  0xe8,
  0xa1,
  0xd5,
  0x59,
  0xb4,
  0xbf,
  0x87,
  0xcb,
  0xce,
  0x43,
  0x35,
  0xa3,
  0x06,
  0x7f,
  0x73,
  0x96,
  0xaa,
  0xd7,
  0xcf,
  0x58,
  0xb0,
  0xc9,
  0xa0,
  0xaf,
  0xe6,
  0x02,
  0x63,
  0xc8,
  0xe6,
  0x04,
  0xd4,
  0xed,
  0x06,
  0xaa,
  0x1a,
  0x30,
  0x7d,
  0x1e,
  0xe9,
  0x92,
  0x06,
  0xc7,
  0x02,
  0x8f,
  0x13,
  0xec,
  0x2d,
  0x37,
  0xea,
  0x68,
  0xa7,
  0xf0,
  0x69,
  0xfb,
  0x17,
  0x85,
  0x65,
  0x52,
  0xbb,
  0xf5,
  0x3e,
  0x03,
  0xa1,
  0x0f,
  0xe2,
  0xc4,
  0xd3,
  0xbc,
  0x40,
  0xa1,
  0xf9,
  0x97,
  0xaf,
  0x7c,
  0xe8,
  0x0f,
  0x36,
  0xf0,
  0xad,
  0x0f,
  0x5c,
  0x29,
  0xa9,
  0x1e,
  0xd1,
  0xb5,
  0xd8,
  0x52,
  0x5b,
  0x4e,
  0xd0,
  0xa9,
  0x7c,
  0x0c,
  0x07,
  0x5d,
  0x3d,
  0xd3,
  0xfb,
  0xb0,
  0xc7,
  0xcf,
  0x6b,
  0x9c,
  0x7a,
  0xae,
  0x9b,
  0xa4,
  0x8b,
  0x6d,
  0x0f,
  0x81,
  0x20,
  0x3b,
  0x4b,
  0x45,
  0x0a,
  0x93,
  0xcb,
  0x40,
  0x60,
  0x54,
  0x62,
  0x1a,
  0x45,
  0x02,
  0xaf,
  0xb6,
  0x4d,
  0xed,
  0x57,
  0xdc,
  0x41,
  0xc1,
  0x0d,
  0x0b,
  0x98,
  0xf9,
  0x06,
  0x9b,
  0x58,
  0x2b,
  0x3f,
  0x8f,
  0x61,
  0xbf,
  0x1a,
  0x76,
  0xde,
  0x75,
  0x5d,
  0x8d,
  0xa6,
  0x4b,
  0x7f,
  0xf1,
  0xdd,
  0x08,
  0x43,
  0x7c,
  0x2b,
  0x6b,
  0xaa,
  0x7e,
  0xcd,
  0x24,
  0x58,
  0xe2,
  0x7e,
  0x18,
  0x75,
  0x4b,
  0xa6,
  0xe7,
  0xb6,
  0xfc,
  0x8f,
  0x18,
  0x5e,
  0x3b,
  0x4a,
  0x58,
  0xc9,
  0x22,
  0x8f,
  0xf9,
  0x5b,
  0xc5,
  0xf2,
  0x04,
  0x0a,
  0x74,
  0x29,
  0x74,
  0xef,
  0x98,
  0x49,
  0x05,
  0x83,
  0x66,
  0x72,
  0x4b,
  0x3f,
  0x0b,
  0x23,
  0xeb,
  0xa0,
  0x9f,
  0x8e,
  0x88,
  0x5a,
  0x9b,
  0x58,
  0x14,
  0x0c,
  0xa0,
  0x86,
  0xdb,
  0x4b,
  0x47,
  0xf1,
  0x0f,
  0xf5,
  0x8b,
  0xd6,
  0x8a,
  0x10,
  0x67,
  0xbe,
  0xfa,
  0xe4,
  0x99,
  0x85,
  0xb6,
  0xc0,
  0xf4,
  0xdd,
  0x10,
  0x5b,
  0x60,
  0x70,
  0xef,
  0xa5,
  0x44,
  0xa7,
  0xeb,
  0xf3,
  0xdf,
  0x79,
  0x04,
  0xb4,
  0x38,
  0x0c,
  0x01,
  0xaa,
  0xd5,
  0x59,
  0x14,
  0xbf,
  0x87,
  0xcb,
  0xc7,
  0x43,
  0x35,
  0x43,
  0x06,
  0x7f,
  0x73,
  0x9b,
  0xaa,
  0xd7,
  0xdf,
  0x58,
  0xb0,
  0xc9,
  0xa4,
  0xaf,
  0xe6,
  0x52,
  0x63,
  0xc8,
  0xe6,
  0x5d,
  0x47,
  0xbf,
  0x08,
  0xa6,
  0x1a,
  0x30,
  0x8d,
  0x1e,
  0xe9,
  0x92,
  0x01,
  0xc7,
  0x02,
  0x1f,
  0x13,
  0xec,
  0x2d,
  0x3e,
  0xea,
  0x68,
  0x97,
  0xf0,
  0x69,
  0xfb,
  0x14,
  0x85,
  0x65,
  0x32,
  0xbb,
  0xf5,
  0x3e,
  0xbf,
  0x2c,
  0xc9,
  0x09,
  0xc7,
  0xd3,
  0xbc,
  0x20,
  0xa1,
  0xf9,
  0x97,
  0xa1,
  0x7c,
  0xe8,
  0x2f,
  0x36,
  0xf0,
  0xad,
  0x04,
  0x5c,
  0x29,
  0x99,
  0x1e,
  0xd1,
  0xb5,
  0xdc,
  0x52,
  0x5b,
  0xde,
  0xd0,
  0xa9,
  0x7c,
  0xee,
  0x86,
  0xa1,
  0x05,
  0xd6,
  0xfb,
  0xb0,
  0xc7,
  0xcf,
  0x6b,
  0x9c,
  0x73,
  0xae,
  0x9b,
  0xc4,
  0x8b,
  0x6d,
  0x0f,
  0x85,
  0x20,
  0x3b,
  0x2b,
  0x45,
  0x0a,
  0x93,
  0xc1,
  0x40,
  0x60,
  0xf4,
  0x62,
  0x1a,
  0x45,
  0x30,
  0xb0,
  0x05,
  0x00,
  0xec,
  0x57,
  0xdc,
  0xb1,
  0xc1,
  0x0d,
  0x0b,
  0x9d,
  0xf9,
  0x06,
  0x4b,
  0x58,
  0x2b,
  0x3f,
  0x81,
  0x61,
  0xbf,
  0xaa,
  0x76,
  0xde,
  0x75,
  0x57,
  0x8d,
  0xa6,
  0x9b,
  0x7f,
  0xf1,
  0xdd,
  0x21,
  0x65,
  0xb7,
  0x09,
  0x67,
  0xaa,
  0x7e,
  0xdd,
  0x24,
  0x58,
  0xe2,
  0x76,
  0x18,
  0x75,
  0x5b,
  0xa6,
  0xe7,
  0xb6,
  0xfb,
  0x8f,
  0x18,
  0xde,
  0x3b,
  0x4a,
  0x58,
  0xc7,
  0x22,
  0x8f,
  0x69,
  0x5b,
  0xc5,
  0xf2,
  0x45,
  0x8f,
  0xea,
  0x02,
  0x7d,
  0xef,
  0x98,
  0xe9,
  0x05,
  0x83,
  0x66,
  0x72,
  0x4b,
  0x3f,
  0x1b,
  0x23,
  0xeb,
  0xa0,
  0x9b,
  0x8e,
  0x88,
  0x8a,
  0x9b,
  0x58,
  0x14,
  0x07,
  0xa0,
  0x86,
  0xab,
  0x4b,
  0x47,
  0xf1,
  0x39,
  0xab,
  0x8b,
  0x02,
  0x82,
  0x10,
  0x67,
  0x1e,
  0xfa,
  0xe4,
  0x99,
  0x8d,
  0xb6,
  0xc0,
  0xf4,
  0xdd,
  0x10,
  0x5b,
  0x64,
  0x70,
  0xef,
  0x75,
  0x44,
  0xa7,
  0xeb,
  0xf8,
  0xdf,
  0x79,
  0xd4,
  0xb4,
  0x38,
  0x0c,
  0xce,
  0x50,
  0x74,
  0x0d,
  0x75,
  0xf4,
  0x8b,
  0xe1,
  0x5c,
  0xeb,
  0xe0,
  0x7f,
  0x14,
  0x43,
  0x4c,
  0xaa,
  0x0f,
  0x9e,
  0x79,
  0x9e,
  0xc0,
  0xa4,
  0xb6,
  0xa3,
  0xda,
  0x67,
  0xe7,
  0x82,
  0xba,
  0x65,
  0xb0,
  0xa6,
  0x13,
  0xda,
  0xdf,
  0x08,
  0xcb,
  0x92,
  0x9c,
  0xc1,
  0xe9,
  0x51,
  0xea,
  0xb3,
  0x24,
  0x83,
  0x3d,
  0x2f,
  0xb6,
  0xe2,
  0x0b,
  0x45,
  0xe4,
  0xe7,
  0x73,
  0x26,
  0x84,
  0x3c,
  0x21,
  0x23,
  0xa3,
  0x25,
  0x47,
  0xca,
  0x6e,
  0xc7,
  0x0d,
  0x0e,
  0x6e,
  0x18,
  0x5a,
  0xbc,
  0xe7,
  0x99,
  0x52,
  0xa3,
  0x31,
  0x43,
  0x1e,
  0x8e,
  0x9f,
  0xec,
  0x6b,
  0x39,
  0x6a,
  0x6f,
  0x92,
  0x50,
  0xf1,
  0x4e,
  0xda,
  0xc6,
  0x88,
  0xef,
  0x39,
  0xbe,
  0x6a,
  0x40,
  0xdb,
  0x0d,
  0x03,
  0x5b,
  0x00,
  0x6b,
  0x66,
  0xdb,
  0xd0,
  0xcf,
  0x8d,
  0x99,
  0xe4,
  0x60,
  0x93,
  0x51,
  0x0a,
  0x51,
  0x1c,
  0x8a,
  0x8c,
  0xe3,
  0xc5,
  0x40,
  0x9b,
  0xe7,
  0x0c,
  0xfd,
  0x05,
  0x08,
  0x48,
  0xbb,
  0x7a,
  0x06,
  0x52,
  0x76,
  0x9b,
  0x70,
  0x7f,
  0xec,
  0x6c,
  0xaf,
  0x24,
  0xac,
  0xc0,
  0x37,
  0xa1,
  0x7c,
  0x41,
  0x18,
  0xe5,
  0x62,
  0x4f,
  0x15,
  0x86,
  0x34,
  0xc7,
  0x9d,
  0xf2,
  0x98,
  0x53,
  0xa7,
  0xa2,
  0x40,
  0xb6,
  0x0b,
  0xf4,
  0xa8,
  0x2e,
  0xad,
  0x3e,
  0xbd,
  0x70,
  0xff,
  0x30,
  0xd3,
  0x8c,
  0x0c,
  0xf0,
  0xb7,
  0xd5,
  0xac,
  0x62,
  0x7a,
  0x13,
  0xfb,
  0xd7,
  0x93,
  0x58,
  0x50,
  0xd9,
  0x9f,
  0xc7,
  0x2c,
  0xf2,
  0xd1,
  0x76,
  0x04,
  0xb3,
  0xba,
  0x28,
  0x3c,
  0xf3,
  0xcd,
  0x7c,
  0xe3,
  0x35,
  0xd6,
  0xdc,
  0x6c,
  0xb1,
  0x3f,
  0x9b,
  0x18,
  0x64,
  0x06,
  0x42,
  0x76,
  0x85,
  0x39,
  0xd8,
  0x51,
  0xfc,
  0x8e,
  0x53,
  0x0c,
  0x42,
  0xa9,
  0xa7,
  0x00,
  0x0c,
  0x45,
  0xd7,
  0xc3,
  0x88,
  0x32,
  0x87,
  0x10,
  0xca,
  0x29,
  0x23,
  0xd3,
  0x4e,
  0xc0,
  0x64,
  0xe7,
  0x9b,
  0xd1,
  0xbd,
  0x8c,
  0x7a,
  0xc6,
  0x27,
  0xae,
  0x07,
  0x71,
  0xac,
  0xf3,
  0xbd,
  0x5e,
  0x59,
  0x0f,
  0xee,
  0x5c,
  0xeb,
  0xb0,
  0x7f,
  0x14,
  0x43,
  0x41,
  0xaa,
  0x0f,
  0x1e,
  0x79,
  0x9e,
  0xc0,
  0xa3,
  0xb6,
  0xa3,
  0x6a,
  0x67,
  0xe7,
  0x82,
  0xb2,
  0x65,
  0xb0,
  0x96,
  0x13,
  0xda,
  0xdf,
  0xcb,
  0x1f,
  0xa9,
  0x0b,
  0xc3,
  0xe9,
  0x51,
  0x6a,
  0xb3,
  0x24,
  0x83,
  0x3c,
  0x2f,
  0xb6,
  0x52,
  0x0b,
  0x45,
  0xe4,
  0xe6,
  0x73,
  0x26,
  0x84,
  0x3c,
  0x21,
  0x23,
  0xa3,
  0x25,
  0x47,
  0x5a,
  0x6e,
  0xc7,
  0x0d,
  0xef,
  0xcc,
  0x9f,
  0x05,
  0xb9,
  0xe7,
  0x99,
  0xa2,
  0xa3,
  0x31,
  0x43,
  0x1d,
  0x8e,
  0x9f,
  0x6c,
  0x6b,
  0x39,
  0x6a,
  0x6c,
  0x92,
  0x50,
  0xc1,
  0x4e,
  0xda,
  0xc6,
  0x89,
  0xef,
  0x39,
  0x2e,
  0x6a,
  0x40,
  0xdb,
  0xdc,
  0x5b,
  0x4f,
  0x08,
  0x6b,
  0x66,
  0xdb,
  0x40,
  0xcf,
  0x8d,
  0x99,
  0xe6,
  0x60,
  0x93,
  0x71,
  0x0a,
  0x51,
  0x1c,
  0x8b,
  0x8c,
  0xe3,
  0xc5,
  0x40,
  0x9b,
  0xe7,
  0x08,
  0xfd,
  0x05,
  0x18,
  0x48,
  0xbb,
  0x7a,
  0x76,
  0x62,
  0x57,
  0x06,
  0x72,
  0x7f,
  0xec,
  0x5c,
  0xaf,
  0x24,
  0xac,
  0xca,
  0x37,
  0xa1,
  0x7c,
  0x41,
  0x18,
  0xe5,
  0x64,
  0x4f,
  0x15,
  0x46,
  0x34,
  0xc7,
  0x9d,
  0xfb,
  0x98,
  0x53,
  0x17,
  0xa2,
  0x40,
  0xb6,
  0x62,
  0x17,
  0x42,
  0x0d,
  0xa9,
  0x3e,
  0xbd,
  0xf0,
  0xff,
  0x30,
  0xd3,
  0x80,
  0x0c,
  0xf0,
  0x67,
  0xd5,
  0xac,
  0x62,
  0x73,
  0x13,
  0xfb,
  0x37,
  0x93,
  0x58,
  0x50,
  0xd4,
  0x9f,
  0xc7,
  0x0c,
  0xf2,
  0xd1,
  0x76,
  0x05,
  0x03,
  0x92,
  0x09,
  0x39,
  0xf3,
  0xcd,
  0x5c,
  0xe3,
  0x35,
  0xd6,
  0xdb,
  0x6c,
  0xb1,
  0x6f,
  0x9b,
  0x18,
  0x64,
  0x02,
  0x42,
  0x76,
  0x15,
  0x39,
  0xd8,
  0x51,
  0xf0,
  0x8e,
  0x53,
  0x1c,
  0x42,
  0xa9,
  0xa7,
  0x1c,
  0x22,
  0x33,
  0x09,
  0xc6,
  0x88,
  0x32,
  0xa7,
  0x10,
  0xca,
  0x29,
  0x24,
  0xd3,
  0x4e,
  0x90,
  0x64,
  0xe7,
  0x9b,
  0xdd,
  0xbd,
  0x8c,
  0xea,
  0xc6,
  0x27,
  0xae,
  0x0f,
  0x71,
  0xac,
  0xe3,
  0xbd,
  0x5e,
  0x59,
  0xf3,
  0xdc,
  0xec,
  0x06,
  0xfc,
  0x91,
  0xba,
  0x35,
  0xf7,
  0x1b,
  0x4b,
  0x89,
  0x0c,
  0xb8,
  0x33,
  0x6c,
  0xb2,
  0x91,
  0x7b,
  0xc1,
  0x8d,
  0xa1,
  0xbb,
  0xf6,
  0x70,
  0xc5,
  0x7c,
  0x8b,
  0xad,
  0xec,
  0xb9,
  0x93,
  0xea,
  0x99,
  0x3a,
  0x06,
  0xce,
  0xfc,
  0x59,
  0x30,
  0x6d,
  0xe6,
  0x0b,
  0x45,
  0x98,
  0xa4,
  0xd8,
  0x46,
  0x71,
  0x51,
  0xb7,
  0xc3,
  0x0d,
  0xfa,
  0x89,
  0x80,
  0x04,
  0x3d,
  0x1e,
  0xe2,
  0x59,
  0x49,
  0x79,
  0xec,
  0x07,
  0x85,
  0x96,
  0x0b,
  0xbd,
  0xf5,
  0x84,
  0xf7,
  0x25,
  0x92,
  0xd1,
  0xe1,
  0x65,
  0xff,
  0xa9,
  0xf4,
  0xa0,
  0x05,
  0x9b,
  0x5c,
  0xfa,
  0x83,
  0xcf,
  0x6c,
  0xc4,
  0x3e,
  0x06,
  0x59,
  0xb3,
  0x1e,
  0x38,
  0x6e,
  0x57,
  0x9e,
  0x3d,
  0x09,
  0x27,
  0x76,
  0x65,
  0xfc,
  0xa7,
  0xef,
  0x2a,
  0x81,
  0xc7,
  0x10,
  0xee,
  0x80,
  0xcc,
  0x48,
  0x39,
  0xb2,
  0xb7,
  0x41,
  0x4d,
  0x46,
  0xf1,
  0x00,
  0xd2,
  0xf0,
  0x89,
  0x2a,
  0x59,
  0x8a,
  0x8c,
  0x76,
  0x2a,
  0x0a,
  0x76,
  0x21,
  0xd4,
  0x48,
  0xfc,
  0xd5,
  0xdd,
  0x19,
  0xec,
  0x1f,
  0x05,
  0x29,
  0x17,
  0x90,
  0x34,
  0x07,
  0x90,
  0x7a,
  0x64,
  0x4f,
  0x63,
  0x6f,
  0x2f,
  0x1c,
  0x90,
  0x68,
  0xef,
  0x7f,
  0x77,
  0xdb,
  0xd6,
  0x0f,
  0x30,
  0x20,
  0x99,
  0x5d,
  0x2a,
  0x25,
  0xf0,
  0x6a,
  0xb9,
  0xa8,
  0xd9,
  0x6b,
  0x80,
  0x3b,
  0x6c,
  0x81,
  0x54,
  0xd6,
  0xbb,
  0x14,
  0x3c,
  0x78,
  0x4e,
  0x63,
  0xd7,
  0x44,
  0x4a,
  0x76,
  0xdf,
  0xe5,
  0x64,
  0x03,
  0x21,
  0x32,
  0x93,
  0x1f,
  0x6e,
  0xcd,
  0xf3,
  0x2f,
  0x2d,
  0x3b,
  0xd9,
  0xa9,
  0x9c,
  0x39,
  0x5c,
  0x85,
  0x56,
  0x68,
  0x8f,
  0x04,
  0xf1,
  0x68,
  0x52,
  0xb1,
  0xb9,
  0x61,
  0x62,
  0x16,
  0x8d,
  0x39,
  0x2d,
  0x07,
  0xcf,
  0xcd,
  0x6e,
  0xe0,
  0x91,
  0x32,
  0x0c,
  0xd0,
  0xd2,
  0xc4,
  0x26,
  0x56,
  0x63,
  0xc6,
  0xa3,
  0x7a,
  0xa9,
  0x97,
  0x70,
  0xfb,
  0x0e,
  0x97,
  0xbd,
  0x4e,
  0x4e,
  0xbe,
  0x99,
  0xe9,
  0x72,
  0x86,
  0xd2,
  0x08,
  0x3b,
  0xf7,
  0x1b,
  0x3b,
  0x89,
  0x0c,
  0xb8,
  0x3e,
  0x6c,
  0xb2,
  0xb1,
  0x7b,
  0xc1,
  0x8d,
  0xa4,
  0xbb,
  0xf6,
  0xf0,
  0xc5,
  0x7c,
  0x8b,
  0xaa,
  0xec,
  0xb9,
  0xa3,
  0xea,
  0x99,
  0x3a,
  0xd6,
  0x6e,
  0x89,
  0x02,
  0x34,
  0x6d,
  0xe6,
  0x1b,
  0x45,
  0x98,
  0xa4,
  0xd4,
  0x46,
  0x71,
  0x41,
  0xb7,
  0xc3,
  0x0d,
  0xf7,
  0x89,
  0x80,
  0x84,
  0x3d,
  0x1e,
  0xe2,
  0x52,
  0x49,
  0x79,
  0xcc,
  0x07,
  0x85,
  0x96,
  0xb0,
  0x70,
  0xbe,
  0x00,
  0xfa,
  0x25,
  0x92,
  0xb1,
  0xe1,
  0x65,
  0xff,
  0xa5,
  0xf4,
  0xa0,
  0x15,
  0x9b,
  0x5c,
  0xfa,
  0x84,
  0xcf,
  0x6c,
  0x04,
  0x3e,
  0x06,
  0x59,
  0xb2,
  0x1e,
  0x38,
  0x7e,
  0x57,
  0x9e,
  0x3d,
  0x1d,
  0xba,
  0x7e,
  0x02,
  0xf6,
  0xa7,
  0xef,
  0x2a,
  0x81,
  0xc7,
  0x10,
  0xee,
  0x80,
  0xcc,
  0xb8,
  0x39,
  0xb2,
  0xb7,
  0x4d,
  0x4d,
  0x46,
  0xc1,
  0x00,
  0xd2,
  0xf0,
  0x8e,
  0x2a,
  0x59,
  0xfa,
  0x8c,
  0x76,
  0x2a,
  0xfa,
  0x56,
  0xc8,
  0x0e,
  0x40,
  0xfc,
  0xd5,
  0x8d,
  0x19,
  0xec,
  0x1f,
  0x05,
  0x29,
  0x17,
  0x80,
  0x34,
  0x07,
  0x90,
  0x76,
  0x64,
  0x4f,
  0xe3,
  0x6f,
  0x2f,
  0x1c,
  0x99,
  0x68,
  0xef,
  0x3f,
  0x77,
  0xdb,
  0xd6,
  0xdd,
  0x6f,
  0x20,
  0x02,
  0x5d,
  0x2a,
  0x25,
  0xb0,
  0x6a,
  0xb9,
  0xa8,
  0xd9,
  0x6b,
  0x80,
  0xbb,
  0x6c,
  0x81,
  0x54,
  0xd7,
  0xbb,
  0x14,
  0xcc,
  0x78,
  0x4e,
  0x63,
  0xd7,
  0x44,
  0x4a,
  0xe6,
  0xdf,
  0xe5,
  0x64,
  0x35,
  0x8c,
  0x2f,
  0x01,
  0x16,
  0x6e,
  0xcd,
  0xb3,
  0x2f,
  0x2d,
  0x3b,
  0xd5,
  0xa9,
  0x9c,
  0x19,
  0x5c,
  0x85,
  0x56,
  0x66,
  0x8f,
  0x04,
  0x41,
  0x68,
  0x52,
  0xb1,
  0xb7,
  0x61,
  0x62,
  0xa6,
  0x8d,
  0x39,
  0x2d,
  0xb4,
  0xbc,
  0xed,
  0x02,
  0xe9,
  0x91,
  0x32,
  0x4c,
  0xd0,
  0xd2,
  0xc4,
  0x2a,
  0x56,
  0x63,
  0xe6,
  0xa3,
  0x7a,
  0xa9,
  0x99,
  0x70,
  0xfb,
  0x3e,
  0x97,
  0xbd,
  0x4e,
  0x48,
  0xbe,
  0x99,
  0x59,
  0x72,
  0x86,
  0xd2,
  0x4b,
  0x43,
  0x12,
  0x0d,
  0xed,
  0x96,
  0x28,
  0x8c,
  0xf6,
  0xe3,
  0x87,
  0x30,
  0x35,
  0xd8,
  0x41,
  0x68,
  0x29,
  0x25,
  0x7f,
  0x3e,
  0xdc,
  0x98,
  0xb1,
  0x99,
  0x00,
  0x32,
  0xa5,
  0x44,
  0x65,
  0x96,
  0x41,
  0x35,
  0x85,
  0x91,
  0xcc,
  0x0a,
  0x0b,
  0xe7,
  0x0b,
  0x10,
  0xe8,
  0x77,
  0x8a,
  0x9d,
  0x40,
  0xe3,
  0x2d,
  0xaa,
  0x0b,
  0xce,
  0x4f,
  0x7c,
  0x4f,
  0xff,
  0xb8,
  0x97,
  0xc9,
  0x1b,
  0x98,
  0x6e,
  0x56,
  0x41,
  0x9d,
  0x55,
  0x92,
  0x78,
  0xcf,
  0x0e,
  0xa1,
  0xeb,
  0x27,
  0x09,
  0xae,
  0x18,
  0x71,
  0x04,
  0x91,
  0x1b,
  0x3a,
  0xb8,
  0xd5,
  0x2b,
  0xe9,
  0xcf,
  0xbc,
  0xd6,
  0xc0,
  0xd6,
  0xd8,
  0x2b,
  0x01,
  0x99,
  0x54,
  0xe5,
  0x4c,
  0x8a,
  0xc4,
  0xc4,
  0x8d,
  0x00,
  0x6f,
  0x85,
  0xec,
  0x83,
  0xb1,
  0x31,
  0xa7,
  0xe3,
  0x3d,
  0x28,
  0x04,
  0x1a,
  0xd4,
  0xe9,
  0x0d,
  0x53,
  0x0a,
  0x40,
  0x4d,
  0xc0,
  0xcc,
  0x9c,
  0x0b,
  0x2c,
  0xc6,
  0x2f,
  0xf5,
  0xd1,
  0xbd,
  0x7c,
  0xef,
  0x0a,
  0xfd,
  0x06,
  0x22,
  0x5a,
  0xd0,
  0xa8,
  0x7c,
  0xcc,
  0xd0,
  0xb7,
  0x02,
  0x63,
  0x6a,
  0xa1,
  0xb0,
  0x41,
  0x4c,
  0x6f,
  0x0a,
  0x27,
  0x92,
  0x07,
  0x27,
  0xc2,
  0xf5,
  0x40,
  0x22,
  0xa7,
  0x91,
  0xce,
  0xbf,
  0x01,
  0xc3,
  0xf8,
  0x12,
  0x41,
  0x4d,
  0xea,
  0x55,
  0x42,
  0x5a,
  0xda,
  0x7c,
  0xd0,
  0x94,
  0x76,
  0xdb,
  0xc7,
  0x93,
  0xa2,
  0xd3,
  0x7e,
  0xf9,
  0x60,
  0xdc,
  0x32,
  0xd8,
  0xf9,
  0xd3,
  0xad,
  0x32,
  0xc3,
  0x89,
  0x02,
  0xcb,
  0xdb,
  0x2e,
  0x1b,
  0x08,
  0xb9,
  0x64,
  0x48,
  0x49,
  0xd6,
  0xc4,
  0x97,
  0x87,
  0x4f,
  0xdb,
  0xc5,
  0x7a,
  0x62,
  0x5b,
  0xe3,
  0xfb,
  0x67,
  0x6c,
  0x24,
  0xf8,
  0xe3,
  0x64,
  0xe3,
  0x73,
  0x42,
  0x4c,
  0x04,
  0x34,
  0x24,
  0xd1,
  0xe4,
  0xf7,
  0x46,
  0x9a,
  0xb7,
  0xa6,
  0x29,
  0x3b,
  0x6c,
  0x7b,
  0xb0,
  0x24,
  0x3a,
  0xad,
  0x9d,
  0xa4,
  0x1c,
  0x04,
  0x98,
  0xb3,
  0xdb,
  0x27,
  0x1c,
  0x9b,
  0x1c,
  0x8c,
  0xbd,
  0x33,
  0x0d,
  0x8d,
  0xf6,
  0xe3,
  0xf7,
  0x30,
  0x35,
  0xd8,
  0x42,
  0x68,
  0x29,
  0x35,
  0x7f,
  0x3e,
  0xdc,
  0x9d,
  0xb1,
  0x99,
  0x10,
  0x32,
  0xa5,
  0x44,
  0x6a,
  0x96,
  0x41,
  0xc5,
  0x85,
  0x91,
  0xcc,
  0xed,
  0xf0,
  0x3f,
  0x09,
  0x1a,
  0xe8,
  0x77,
  0x3a,
  0x9d,
  0x40,
  0xe3,
  0x24,
  0xaa,
  0x0b,
  0x3e,
  0x4f,
  0x7c,
  0x4f,
  0xfb,
  0xb8,
  0x97,
  0x89,
  0x1b,
  0x98,
  0x6e,
  0x5d,
  0x41,
  0x9d,
  0x35,
  0x92,
  0x78,
  0xcf,
  0xfa,
  0xef,
  0xca,
  0x09,
  0x02,
  0xae,
  0x18,
  0x31,
  0x04,
  0x91,
  0x1b,
  0x34,
  0xb8,
  0xd5,
  0x1b,
  0xe9,
  0xcf,
  0xbc,
  0xd4,
  0xc0,
  0xd6,
  0x48,
  0x2b,
  0x01,
  0x99,
  0x53,
  0xe5,
  0x4c,
  0x3a,
  0xc4,
  0xc4,
  0x8d,
  0x50,
  0xfe,
  0x90,
  0x04,
  0x8c,
  0xb1,
  0x31,
  0x87,
  0xe3,
  0x3d,
  0x28,
  0x0b,
  0x1a,
  0xd4,
  0x19,
  0x0d,
  0x53,
  0x0a,
  0x48,
  0x4d,
  0xc0,
  0x4c,
  0x9c,
  0x0b,
  0x2c,
  0xc0,
  0x2f,
  0xf5,
  0xe1,
  0xbd,
  0x7c,
  0xef,
  0x2b,
  0xf2,
  0xc2,
  0x00,
  0x5c,
  0xd0,
  0xa8,
  0x0c,
  0xcc,
  0xd0,
  0xb7,
  0x01,
  0x63,
  0x6a,
  0x31,
  0xb0,
  0x41,
  0x4c,
  0x67,
  0x0a,
  0x27,
  0x82,
  0x07,
  0x27,
  0xc2,
  0xfd,
  0x40,
  0x22,
  0x57,
  0x91,
  0xce,
  0xbf,
  0x4e,
  0x09,
  0x95,
  0x09,
  0x42,
  0x4d,
  0xea,
  0xe5,
  0x42,
  0x5a,
  0xda,
  0x7c,
  0xd0,
  0x94,
  0x36,
  0xdb,
  0xc7,
  0x93,
  0xaa,
  0xd3,
  0x7e,
  0xc9,
  0x60,
  0xdc,
  0x32,
  0xd9,
  0xf9,
  0xd3,
  0x5d,
  0x32,
  0xc3,
  0x89,
  0x18,
  0x46,
  0x33,
  0x05,
  0x1a,
  0x08,
  0xb9,
  0x04,
  0x48,
  0x49,
  0xd6,
  0xcf,
  0x97,
  0x87,
  0xcf,
  0xdb,
  0xc5,
  0x7a,
  0x69,
  0x5b,
  0xe3,
  0xcb,
  0x67,
  0x6c,
  0x24,
  0xfd,
  0xe3,
  0x64,
  0x73,
  0x73,
  0x42,
  0x4c,
  0x18,
  0x37,
  0x5a,
  0x04,
  0xe5,
  0xf7,
  0x46,
  0xfa,
  0xb7,
  0xa6,
  0x29,
  0x32,
  0x6c,
  0x7b,
  0xf0,
  0x24,
  0x3a,
  0xad,
  0x96,
  0xa4,
  0x1c,
  0x34,
  0x98,
  0xb3,
  0xdb,
  0x26,
  0x1c,
  0x9b,
  0x8c,
  0x8c,
  0xbd,
  0x33,
  0xe7,
  0xc9,
  0xa4,
  0x0b,
  0x0e,
  0xff,
  0x93,
  0x3f,
  0x23,
  0x43,
  0x77,
  0x01,
  0xdc,
  0xee,
  0xa0,
  0xc7,
  0x52,
  0xe8,
  0xfb,
  0x83,
  0x3e,
  0xa3,
  0xed,
  0x9c,
  0xd8,
  0x72,
  0x02,
  0x76,
  0x6d,
  0x9d,
  0xa3,
  0x41,
  0x6d,
  0x2a,
  0x07,
  0x02,
  0xff,
  0xae,
  0x9c,
  0x4a,
  0x24,
  0x53,
  0xd1,
  0xb2,
  0x2f,
  0x64,
  0xb5,
  0xb4,
  0xcf,
  0xef,
  0xfe,
  0x42,
  0x49,
  0xa3,
  0x5f,
  0x76,
  0xa3,
  0xf5,
  0xf8,
  0x84,
  0xc1,
  0x3d,
  0xe2,
  0x7d,
  0x6e,
  0x04,
  0xfa,
  0x04,
  0xe5,
  0x0f,
  0x49,
  0x81,
  0x49,
  0x75,
  0x53,
  0x30,
  0x5c,
  0x61,
  0xe0,
  0x64,
  0x0b,
  0x5d,
  0xa7,
  0xb1,
  0x2f,
  0x51,
  0x6d,
  0x91,
  0x90,
  0x64,
  0x81,
  0x9b,
  0x34,
  0x84,
  0x19,
  0xaf,
  0x05,
  0x5a,
  0x6b,
  0x0a,
  0x22,
  0x2f,
  0x0c,
  0x26,
  0xa8,
  0x5e,
  0x73,
  0x08,
  0xd4,
  0xad,
  0x05,
  0xe8,
  0xa8,
  0x0a,
  0xc6,
  0xc4,
  0xf4,
  0xad,
  0x7f,
  0x8b,
  0x38,
  0x81,
  0x43,
  0xae,
  0x11,
  0x3a,
  0xbe,
  0x28,
  0xe7,
  0xf3,
  0x34,
  0x0b,
  0x94,
  0x50,
  0x99,
  0xac,
  0xbb,
  0x14,
  0xc2,
  0x56,
  0x4f,
  0x16,
  0xd8,
  0x99,
  0x07,
  0xf6,
  0x05,
  0xc3,
  0xbe,
  0x7c,
  0xc6,
  0x4b,
  0xd6,
  0x2e,
  0x72,
  0x19,
  0x50,
  0x92,
  0x97,
  0x09,
  0x6d,
  0x68,
  0xf5,
  0x03,
  0x61,
  0x34,
  0x53,
  0xa1,
  0x2f,
  0x02,
  0x26,
  0x42,
  0x72,
  0xfc,
  0x64,
  0xfd,
  0xe9,
  0x9b,
  0xf9,
  0xac,
  0xfb,
  0x47,
  0x4c,
  0x0e,
  0x8d,
  0xda,
  0xb5,
  0xad,
  0x5f,
  0x4f,
  0x1f,
  0x0c,
  0xaf,
  0x41,
  0xf8,
  0x0b,
  0x71,
  0xa3,
  0x45,
  0xa0,
  0x33,
  0x16,
  0x36,
  0x74,
  0x19,
  0x96,
  0x34,
  0xba,
  0xe1,
  0xbf,
  0xd9,
  0x9c,
  0xda,
  0x55,
  0xdd,
  0xae,
  0xde,
  0x46,
  0xb5,
  0x8e,
  0x5d,
  0x14,
  0x19,
  0xee,
  0x6e,
  0x60,
  0xfe,
  0x0f,
  0x9e,
  0x4c,
  0xba,
  0x5f,
  0xd4,
  0xe9,
  0xe9,
  0x8b,
  0xe6,
  0x69,
  0x8b,
  0x45,
  0x1e,
  0x40,
  0x26,
  0x43,
  0x05,
  0xaa,
  0x32,
  0xf1,
  0x21,
  0xb9,
  0x4a,
  0x71,
  0xa0,
  0xeb,
  0xe6,
  0xd3,
  0x10,
  0x9f,
  0x01,
  0x00,
  0x34,
  0x23,
  0x43,
  0x87,
  0x01,
  0xdc,
  0xee,
  0xa5,
  0xc7,
  0x52,
  0xb8,
  0xfb,
  0x83,
  0x3e,
  0xac,
  0xed,
  0x9c,
  0x68,
  0x72,
  0x02,
  0x76,
  0x60,
  0x9d,
  0xa3,
  0x41,
  0x6d,
  0x2a,
  0x07,
  0xfd,
  0xb3,
  0x0b,
  0x09,
  0x43,
  0x24,
  0x53,
  0xe1,
  0xb2,
  0x2f,
  0x64,
  0xb7,
  0xb4,
  0xcf,
  0xef,
  0xfe,
  0x42,
  0x49,
  0xab,
  0x5f,
  0x76,
  0xc3,
  0xf5,
  0xf8,
  0x84,
  0xcb,
  0x3d,
  0xe2,
  0x1d,
  0x6e,
  0x04,
  0xfa,
  0xed,
  0xa1,
  0x8f,
  0x03,
  0x88,
  0x49,
  0x75,
  0x23,
  0x30,
  0x5c,
  0x61,
  0xe5,
  0x64,
  0x0b,
  0x0d,
  0xa7,
  0xb1,
  0x2f,
  0x58,
  0x6d,
  0x91,
  0x80,
  0x64,
  0x81,
  0x9b,
  0x3f,
  0x84,
  0x19,
  0x5f,
  0x05,
  0x5a,
  0x6b,
  0x93,
  0x7a,
  0xed,
  0x06,
  0x23,
  0xa8,
  0x5e,
  0x73,
  0x08,
  0xd4,
  0xad,
  0x03,
  0xe8,
  0xa8,
  0xca,
  0xc6,
  0xc4,
  0xf4,
  0xaa,
  0x7f,
  0x8b,
  0x78,
  0x81,
  0x43,
  0xae,
  0x14,
  0x3a,
  0xbe,
  0xe8,
  0xe7,
  0xf3,
  0x34,
  0x91,
  0x8f,
  0x23,
  0x02,
  0xa3,
  0xbb,
  0x14,
  0x02,
  0x56,
  0x4f,
  0x16,
  0xd7,
  0x99,
  0x07,
  0x46,
  0x05,
  0xc3,
  0xbe,
  0x72,
  0xc6,
  0x4b,
  0x26,
  0x2e,
  0x72,
  0x19,
  0x5d,
  0x92,
  0x97,
  0x69,
  0x6d,
  0x68,
  0xf5,
  0x0e,
  0xa9,
  0x3f,
  0x09,
  0xa3,
  0x2f,
  0x02,
  0x16,
  0x42,
  0x72,
  0xfc,
  0x69,
  0xfd,
  0xe9,
  0x1b,
  0xf9,
  0xac,
  0xfb,
  0x45,
  0x4c,
  0x0e,
  0xbd,
  0xda,
  0xb5,
  0xad,
  0x53,
  0x4f,
  0x1f,
  0xac,
  0xaf,
  0x41,
  0xf8,
  0xe4,
  0xc7,
  0xdf,
  0x02,
  0xa3,
  0x33,
  0x16,
  0xb6,
  0x74,
  0x19,
  0x96,
  0x33,
  0xba,
  0xe1,
  0x4f,
  0xd9,
  0x9c,
  0xda,
  0x5a,
  0xdd,
  0xae,
  0x3e,
  0x46,
  0xb5,
  0x8e,
  0x51,
  0x14,
  0x19,
  0xee,
  0x6e,
  0x60,
  0xfe,
  0xc6,
  0x27,
  0x37,
  0x0a,
  0x5c,
  0xd4,
  0xe9,
  0x49,
  0x8b,
  0xe6,
  0x69,
  0x8c,
  0x45,
  0x1e,
  0xb0,
  0x26,
  0x43,
  0x05,
  0xa5,
  0x32,
  0xf1,
  0xc1,
  0xb9,
  0x4a,
  0x71,
  0xae,
  0xeb,
  0xe6,
  0x13,
  0x10,
  0x9f,
  0x01,
  0x39,
  0xd8,
  0xc8,
  0x0d,
  0x3f,
  0xbb,
  0x90,
  0xd7,
  0x54,
  0x85,
  0xf9,
  0x2a,
  0x27,
  0xa4,
  0xc4,
  0x64,
  0x95,
  0xd0,
  0x0b,
  0x11,
  0x72,
  0xb7,
  0x36,
  0x9e,
  0x29,
  0x81,
  0x82,
  0x8d,
  0x80,
  0x1a,
  0x42,
  0x5d,
  0x63,
  0x92,
  0x4e,
  0x0a,
  0x1e,
  0xfa,
  0x38,
  0x9e,
  0x85,
  0x12,
  0x10,
  0xee,
  0x9b,
  0x63,
  0xb1,
  0x15,
  0x48,
  0xfb,
  0x00,
  0xd8,
  0x94,
  0x24,
  0xa4,
  0x49,
  0x40,
  0x9b,
  0x24,
  0xc2,
  0x70,
  0xfc,
  0x7b,
  0xfb,
  0xdb,
  0x11,
  0x57,
  0x05,
  0xa9,
  0xd7,
  0x6e,
  0x5d,
  0xcd,
  0xf9,
  0x1e,
  0x40,
  0x3c,
  0xa5,
  0x71,
  0xd6,
  0xd0,
  0xc3,
  0x8a,
  0xb0,
  0x11,
  0x2e,
  0x6b,
  0xb6,
  0xdc,
  0x26,
  0xdd,
  0x52,
  0x40,
  0xea,
  0x06,
  0x6d,
  0xe6,
  0xfe,
  0x5c,
  0x0d,
  0xf9,
  0x38,
  0x22,
  0xd1,
  0x41,
  0xd7,
  0xf5,
  0x4d,
  0x32,
  0xd5,
  0xdc,
  0x44,
  0xde,
  0x23,
  0x09,
  0x59,
  0x7e,
  0x5b,
  0xd2,
  0xa6,
  0xa1,
  0xa0,
  0x0e,
  0xe6,
  0x87,
  0xa7,
  0x8f,
  0xcf,
  0x65,
  0x13,
  0x61,
  0x0f,
  0x90,
  0xfa,
  0x93,
  0x4e,
  0xe3,
  0x1f,
  0xd5,
  0xcd,
  0xe4,
  0xd8,
  0xbb,
  0x77,
  0x06,
  0xf8,
  0x99,
  0xe6,
  0x91,
  0x88,
  0x35,
  0xf3,
  0x92,
  0x6d,
  0x52,
  0x87,
  0xd2,
  0x3b,
  0x86,
  0x03,
  0x8f,
  0x52,
  0xe7,
  0x01,
  0x7e,
  0xfc,
  0x2d,
  0x89,
  0x22,
  0x12,
  0xfd,
  0x96,
  0x89,
  0x43,
  0x9c,
  0xde,
  0x65,
  0xc6,
  0xf6,
  0xde,
  0xce,
  0x06,
  0xf9,
  0x76,
  0x39,
  0x23,
  0x7a,
  0x83,
  0x8a,
  0x96,
  0x80,
  0x0f,
  0x94,
  0xd8,
  0xe4,
  0x01,
  0x7c,
  0x72,
  0xa3,
  0x9f,
  0xc2,
  0x3b,
  0xbb,
  0x46,
  0x83,
  0xe6,
  0x88,
  0xc3,
  0xf4,
  0xc1,
  0x17,
  0xde,
  0x9f,
  0x3f,
  0xf6,
  0x70,
  0xcd,
  0x71,
  0x46,
  0x53,
  0x80,
  0xb2,
  0xea,
  0x47,
  0x53,
  0xde,
  0xb5,
  0x06,
  0x83,
  0x8d,
  0xdc,
  0x60,
  0x3d,
  0xc4,
  0x04,
  0xf9,
  0x7c,
  0x19,
  0x73,
  0x28,
  0x8b,
  0x3e,
  0xe8,
  0x21,
  0x60,
  0xc0,
  0x09,
  0x8f,
  0x12,
  0x9e,
  0xb9,
  0xac,
  0x7d,
  0x4d,
  0x35,
  0xb8,
  0x69,
  0x25,
  0x4a,
  0x08,
  0xdc,
  0x54,
  0x85,
  0x39,
  0x2a,
  0x27,
  0xa4,
  0xcf,
  0x64,
  0x95,
  0xe0,
  0x0b,
  0x11,
  0x72,
  0xb3,
  0x36,
  0x9e,
  0xf9,
  0x81,
  0x82,
  0x8d,
  0x85,
  0x1a,
  0x42,
  0xdd,
  0x63,
  0x92,
  0x4e,
  0xf9,
  0x5e,
  0x9d,
  0x01,
  0x98,
  0x85,
  0x12,
  0x10,
  0xee,
  0x9b,
  0x63,
  0xbe,
  0x15,
  0x48,
  0xdb,
  0x00,
  0xd8,
  0x94,
  0x26,
  0xa4,
  0x49,
  0xf0,
  0x9b,
  0x24,
  0xc2,
  0x71,
  0xfc,
  0x7b,
  0x2b,
  0xdb,
  0x11,
  0x57,
  0xaf,
  0xde,
  0x5f,
  0x09,
  0x5f,
  0xcd,
  0xf9,
  0x4e,
  0x40,
  0x3c,
  0xa5,
  0x70,
  0xd6,
  0xd0,
  0x93,
  0x8a,
  0xb0,
  0x11,
  0x2e,
  0x6b,
  0xb6,
  0xec,
  0x26,
  0xdd,
  0x52,
  0x41,
  0xea,
  0x06,
  0x2d,
  0xe6,
  0xfe,
  0x5c,
  0xf4,
  0xd0,
  0x8b,
  0x01,
  0xda,
  0x41,
  0xd7,
  0x55,
  0x4d,
  0x32,
  0xd5,
  0xd6,
  0x44,
  0xde,
  0x53,
  0x09,
  0x59,
  0x7e,
  0x5a,
  0xd2,
  0xa6,
  0xa1,
  0xa0,
  0x0e,
  0xe6,
  0x84,
  0xa7,
  0x8f,
  0x9f,
  0x65,
  0x13,
  0x61,
  0x1c,
  0xff,
  0xd2,
  0x0e,
  0x49,
  0xe3,
  0x1f,
  0xd5,
  0xcd,
  0xe4,
  0xd8,
  0xb7,
  0x77,
  0x06,
  0x58,
  0x99,
  0xe6,
  0x91,
  0x84,
  0x35,
  0xf3,
  0x92,
  0x6d,
  0x52,
  0x87,
  0xdc,
  0x3b,
  0x86,
  0xc3,
  0x8f,
  0x52,
  0xe7,
  0xfb,
  0xd6,
  0xd8,
  0x03,
  0x82,
  0x22,
  0x12,
  0xcd,
  0x96,
  0x89,
  0x43,
  0x99,
  0xde,
  0x65,
  0x46,
  0xf6,
  0xde,
  0xce,
  0x0e,
  0xf9,
  0x76,
  0x99,
  0x23,
  0x7a,
  0x83,
  0x89,
  0x96,
  0x80,
  0x0f,
  0x94,
  0xd8,
  0xe4,
  0xe2,
  0x65,
  0x38,
  0x09,
  0x92,
  0xc2,
  0x3b,
  0x4b,
  0x46,
  0x83,
  0xe6,
  0x8b,
  0xc3,
  0xf4,
  0x51,
  0x17,
  0xde,
  0x9f,
  0x36,
  0xf6,
  0x70,
  0x1d,
  0x71,
  0x46,
  0x53,
  0x8d,
  0xb2,
  0xea,
  0x07,
  0x53,
  0xde,
  0xb5,
  0xdc,
  0x44,
  0xb6,
  0x09,
  0x65,
  0x3d,
  0xc4,
  0x34,
  0xf9,
  0x7c,
  0x19,
  0x74,
  0x28,
  0x8b,
  0xae,
  0xe8,
  0x21,
  0x60,
  0xc9,
  0x09,
  0x8f,
  0x62,
  0x9e,
  0xb9,
  0xac,
  0x72,
  0x4d,
  0x35,
  0xf8,
  0x69,
  0x25,
  0x4a,
  0x23,
  0xbb,
  0x4d,
  0x06,
  0xef,
  0xd5,
  0x19,
  0x01,
  0xa6,
  0x63,
  0x07,
  0x29,
  0x30,
  0x18,
  0x45,
  0x81,
  0x8d,
  0x6d,
  0xf2,
  0xc1,
  0xd6,
  0x6a,
  0xb2,
  0xf5,
  0x04,
  0xe9,
  0x51,
  0x71,
  0xf9,
  0x4d,
  0xaa,
  0xe6,
  0xba,
  0x18,
  0x4c,
  0x05,
  0xea,
  0xfd,
  0x95,
  0x30,
  0xbe,
  0xf3,
  0xf6,
  0xc8,
  0x5d,
  0xa4,
  0xae,
  0x5f,
  0xb4,
  0xec,
  0x6e,
  0x09,
  0xca,
  0xcb,
  0x30,
  0x43,
  0xfe,
  0xe2,
  0x79,
  0x69,
  0x60,
  0x12,
  0x09,
  0x66,
  0xeb,
  0x12,
  0x26,
  0x0f,
  0x0f,
  0xbd,
  0x18,
  0xf1,
  0xf6,
  0xb0,
  0xe2,
  0xbf,
  0xac,
  0x00,
  0xed,
  0xca,
  0x1f,
  0x47,
  0x83,
  0x15,
  0x6a,
  0x8c,
  0xc4,
  0xe7,
  0xbf,
  0xeb,
  0xd3,
  0xdf,
  0x5e,
  0x5c,
  0xd5,
  0xe2,
  0x5f,
  0x57,
  0x81,
  0x05,
  0xf1,
  0x2f,
  0xed,
  0x7b,
  0xb4,
  0xc7,
  0x1b,
  0x36,
  0x52,
  0x22,
  0x71,
  0x9e,
  0xce,
  0x1d,
  0x11,
  0xe4,
  0xc0,
  0xf0,
  0x81,
  0x4c,
  0x5c,
  0xe1,
  0x87,
  0x2f,
  0xfd,
  0x43,
  0x6c,
  0x7d,
  0x6d,
  0x82,
  0x22,
  0x0b,
  0x6f,
  0x8d,
  0x3d,
  0x86,
  0xfa,
  0x81,
  0x18,
  0x37,
  0xb3,
  0xd0,
  0xc6,
  0x87,
  0x0e,
  0x6a,
  0xab,
  0xe2,
  0x19,
  0xd1,
  0x32,
  0x17,
  0xf6,
  0xc5,
  0xac,
  0xcf,
  0x61,
  0x21,
  0xda,
  0x8f,
  0xf7,
  0xc8,
  0xd4,
  0x08,
  0x5e,
  0x86,
  0x93,
  0x7b,
  0xc3,
  0x0f,
  0xd4,
  0x68,
  0xdb,
  0x1d,
  0x89,
  0xf4,
  0x91,
  0x8e,
  0x0f,
  0x9a,
  0x11,
  0x55,
  0x91,
  0x84,
  0x8d,
  0x87,
  0x67,
  0x0e,
  0xe2,
  0x32,
  0x4e,
  0x52,
  0xca,
  0x4a,
  0x12,
  0x08,
  0x4d,
  0x64,
  0x9b,
  0x9a,
  0xc7,
  0x0e,
  0xb0,
  0x6e,
  0xfa,
  0xdb,
  0xd7,
  0xcc,
  0x86,
  0xcf,
  0x3f,
  0xeb,
  0x8e,
  0x5a,
  0xe2,
  0x17,
  0xfb,
  0xff,
  0xe7,
  0x3d,
  0xa3,
  0x52,
  0x4e,
  0x7f,
  0xef,
  0x4f,
  0x12,
  0x0a,
  0xb2,
  0xdb,
  0x64,
  0x65,
  0x38,
  0xf1,
  0x4f,
  0x91,
  0x05,
  0x2e,
  0x38,
  0x33,
  0x79,
  0x30,
  0xc0,
  0x15,
  0x75,
  0xa5,
  0x0d,
  0xe8,
  0x00,
  0x60,
  0x18,
  0x72,
  0x1c,
  0xad,
  0xb1,
  0xa0,
  0x10,
  0xb0,
  0xed,
  0x0d,
  0x09,
  0xa6,
  0x63,
  0xa7,
  0x29,
  0x30,
  0x18,
  0x41,
  0x81,
  0x8d,
  0xed,
  0xf2,
  0xc1,
  0xd6,
  0x65,
  0xb2,
  0xf5,
  0x24,
  0xe9,
  0x51,
  0x71,
  0xf9,
  0x4d,
  0xaa,
  0xb6,
  0xba,
  0x18,
  0x4c,
  0xac,
  0x7a,
  0xdc,
  0x0c,
  0x3c,
  0xbe,
  0xf3,
  0xa6,
  0xc8,
  0x5d,
  0xa4,
  0xa4,
  0x5f,
  0xb4,
  0x0c,
  0x6e,
  0x09,
  0xca,
  0xc5,
  0x30,
  0x43,
  0x4e,
  0xe2,
  0x79,
  0x69,
  0x67,
  0x12,
  0x09,
  0x86,
  0xeb,
  0x12,
  0x26,
  0x2c,
  0x09,
  0xb9,
  0x0b,
  0xf5,
  0xf6,
  0xb0,
  0x82,
  0xbf,
  0xac,
  0x00,
  0xe7,
  0xca,
  0x1f,
  0xc7,
  0x83,
  0x15,
  0x6a,
  0x83,
  0xc4,
  0xe7,
  0x9f,
  0xeb,
  0xd3,
  0xdf,
  0x52,
  0x5c,
  0xd5,
  0x82,
  0x5f,
  0x57,
  0x81,
  0x39,
  0x00,
  0x5b,
  0x02,
  0x72,
  0xb4,
  0xc7,
  0xab,
  0x36,
  0x52,
  0x22,
  0x7d,
  0x9e,
  0xce,
  0xed,
  0x11,
  0xe4,
  0xc0,
  0xf7,
  0x81,
  0x4c,
  0x8c,
  0xe1,
  0x87,
  0x2f,
  0xf0,
  0x43,
  0x6c,
  0x6d,
  0x6d,
  0x82,
  0x22,
  0xa0,
  0x7f,
  0x98,
  0x06,
  0x86,
  0xfa,
  0x81,
  0xa8,
  0x37,
  0xb3,
  0xd0,
  0xc0,
  0x87,
  0x0e,
  0x8a,
  0xab,
  0xe2,
  0x19,
  0xd3,
  0x32,
  0x17,
  0xe6,
  0xc5,
  0xac,
  0xcf,
  0x6e,
  0x21,
  0xda,
  0x1f,
  0xf7,
  0xc8,
  0xd4,
  0xd0,
  0xe2,
  0x05,
  0x00,
  0x7f,
  0xc3,
  0x0f,
  0xa4,
  0x68,
  0xdb,
  0x1d,
  0x8c,
  0xf4,
  0x91,
  0x1e,
  0x0f,
  0x9a,
  0x11,
  0x53,
  0x91,
  0x84,
  0x9d,
  0x87,
  0x67,
  0x0e,
  0xe7,
  0x32,
  0x4e,
  0x02,
  0xca,
  0x4a,
  0x12,
  0x0d,
  0xdb,
  0x2b,
  0x0c,
  0x9b,
  0xc7,
  0x0e,
  0xe0,
  0x6e,
  0xfa,
  0xdb,
  0xd9,
  0xcc,
  0x86,
  0x4f,
  0x3f,
  0xeb,
  0x8e,
  0x53,
  0xe2,
  0x17,
  0x8b,
  0xff,
  0xe7,
  0x3d,
  0xad,
  0x52,
  0x4e,
  0x3f,
  0xef,
  0x4f,
  0x12,
  0x90,
  0x72,
  0x38,
  0x0e,
  0x65,
  0x38,
  0xf1,
  0x1f,
  0x91,
  0x05,
  0x2e,
  0x36,
  0x33,
  0x79,
  0xb0,
  0xc0,
  0x15,
  0x75,
  0xac,
  0x0d,
  0xe8,
  0x70,
  0x60,
  0x18,
  0x72,
  0x10,
  0xad,
  0xb1,
  0xc0,
  0x10,
  0xb0,
  0xed,
  0x6b,
  0x8d,
  0xc7,
  0x01,
  0xaa,
  0xc7,
  0xcd,
  0x96,
  0x46,
  0x6c,
  0xfe,
  0x65,
  0xed,
  0x98,
  0xb8,
  0x46,
  0x7f,
  0x70,
  0xcb,
  0x29,
  0xfd,
  0x6b,
  0x3b,
  0xb4,
  0xb9,
  0x3b,
  0x3a,
  0x68,
  0x7b,
  0xbd,
  0xd5,
  0xaa,
  0xde,
  0xac,
  0x6b,
  0x0b,
  0x92,
  0x90,
  0xbb,
  0xe1,
  0xbf,
  0x99,
  0xcb,
  0x6a,
  0xdb,
  0x6b,
  0x41,
  0x4d,
  0xfd,
  0x36,
  0x3f,
  0xe6,
  0xdb,
  0xc6,
  0x62,
  0x6a,
  0x4c,
  0x61,
  0xcb,
  0xce,
  0x6f,
  0x88,
  0x4f,
  0x69,
  0x76,
  0x78,
  0xf9,
  0x0e,
  0x03,
  0xb0,
  0x25,
  0x8e,
  0xd4,
  0xa2,
  0x4b,
  0xbe,
  0x6d,
  0x10,
  0x10,
  0x79,
  0x8f,
  0xb1,
  0x3f,
  0x51,
  0xf1,
  0xea,
  0xbe,
  0xac,
  0x67,
  0x6a,
  0xe7,
  0xc7,
  0xaa,
  0x16,
  0x1a,
  0x60,
  0x0c,
  0x05,
  0xcf,
  0x0a,
  0xfa,
  0x87,
  0x69,
  0x65,
  0x64,
  0x09,
  0x0d,
  0x8c,
  0x5f,
  0x17,
  0x82,
  0x1b,
  0x59,
  0xef,
  0xd9,
  0x5e,
  0xba,
  0x19,
  0x11,
  0x83,
  0x28,
  0xd7,
  0x9b,
  0x07,
  0x1a,
  0x2f,
  0x2c,
  0x67,
  0xcd,
  0x50,
  0x96,
  0x01,
  0x2d,
  0x5e,
  0x00,
  0x1b,
  0x7e,
  0x7f,
  0x05,
  0xbb,
  0x57,
  0x62,
  0x3d,
  0xba,
  0xd6,
  0x06,
  0x0b,
  0x40,
  0xa4,
  0xa3,
  0xfb,
  0x31,
  0x34,
  0x0e,
  0x69,
  0x24,
  0xe9,
  0x32,
  0xc1,
  0x62,
  0x8e,
  0xd5,
  0xa4,
  0x07,
  0xb0,
  0xbd,
  0xc2,
  0x73,
  0xda,
  0x73,
  0xf7,
  0x3a,
  0x0e,
  0x65,
  0x9e,
  0x0e,
  0xfd,
  0x07,
  0xd6,
  0x78,
  0x22,
  0x30,
  0xb4,
  0x04,
  0x6a,
  0x85,
  0x3c,
  0x9a,
  0x36,
  0x08,
  0xb7,
  0x18,
  0x34,
  0xd3,
  0x23,
  0x09,
  0x29,
  0x87,
  0xe3,
  0x61,
  0x50,
  0x2d,
  0xa4,
  0xa0,
  0x5e,
  0x20,
  0xff,
  0xaa,
  0x6f,
  0x05,
  0x5f,
  0xd4,
  0x29,
  0xf0,
  0xf3,
  0x30,
  0x6e,
  0xc5,
  0x3e,
  0x12,
  0x62,
  0xf4,
  0xd1,
  0x1b,
  0x30,
  0x63,
  0x22,
  0x08,
  0xd6,
  0x78,
  0x1c,
  0x9e,
  0xaf,
  0x96,
  0x5a,
  0x5f,
  0xa1,
  0x9f,
  0x00,
  0x55,
  0x90,
  0xfa,
  0xa0,
  0x2b,
  0xd6,
  0x0f,
  0x0c,
  0xcf,
  0x91,
  0x3a,
  0xc3,
  0xfd,
  0x99,
  0xcb,
  0x0e,
  0xe4,
  0xcb,
  0x8c,
  0xdd,
  0x06,
  0x91,
  0x46,
  0x6c,
  0xfe,
  0x65,
  0xed,
  0x98,
  0xbc,
  0x46,
  0x7f,
  0x90,
  0xcb,
  0x29,
  0xfd,
  0x66,
  0x3b,
  0xb4,
  0x19,
  0x3b,
  0x3a,
  0x68,
  0x7e,
  0xbd,
  0xd5,
  0x9a,
  0xde,
  0xac,
  0x6b,
  0xee,
  0xb8,
  0xaf,
  0x0b,
  0xe3,
  0xbf,
  0x99,
  0x2b,
  0x6a,
  0xdb,
  0x6b,
  0x4c,
  0x4d,
  0xfd,
  0xd6,
  0x3f,
  0xe6,
  0xdb,
  0xcd,
  0x62,
  0x6a,
  0x4c,
  0x61,
  0xcb,
  0xce,
  0x6d,
  0x88,
  0x4f,
  0x29,
  0x76,
  0x78,
  0xf9,
  0x75,
  0xc9,
  0x4e,
  0x0b,
  0x89,
  0xd4,
  0xa2,
  0x7b,
  0xbe,
  0x6d,
  0x10,
  0x13,
  0x79,
  0x8f,
  0xc1,
  0x3f,
  0x51,
  0xf1,
  0xeb,
  0xbe,
  0xac,
  0xf7,
  0x6a,
  0xe7,
  0xc7,
  0xac,
  0x16,
  0x1a,
  0xe0,
  0x0c,
  0x05,
  0xcf,
  0x6a,
  0xf9,
  0x9f,
  0x01,
  0x62,
  0x64,
  0x09,
  0xcd,
  0x8c,
  0x5f,
  0x17,
  0x8e,
  0x1b,
  0x59,
  0xcf,
  0xd9,
  0x5e,
  0xba,
  0x10,
  0x11,
  0x83,
  0xe8,
  0xd7,
  0x9b,
  0x07,
  0x14,
  0x2f,
  0x2c,
  0xa7,
  0xcd,
  0x50,
  0x96,
  0x6c,
  0x51,
  0xe3,
  0x01,
  0x12,
  0x7e,
  0x7f,
  0x15,
  0xbb,
  0x57,
  0x62,
  0x32,
  0xba,
  0xd6,
  0xf6,
  0x0b,
  0x40,
  0xa4,
  0xaf,
  0xfb,
  0x31,
  0x84,
  0x0e,
  0x69,
  0x24,
  0xe7,
  0x32,
  0xc1,
  0xa2,
  0x8e,
  0xd5,
  0xa4,
  0x73,
  0x2c,
  0xf7,
  0x08,
  0x7d,
  0xda,
  0x73,
  0xc7,
  0x3a,
  0x0e,
  0x65,
  0x9d,
  0x0e,
  0xfd,
  0xa7,
  0xd6,
  0x78,
  0x22,
  0x31,
  0xb4,
  0x04,
  0xba,
  0x85,
  0x3c,
  0x9a,
  0x33,
  0x08,
  0xb7,
  0x38,
  0x34,
  0xd3,
  0x23,
  0x18,
  0xd7,
  0xcf,
  0x0c,
  0x63,
  0x50,
  0x2d,
  0xa4,
  0xa0,
  0x5e,
  0x20,
  0xff,
  0xaa,
  0x6f,
  0x75,
  0x5f,
  0xd4,
  0x29,
  0xf4,
  0xf3,
  0x30,
  0x3e,
  0xc5,
  0x3e,
  0x12,
  0x62,
  0xf4,
  0xd1,
  0x2b,
  0x30,
  0x63,
  0x22,
  0x39,
  0x8b,
  0xda,
  0x0c,
  0x9c,
  0xaf,
  0x96,
  0x5a,
  0x5f,
  0xa1,
  0x9f,
  0x00,
  0x55,
  0x90,
  0x0a,
  0xa0,
  0x2b,
  0xd6,
  0x0b,
  0x0c,
  0xcf,
  0xc1,
  0x3a,
  0xc3,
  0xfd,
  0x9d,
  0xcb,
  0x0e,
  0xd4,
  0xcb,
  0x8c,
  0xdd,
  0xc7,
  0x74,
  0x21,
  0x03,
  0x8e,
  0xfb,
  0xba,
  0xa5,
  0x04,
  0xc6,
  0x66,
  0x35,
  0x85,
  0x2c,
  0xf2,
  0xa9,
  0x11,
  0xf7,
  0xab,
  0xfc,
  0x94,
  0xf6,
  0xe1,
  0x8e,
  0x16,
  0xd4,
  0x99,
  0x1b,
  0x9d,
  0x7c,
  0xc8,
  0xf4,
  0x66,
  0x9a,
  0x85,
  0x09,
  0x97,
  0xec,
  0xb4,
  0xa7,
  0x80,
  0x5a,
  0xa2,
  0x53,
  0x55,
  0x65,
  0xb3,
  0xde,
  0x64,
  0x18,
  0xed,
  0xe9,
  0x0f,
  0xe3,
  0x4f,
  0x8c,
  0x05,
  0xb7,
  0x6b,
  0x0c,
  0xc2,
  0xa7,
  0x0e,
  0x50,
  0xe2,
  0x57,
  0x1a,
  0x01,
  0x96,
  0xff,
  0x19,
  0x45,
  0xb3,
  0x08,
  0x3b,
  0x90,
  0x25,
  0xd2,
  0x0c,
  0xeb,
  0x50,
  0x2e,
  0x35,
  0xa1,
  0x4f,
  0x73,
  0x87,
  0x90,
  0x05,
  0x9e,
  0x79,
  0xc9,
  0x1d,
  0x5c,
  0x59,
  0x39,
  0x3f,
  0x85,
  0xe1,
  0x0b,
  0x16,
  0x35,
  0x1e,
  0x6f,
  0xf2,
  0xb7,
  0x72,
  0x13,
  0x27,
  0x43,
  0x5b,
  0xf6,
  0xd4,
  0x51,
  0xba,
  0xdb,
  0x26,
  0x40,
  0x37,
  0xe0,
  0x4f,
  0xfc,
  0xf1,
  0x78,
  0xcd,
  0x1d,
  0xa6,
  0x61,
  0xf1,
  0xd6,
  0x07,
  0x02,
  0xc7,
  0x72,
  0x8f,
  0xb9,
  0x8d,
  0x92,
  0x41,
  0xbd,
  0x56,
  0xe6,
  0xec,
  0x1c,
  0xc4,
  0x40,
  0xe1,
  0xdd,
  0x28,
  0x63,
  0x45,
  0xa9,
  0x70,
  0x75,
  0x01,
  0x63,
  0x64,
  0x50,
  0xfb,
  0x3a,
  0xe7,
  0xa6,
  0xce,
  0x00,
  0x71,
  0xfd,
  0xcc,
  0xed,
  0xd1,
  0xca,
  0xaa,
  0x81,
  0x73,
  0xc6,
  0xfe,
  0xd2,
  0x97,
  0x79,
  0x9c,
  0x93,
  0x38,
  0xfb,
  0xb3,
  0xe9,
  0x4e,
  0x0a,
  0x67,
  0x5b,
  0x64,
  0x81,
  0x33,
  0xcb,
  0xf1,
  0x03,
  0xb1,
  0x01,
  0xb3,
  0xa8,
  0xcd,
  0xad,
  0xd0,
  0xa2,
  0x82,
  0x81,
  0xa3,
  0xa2,
  0x2f,
  0xdc,
  0x15,
  0x1a,
  0x07,
  0x57,
  0x3c,
  0xbd,
  0x88,
  0xa8,
  0x1c,
  0x74,
  0x21,
  0x5c,
  0xe7,
  0x03,
  0x0a,
  0xca,
  0x79,
  0xa0,
  0xb5,
  0x02,
  0x4c,
  0x17,
  0x32,
  0x52,
  0x2f,
  0x5d,
  0x7d,
  0x7e,
  0x0c,
  0x19,
  0xd0,
  0x23,
  0xea,
  0xe7,
  0xf8,
  0xa8,
  0xc3,
  0x46,
  0x7e,
  0x57,
  0xe3,
  0x8b,
  0xdc,
  0xa3,
  0x18,
  0xfe,
  0xf5,
  0x35,
  0x86,
  0x5d,
  0x4a,
  0x0d,
  0xa4,
  0x04,
  0xc6,
  0x26,
  0x35,
  0x85,
  0x2c,
  0xfa,
  0xa9,
  0x11,
  0x57,
  0xab,
  0xfc,
  0x94,
  0xfb,
  0xe1,
  0x8e,
  0x86,
  0xd4,
  0x99,
  0x1b,
  0x97,
  0x7c,
  0xc8,
  0x44,
  0x66,
  0x9a,
  0x85,
  0x03,
  0x6c,
  0xa6,
  0x03,
  0xa0,
  0x80,
  0x5a,
  0x62,
  0x53,
  0x55,
  0x65,
  0xbc,
  0xde,
  0x64,
  0xf8,
  0xed,
  0xe9,
  0x0f,
  0xe9,
  0x4f,
  0x8c,
  0xf5,
  0xb7,
  0x6b,
  0x0c,
  0xce,
  0xa7,
  0x0e,
  0x60,
  0xe2,
  0x57,
  0x1a,
  0xbd,
  0xb4,
  0x44,
  0x01,
  0x4c,
  0xb3,
  0x08,
  0x2b,
  0x90,
  0x25,
  0xd2,
  0x04,
  0xeb,
  0x50,
  0xfe,
  0x35,
  0xa1,
  0x4f,
  0x79,
  0x87,
  0x90,
  0x15,
  0x9e,
  0x79,
  0xc9,
  0x13,
  0x5c,
  0x59,
  0x29,
  0x3f,
  0x85,
  0xe1,
  0xa5,
  0x0c,
  0x2f,
  0x0d,
  0x63,
  0xf2,
  0xb7,
  0x62,
  0x13,
  0x27,
  0x43,
  0x54,
  0xf6,
  0xd4,
  0x01,
  0xba,
  0xdb,
  0x26,
  0x4b,
  0x37,
  0xe0,
  0xef,
  0xfc,
  0xf1,
  0x78,
  0xc5,
  0x1d,
  0xa6,
  0xb1,
  0xf1,
  0xd6,
  0x07,
  0x0d,
  0x0c,
  0x39,
  0x08,
  0xb1,
  0x8d,
  0x92,
  0x11,
  0xbd,
  0x56,
  0xe6,
  0xe0,
  0x1c,
  0xc4,
  0x00,
  0xe1,
  0xdd,
  0x28,
  0x6f,
  0x45,
  0xa9,
  0xc0,
  0x75,
  0x01,
  0x63,
  0x69,
  0x50,
  0xfb,
  0xca,
  0xe7,
  0xa6,
  0xce,
  0xae,
  0xda,
  0xb1,
  0x0b,
  0xe4,
  0xd1,
  0xca,
  0xba,
  0x81,
  0x73,
  0xc6,
  0xf6,
  0xd2,
  0x97,
  0x79,
  0x9c,
  0x93,
  0x38,
  0xfc,
  0xb3,
  0xe9,
  0x7e,
  0x0a,
  0x67,
  0x5b,
  0x6a,
  0x81,
  0x33,
  0x3b,
  0xf1,
  0x03,
  0xb1,
  0xc2,
  0x9a,
  0xc5,
  0x0b,
  0xa5,
  0xd0,
  0xa2,
  0xa2,
  0x81,
  0xa3,
  0xa2,
  0x23,
  0xdc,
  0x15,
  0x3a,
  0x07,
  0x57,
  0x3c,
  0xbe,
  0x88,
  0xa8,
  0x6c,
  0x74,
  0x21,
  0x5c,
  0xe4,
  0x03,
  0x0a,
  0xba,
  0x79,
  0xa0,
  0xb5,
  0xe0,
  0x1b,
  0xe5,
  0x09,
  0x5a,
  0x2f,
  0x5d,
  0x5d,
  0x7e,
  0x0c,
  0x19,
  0xdd,
  0x23,
  0xea,
  0xc7,
  0xf8,
  0xa8,
  0xc3,
  0x41,
  0x7e,
  0x57,
  0x93,
  0x8b,
  0xdc,
  0xa3,
  0x1b,
  0xfe,
  0xf5,
  0x45,
  0x86,
  0x5d,
  0x4a,
  0x1f,
  0xe5,
  0x1a,
  0x04,
  0xc0,
  0x66,
  0x3a,
  0x4d,
  0xa2,
  0x16,
  0xc2,
  0xa1,
  0xd6,
  0x37,
  0x04,
  0xcf,
  0x99,
  0x33,
  0x62,
  0xa5,
  0xe0,
  0xb8,
  0xf6,
  0x58,
  0x4b,
  0xe0,
  0xb9,
  0xee,
  0xef,
  0xf5,
  0xf2,
  0x6f,
  0x7d,
  0x2d,
  0x00,
  0x0c,
  0x4b,
  0x4b,
  0x14,
  0xf5,
  0x8d,
  0xbd,
  0x7b,
  0xfe,
  0x7d,
  0xa4,
  0x9a,
  0x82,
  0x92,
  0x9f,
  0x23,
  0xb0,
  0xb7,
  0x6d,
  0xd3,
  0x90,
  0xbe,
  0xd5,
  0x27,
  0x42,
  0x26,
  0x46,
  0x6d,
  0x65,
  0x4d,
  0x14,
  0x1e,
  0x00,
  0xca,
  0xf0,
  0xd2,
  0x80,
  0x76,
  0x71,
  0xd6,
  0x5e,
  0x2d,
  0xbf,
  0xd0,
  0x87,
  0x19,
  0x50,
  0x82,
  0x60,
  0x78,
  0xec,
  0x5b,
  0x79,
  0xa3,
  0xf0,
  0x47,
  0x8b,
  0x66,
  0x28,
  0x77,
  0x7e,
  0x3e,
  0x71,
  0x66,
  0x0b,
  0xc0,
  0x90,
  0x83,
  0x8c,
  0xf9,
  0xc4,
  0x44,
  0x41,
  0x97,
  0x8b,
  0x44,
  0x8a,
  0x98,
  0x40,
  0x7f,
  0x99,
  0x2d,
  0x70,
  0x09,
  0x77,
  0x1a,
  0xf6,
  0x11,
  0xd4,
  0x82,
  0x89,
  0x26,
  0xb7,
  0x86,
  0x70,
  0x3c,
  0x0f,
  0xaa,
  0x1d,
  0xbb,
  0x3d,
  0x56,
  0x4f,
  0x66,
  0xc1,
  0xca,
  0x0b,
  0x28,
  0x28,
  0xfd,
  0xb9,
  0xd0,
  0xd7,
  0x7d,
  0x12,
  0x1a,
  0x18,
  0xfb,
  0x70,
  0x8d,
  0x1e,
  0x37,
  0x56,
  0xbd,
  0x3f,
  0x02,
  0xb4,
  0xad,
  0x0b,
  0xac,
  0x59,
  0xbc,
  0x41,
  0x9d,
  0x83,
  0x99,
  0xae,
  0x81,
  0xbf,
  0x19,
  0x23,
  0x3e,
  0x07,
  0xe4,
  0x83,
  0xc1,
  0x02,
  0x26,
  0x91,
  0xdc,
  0xa4,
  0xda,
  0xc6,
  0x39,
  0xae,
  0xdf,
  0x91,
  0x08,
  0x84,
  0x01,
  0x0a,
  0xbe,
  0x51,
  0x9e,
  0x51,
  0x55,
  0xcd,
  0x1a,
  0x0c,
  0xa1,
  0x3f,
  0x1d,
  0x74,
  0xf8,
  0x37,
  0x14,
  0xb3,
  0x79,
  0x12,
  0x1a,
  0x9f,
  0x37,
  0xf4,
  0x76,
  0xda,
  0x0b,
  0x8e,
  0x15,
  0xcf,
  0x0a,
  0x95,
  0x05,
  0x0c,
  0x51,
  0xae,
  0x41,
  0xae,
  0x2a,
  0x32,
  0xe5,
  0xf3,
  0x7e,
  0xc0,
  0xe6,
  0x8b,
  0x01,
  0xc8,
  0xab,
  0x4c,
  0x86,
  0xed,
  0xe5,
  0x64,
  0x08,
  0x0b,
  0x8d,
  0x25,
  0xf4,
  0x71,
  0xea,
  0x30,
  0xf5,
  0x7a,
  0xfa,
  0x03,
  0x48,
  0xa2,
  0x16,
  0x52,
  0xa1,
  0xd6,
  0x37,
  0x0e,
  0xcf,
  0x99,
  0x43,
  0x62,
  0xa5,
  0xe0,
  0xbc,
  0xf6,
  0x58,
  0xfb,
  0xe0,
  0xb9,
  0xee,
  0xef,
  0xf5,
  0xf2,
  0x3f,
  0x7d,
  0x2d,
  0x00,
  0x84,
  0x2e,
  0xbb,
  0x07,
  0xfc,
  0x8d,
  0xbd,
  0x9b,
  0xfe,
  0x7d,
  0xa4,
  0x94,
  0x82,
  0x92,
  0x2f,
  0x23,
  0xb0,
  0xb7,
  0x61,
  0xd3,
  0x90,
  0x4e,
  0xd5,
  0x27,
  0x42,
  0x20,
  0x46,
  0x6d,
  0xc5,
  0x4d,
  0x14,
  0x1e,
  0xb0,
  0x81,
  0xfb,
  0x0d,
  0x8f,
  0x76,
  0x71,
  0x96,
  0x5e,
  0x2d,
  0xbf,
  0xd9,
  0x87,
  0x19,
  0xe0,
  0x82,
  0x60,
  0x78,
  0xe2,
  0x5b,
  0x79,
  0x53,
  0xf0,
  0x47,
  0x8b,
  0x60,
  0x28,
  0x77,
  0xde,
  0x3e,
  0x71,
  0x66,
  0xd7,
  0x0b,
  0xd5,
  0x05,
  0x84,
  0xf9,
  0xc4,
  0xc4,
  0x41,
  0x97,
  0x8b,
  0x45,
  0x8a,
  0x98,
  0x30,
  0x7f,
  0x99,
  0x2d,
  0x75,
  0x09,
  0x77,
  0xca,
  0xf6,
  0x11,
  0xd4,
  0x8e,
  0x89,
  0x26,
  0x27,
  0x86,
  0x70,
  0x3c,
  0x78,
  0x64,
  0x3c,
  0x07,
  0x33,
  0x56,
  0x4f,
  0xb6,
  0xc1,
  0xca,
  0x0b,
  0x21,
  0x28,
  0xfd,
  0x19,
  0xd0,
  0xd7,
  0x7d,
  0x1f,
  0x1a,
  0x18,
  0xfb,
  0x70,
  0x8d,
  0x1e,
  0x3c,
  0x56,
  0xbd,
  0xcf,
  0x02,
  0xb4,
  0xad,
  0x1b,
  0x6a,
  0x77,
  0x0a,
  0x4e,
  0x9d,
  0x83,
  0x89,
  0xae,
  0x81,
  0xbf,
  0x18,
  0x23,
  0x3e,
  0x47,
  0xe4,
  0x83,
  0xc1,
  0x04,
  0x26,
  0x91,
  0x2c,
  0xa4,
  0xda,
  0xc6,
  0x32,
  0xae,
  0xdf,
  0x51,
  0x08,
  0x84,
  0x01,
  0x6c,
  0xd7,
  0xeb,
  0x02,
  0x5e,
  0x55,
  0xcd,
  0xea,
  0x0c,
  0xa1,
  0x3f,
  0x1f,
  0x74,
  0xf8,
  0x47,
  0x14,
  0xb3,
  0x79,
  0x11,
  0x1a,
  0x9f,
  0x27,
  0xf4,
  0x76,
  0xda,
  0x04,
  0x8e,
  0x15,
  0xcf,
  0x0a,
  0x95,
  0x05,
  0x65,
  0x67,
  0xf2,
  0x0a,
  0xa1,
  0x2a,
  0x32,
  0x55,
  0xf3,
  0x7e,
  0xc0,
  0xe0,
  0x8b,
  0x01,
  0xb8,
  0xab,
  0x4c,
  0x86,
  0xea,
  0xe5,
  0x64,
  0xd8,
  0x0b,
  0x8d,
  0x25,
  0xfb,
  0x71,
  0xea,
  0x30,
  0xf5,
  0x7a,
  0xfa,
  0x9a,
  0x98,
  0x0d,
  0x05,
  0xe8,
  0xb2,
  0x7b,
  0x42,
  0xbe,
  0x25,
  0x08,
  0x23,
  0x78,
  0x60,
  0x1d,
  0xbb,
  0x0d,
  0x25,
  0x47,
  0xc0,
  0x5f,
  0xd7,
  0x84,
  0x77,
  0xf5,
  0x0d,
  0xef,
  0xdb,
  0xa9,
  0x2f,
  0xd0,
  0x4d,
  0x3d,
  0x19,
  0x59,
  0x04,
  0x1b,
  0xb8,
  0xdf,
  0xb6,
  0xf0,
  0xc6,
  0xb1,
  0xc9,
  0xac,
  0x12,
  0x9d,
  0x21,
  0xe0,
  0xbf,
  0x85,
  0xec,
  0x57,
  0xa0,
  0x8a,
  0xe6,
  0x31,
  0xca,
  0x13,
  0x15,
  0x11,
  0x50,
  0xa9,
  0x98,
  0xc0,
  0x2d,
  0x6a,
  0x05,
  0xbd,
  0x50,
  0x5d,
  0x0c,
  0x6e,
  0x28,
  0xf3,
  0x36,
  0x37,
  0x56,
  0x58,
  0x61,
  0x52,
  0x51,
  0x38,
  0xca,
  0x2d,
  0xa5,
  0x3b,
  0xd2,
  0xf3,
  0x4c,
  0x79,
  0xed,
  0x73,
  0xa9,
  0x9e,
  0x3d,
  0xc9,
  0x11,
  0x6d,
  0x02,
  0x47,
  0xc6,
  0x73,
  0xa5,
  0x6f,
  0x6f,
  0xdb,
  0x54,
  0x7e,
  0xfd,
  0x5e,
  0x38,
  0x2d,
  0x6d,
  0x0c,
  0x23,
  0x71,
  0x5e,
  0x82,
  0xa2,
  0x2d,
  0x81,
  0xe3,
  0x7e,
  0x52,
  0x03,
  0x3c,
  0x1c,
  0x93,
  0x71,
  0x09,
  0x02,
  0xa1,
  0x76,
  0xa7,
  0xd3,
  0xcc,
  0xc3,
  0xe3,
  0x89,
  0x24,
  0x55,
  0xd0,
  0x98,
  0x7c,
  0x98,
  0xf7,
  0xb0,
  0x92,
  0x6b,
  0xc0,
  0x33,
  0x74,
  0xe0,
  0xb9,
  0xe3,
  0x80,
  0xc3,
  0x54,
  0xc5,
  0xf0,
  0xdc,
  0x8a,
  0x09,
  0x76,
  0xbd,
  0x2e,
  0x7d,
  0xda,
  0xf3,
  0xe3,
  0x0d,
  0x3d,
  0x24,
  0x3a,
  0xae,
  0x5b,
  0x7f,
  0x11,
  0x3d,
  0x10,
  0x75,
  0x38,
  0x24,
  0x78,
  0xd9,
  0xa3,
  0x60,
  0x3f,
  0x58,
  0x60,
  0x0f,
  0x81,
  0x7e,
  0xfb,
  0x05,
  0x76,
  0x26,
  0xaf,
  0x6d,
  0x40,
  0xe2,
  0xef,
  0xfd,
  0x5d,
  0x75,
  0xca,
  0x0e,
  0x4d,
  0x7f,
  0x15,
  0xdc,
  0xb1,
  0x74,
  0x11,
  0xb2,
  0xa0,
  0xdf,
  0xa3,
  0x63,
  0x1e,
  0xeb,
  0xc8,
  0x0f,
  0x05,
  0x76,
  0x8a,
  0x0f,
  0x89,
  0xd9,
  0x50,
  0x82,
  0xbf,
  0x1d,
  0x10,
  0x22,
  0xa2,
  0x8a,
  0x35,
  0xf1,
  0xb2,
  0x80,
  0xea,
  0x63,
  0x4e,
  0x83,
  0xef,
  0x4d,
  0x5f,
  0x24,
  0x5c,
  0x9e,
  0xe1,
  0x34,
  0xb7,
  0xf0,
  0x7e,
  0x89,
  0x75,
  0x00,
  0x40,
  0xbe,
  0x25,
  0x78,
  0x23,
  0x78,
  0x60,
  0x12,
  0xbb,
  0x0d,
  0x75,
  0x47,
  0xc0,
  0x5f,
  0xd5,
  0x84,
  0x77,
  0xb5,
  0x0d,
  0xef,
  0xdb,
  0xa7,
  0x2f,
  0xd0,
  0x9d,
  0x3d,
  0x19,
  0x59,
  0x49,
  0x39,
  0x51,
  0x08,
  0xb1,
  0xf0,
  0xc6,
  0x21,
  0xc9,
  0xac,
  0x12,
  0x94,
  0x21,
  0xe0,
  0xcf,
  0x85,
  0xec,
  0x57,
  0xae,
  0x8a,
  0xe6,
  0x01,
  0xca,
  0x13,
  0x15,
  0x1a,
  0x50,
  0xa9,
  0x38,
  0xc0,
  0x2d,
  0x6a,
  0x8d,
  0xfb,
  0x99,
  0x0c,
  0x08,
  0x6e,
  0x28,
  0xa3,
  0x36,
  0x37,
  0x56,
  0x56,
  0x61,
  0x52,
  0x61,
  0x38,
  0xca,
  0x2d,
  0xae,
  0x3b,
  0xd2,
  0x93,
  0x4c,
  0x79,
  0xed,
  0x73,
  0xa9,
  0x9e,
  0xdd,
  0xc9,
  0x11,
  0x6d,
  0xec,
  0x8d,
  0x4d,
  0x0a,
  0xa5,
  0x6f,
  0x6f,
  0xcb,
  0x54,
  0x7e,
  0xfd,
  0x5f,
  0x38,
  0x2d,
  0x3d,
  0x0c,
  0x23,
  0x71,
  0x5a,
  0x82,
  0xa2,
  0x3d,
  0x81,
  0xe3,
  0x7e,
  0x58,
  0x03,
  0x3c,
  0x1c,
  0x93,
  0x71,
  0x09,
  0xd4,
  0xec,
  0x87,
  0x01,
  0xdf,
  0xcc,
  0xc3,
  0xf3,
  0x89,
  0x24,
  0x55,
  0xd5,
  0x98,
  0x7c,
  0x08,
  0xf7,
  0xb0,
  0x92,
  0x68,
  0xc0,
  0x33,
  0x04,
  0xe0,
  0xb9,
  0xe3,
  0x8d,
  0xc3,
  0x54,
  0xa5,
  0xf0,
  0xdc,
  0x8a,
  0x14,
  0x2e,
  0x10,
  0x0e,
  0x7b,
  0xda,
  0xf3,
  0x33,
  0x0d,
  0x3d,
  0x24,
  0x3b,
  0xae,
  0x5b,
  0xbf,
  0x11,
  0x3d,
  0x10,
  0x76,
  0x38,
  0x24,
  0x58,
  0xd9,
  0xa3,
  0x60,
  0x3d,
  0x58,
  0x60,
  0x1f,
  0x81,
  0x7e,
  0xfb,
  0x17,
  0xdb,
  0x54,
  0x02,
  0x6b,
  0x40,
  0xe2,
  0xbf,
  0xfd,
  0x5d,
  0x75,
  0xc7,
  0x0e,
  0x4d,
  0xbf,
  0x15,
  0xdc,
  0xb1,
  0x7b,
  0x11,
  0xb2,
  0x10,
  0xdf,
  0xa3,
  0x63,
  0x10,
  0xeb,
  0xc8,
  0x1f,
  0x05,
  0x76,
  0x8a,
  0x11,
  0xaf,
  0x93,
  0x02,
  0x84,
  0xbf,
  0x1d,
  0x40,
  0x22,
  0xa2,
  0x8a,
  0x38,
  0xf1,
  0xb2,
  0x40,
  0xea,
  0x63,
  0x4e,
  0x84,
  0xef,
  0x4d,
  0xef,
  0x24,
  0x5c,
  0x9e,
  0xe6,
  0x34,
  0xb7,
  0xe0,
  0x7e,
  0x89,
  0x75,
  0xee,
  0xd0,
  0x6e,
  0x0d,
  0x94,
  0x13,
  0x85,
  0xa3,
  0x32,
  0xcb,
  0x78,
  0xa9,
  0x84,
  0x56,
  0x3f,
  0x96,
  0xe9,
  0x7d,
  0xdd,
  0xb3,
  0xed,
  0x4e,
  0xfd,
  0xb3,
  0x32,
  0x1a,
  0xb4,
  0xfa,
  0x4d,
  0x65,
  0xf4,
  0x9a,
  0xca,
  0x91,
  0x8d,
  0x03,
  0xb8,
  0x9f,
  0xc9,
  0xa0,
  0x48,
  0xb5,
  0xbe,
  0x27,
  0x9e,
  0x05,
  0x2d,
  0xf6,
  0xcd,
  0x0d,
  0x9e,
  0x4e,
  0x33,
  0x20,
  0x21,
  0x85,
  0x23,
  0x54,
  0x26,
  0xaa,
  0x24,
  0x94,
  0xa9,
  0x9a,
  0xf3,
  0xa8,
  0xb1,
  0x0e,
  0xde,
  0xd8,
  0xa4,
  0xc2,
  0x22,
  0x49,
  0x00,
  0x3e,
  0xe7,
  0x96,
  0x07,
  0xcf,
  0x79,
  0x86,
  0x06,
  0x93,
  0xb5,
  0xf8,
  0x73,
  0x19,
  0x0a,
  0x00,
  0x3a,
  0x98,
  0xa3,
  0x03,
  0x16,
  0xb8,
  0x27,
  0xbc,
  0x41,
  0x08,
  0xcd,
  0x7e,
  0x18,
  0x9a,
  0xfe,
  0x3a,
  0x4f,
  0xcd,
  0x91,
  0x49,
  0x71,
  0xdc,
  0xd1,
  0x47,
  0x10,
  0xc3,
  0x30,
  0x36,
  0xe9,
  0x60,
  0x53,
  0xee,
  0x63,
  0x23,
  0x6c,
  0x35,
  0x95,
  0x1e,
  0x24,
  0xdf,
  0xd7,
  0x0c,
  0xe1,
  0x02,
  0xe1,
  0x84,
  0xaf,
  0xea,
  0x32,
  0xe5,
  0x2b,
  0xcf,
  0xcb,
  0xef,
  0xc4,
  0x2d,
  0x18,
  0x6a,
  0x9a,
  0x81,
  0xa6,
  0xa9,
  0xe3,
  0x59,
  0x69,
  0x52,
  0xde,
  0x32,
  0xc5,
  0x2b,
  0xf7,
  0x72,
  0x91,
  0x05,
  0xb1,
  0x4d,
  0x25,
  0x49,
  0x8f,
  0x12,
  0x15,
  0x77,
  0xf7,
  0x7c,
  0xba,
  0x83,
  0x7c,
  0xc8,
  0xe2,
  0x83,
  0xd1,
  0x66,
  0x54,
  0x78,
  0x17,
  0x10,
  0x3c,
  0x76,
  0xa7,
  0x16,
  0x1b,
  0x14,
  0x74,
  0x94,
  0x86,
  0x04,
  0xf1,
  0x3a,
  0x29,
  0x5e,
  0x8c,
  0x52,
  0x25,
  0xa3,
  0xf7,
  0x15,
  0x2d,
  0x8c,
  0x31,
  0x01,
  0xf7,
  0xc3,
  0x9a,
  0x79,
  0x7e,
  0x63,
  0x23,
  0x99,
  0x2c,
  0xe2,
  0x6f,
  0x51,
  0x0b,
  0xb7,
  0xfe,
  0x98,
  0x91,
  0x04,
  0x0e,
  0xed,
  0xd6,
  0xa1,
  0x71,
  0xad,
  0xda,
  0xc8,
  0x08,
  0xea,
  0x50,
  0x33,
  0x8f,
  0xfe,
  0x09,
  0x3c,
  0x6d,
  0x8e,
  0x89,
  0x9c,
  0xdc,
  0x66,
  0xd3,
  0x9d,
  0x90,
  0xac,
  0xf4,
  0xc8,
  0x01,
  0x67,
  0x7e,
  0x0b,
  0xa4,
  0x32,
  0xcb,
  0x58,
  0xa9,
  0x84,
  0x56,
  0x31,
  0x96,
  0xe9,
  0x1d,
  0xdd,
  0xb3,
  0xed,
  0x46,
  0xfd,
  0xb3,
  0x72,
  0x1a,
  0xb4,
  0xfa,
  0x4c,
  0x65,
  0xf4,
  0x7a,
  0xca,
  0x91,
  0x8d,
  0xea,
  0xf7,
  0xcf,
  0x09,
  0xaf,
  0x48,
  0xb5,
  0xbe,
  0x27,
  0x9e,
  0x05,
  0x23,
  0xf6,
  0xcd,
  0x8d,
  0x9e,
  0x4e,
  0x33,
  0x27,
  0x21,
  0x85,
  0x73,
  0x54,
  0x26,
  0xaa,
  0x2c,
  0x94,
  0xa9,
  0xea,
  0xf3,
  0xa8,
  0xb1,
  0x38,
  0x11,
  0x37,
  0x03,
  0xc8,
  0x22,
  0x49,
  0xc0,
  0x3e,
  0xe7,
  0x96,
  0x02,
  0xcf,
  0x79,
  0x36,
  0x06,
  0x93,
  0xb5,
  0xf5,
  0x73,
  0x19,
  0x7a,
  0x00,
  0x3a,
  0x98,
  0xa5,
  0x03,
  0x16,
  0x48,
  0x27,
  0xbc,
  0x41,
  0x7c,
  0x1e,
  0x8c,
  0x0a,
  0x90,
  0xfe,
  0x3a,
  0x8f,
  0xcd,
  0x91,
  0x49,
  0x76,
  0xdc,
  0xd1,
  0x87,
  0x10,
  0xc3,
  0x30,
  0x33,
  0xe9,
  0x60,
  0x03,
  0xee,
  0x63,
  0x23,
  0x6d,
  0x35,
  0x95,
  0x4e,
  0x24,
  0xdf,
  0xd7,
  0xfa,
  0x40,
  0x50,
  0x04,
  0x8b,
  0xaf,
  0xea,
  0xf2,
  0xe5,
  0x2b,
  0xcf,
  0xc8,
  0xef,
  0xc4,
  0xbd,
  0x18,
  0x6a,
  0x9a,
  0x88,
  0xa6,
  0xa9,
  0x73,
  0x59,
  0x69,
  0x52,
  0xd4,
  0x32,
  0xc5,
  0x9b,
  0xf7,
  0x72,
  0x91,
  0x4a,
  0x91,
  0x82,
  0x03,
  0x43,
  0x8f,
  0x12,
  0x45,
  0x77,
  0xf7,
  0x7c,
  0xb0,
  0x83,
  0x7c,
  0x68,
  0xe2,
  0x83,
  0xd1,
  0x63,
  0x54,
  0x78,
  0x67,
  0x10,
  0x3c,
  0x76,
  0xac,
  0x16,
  0x1b,
  0x14,
  0x74,
  0x94,
  0x86,
  0x0e,
  0x6e,
  0xb4,
  0x00,
  0x5b,
  0x8c,
  0x52,
  0xc5,
  0xa3,
  0xf7,
  0x15,
  0x20,
  0x8c,
  0x31,
  0xd1,
  0xf7,
  0xc3,
  0x9a,
  0x7b,
  0x7e,
  0x63,
  0x53,
  0x99,
  0x2c,
  0xe2,
  0x6c,
  0x51,
  0x0b,
  0x97,
  0xfe,
  0x98,
  0x91,
  0x3f,
  0x4c,
  0xb0,
  0x08,
  0xa4,
  0x71,
  0xad,
  0x3a,
  0xc8,
  0x08,
  0xea,
  0x5f,
  0x33,
  0x8f,
  0x2e,
  0x09,
  0x3c,
  0x6d,
  0x84,
  0x89,
  0x9c,
  0x8c,
  0x66,
  0xd3,
  0x9d,
  0x93,
  0xac,
  0xf4,
  0x68,
  0x01,
  0x67,
  0x7e,
  0xc0,
  0xb3,
  0x4f,
  0x0f,
  0x7e,
  0xff,
  0x9c,
  0x67,
  0x01,
  0xa8,
  0x01,
  0x1c,
  0x70,
  0x2c,
  0x36,
  0x99,
  0xcb,
  0xc7,
  0xb9,
  0xe2,
  0xb8,
  0x56,
  0xb1,
  0x96,
  0x2b,
  0xf5,
  0x2d,
  0x41,
  0x18,
  0x61,
  0xe6,
  0xae,
  0x6a,
  0x2b,
  0x15,
  0x09,
  0x13,
  0x71,
  0x33,
  0xbd,
  0x63,
  0x5b,
  0x79,
  0x5e,
  0x45,
  0xa6,
  0x39,
  0x48,
  0xd5,
  0x8c,
  0x31,
  0xf8,
  0x43,
  0xd4,
  0xd5,
  0x65,
  0x9c,
  0x0c,
  0xea,
  0xf8,
  0xcd,
  0xc3,
  0x65,
  0xa8,
  0x5d,
  0x4b,
  0x6f,
  0x01,
  0xe7,
  0xc1,
  0xa8,
  0x2a,
  0xbf,
  0xfc,
  0x6b,
  0xf0,
  0x9d,
  0x5d,
  0x2c,
  0xe7,
  0x13,
  0xca,
  0x58,
  0x58,
  0x14,
  0x43,
  0x56,
  0xd3,
  0x2f,
  0x78,
  0xaf,
  0x1f,
  0x45,
  0x4c,
  0x2f,
  0xc8,
  0x59,
  0x6f,
  0x8a,
  0x04,
  0x0f,
  0x04,
  0x45,
  0x17,
  0xc1,
  0xd0,
  0xfe,
  0xa9,
  0xa1,
  0xe9,
  0x03,
  0x7f,
  0xea,
  0xf5,
  0x1a,
  0x2e,
  0xb4,
  0x58,
  0xa5,
  0xc6,
  0x15,
  0x8e,
  0x76,
  0xd4,
  0xb3,
  0x69,
  0x06,
  0x5f,
  0x41,
  0x27,
  0x7a,
  0x00,
  0x14,
  0x29,
  0x38,
  0x91,
  0x74,
  0x65,
  0xe8,
  0xef,
  0xe8,
  0xe7,
  0x21,
  0x7b,
  0x24,
  0x51,
  0x2d,
  0x53,
  0x0a,
  0xb2,
  0x9b,
  0x3c,
  0xc1,
  0x0a,
  0xa0,
  0xcd,
  0x1f,
  0x3d,
  0xa2,
  0xa2,
  0x8a,
  0x52,
  0xa4,
  0x01,
  0xe0,
  0x46,
  0x0b,
  0xbd,
  0x6f,
  0x07,
  0x42,
  0xf7,
  0xbe,
  0x9b,
  0xff,
  0x6b,
  0xa8,
  0xf6,
  0x7d,
  0xc0,
  0xf5,
  0x6d,
  0x98,
  0xa3,
  0x6d,
  0x98,
  0xad,
  0x89,
  0x2f,
  0x11,
  0x03,
  0x1d,
  0xe2,
  0xb4,
  0x95,
  0x0a,
  0xc3,
  0x04,
  0x8b,
  0xd9,
  0x70,
  0x47,
  0x30,
  0x76,
  0x25,
  0xc9,
  0x73,
  0x6a,
  0x79,
  0xe6,
  0xa6,
  0x91,
  0xf5,
  0xf4,
  0x12,
  0xaf,
  0x85,
  0x98,
  0x85,
  0xd9,
  0x3f,
  0x13,
  0x8f,
  0x24,
  0x96,
  0x5d,
  0xfd,
  0x01,
  0x3c,
  0xfb,
  0xf4,
  0x66,
  0x8d,
  0xb8,
  0x8f,
  0x89,
  0xda,
  0x36,
  0xcc,
  0x94,
  0x07,
  0x19,
  0x59,
  0x6e,
  0x0a,
  0x0b,
  0xe5,
  0x50,
  0x7a,
  0x67,
  0x7a,
  0x36,
  0xc0,
  0xcc,
  0x70,
  0xdb,
  0x79,
  0xa2,
  0x0a,
  0x0e,
  0x6b,
  0x01,
  0xa8,
  0x81,
  0x1c,
  0x70,
  0x2c,
  0x38,
  0x99,
  0xcb,
  0x37,
  0xb9,
  0xe2,
  0xb8,
  0x54,
  0xb1,
  0x96,
  0x5b,
  0xf5,
  0x2d,
  0x41,
  0x19,
  0x61,
  0xe6,
  0x9e,
  0x6a,
  0x2b,
  0x15,
  0x2b,
  0xa3,
  0x5e,
  0x03,
  0xb5,
  0x63,
  0x5b,
  0xf9,
  0x5e,
  0x45,
  0xa6,
  0x36,
  0x48,
  0xd5,
  0x3c,
  0x31,
  0xf8,
  0x43,
  0xdc,
  0xd5,
  0x65,
  0xfc,
  0x0c,
  0xea,
  0xf8,
  0xc1,
  0xc3,
  0x65,
  0x18,
  0x5d,
  0x4b,
  0x6f,
  0x0f,
  0xfc,
  0xef,
  0x00,
  0x29,
  0xbf,
  0xfc,
  0x5b,
  0xf0,
  0x9d,
  0x5d,
  0x29,
  0xe7,
  0x13,
  0xfa,
  0x58,
  0x58,
  0x14,
  0x41,
  0x56,
  0xd3,
  0x8f,
  0x78,
  0xaf,
  0x1f,
  0x45,
  0x4c,
  0x2f,
  0x68,
  0x59,
  0x6f,
  0x8a,
  0xcc,
  0x4f,
  0x0e,
  0x01,
  0x16,
  0xc1,
  0xd0,
  0xde,
  0xa9,
  0xa1,
  0xe9,
  0x0b,
  0x7f,
  0xea,
  0x85,
  0x1a,
  0x2e,
  0xb4,
  0x55,
  0xa5,
  0xc6,
  0xc5,
  0x8e,
  0x76,
  0xd4,
  0xb3,
  0x69,
  0x06,
  0x2f,
  0x41,
  0x27,
  0x7a,
  0x80,
  0x86,
  0xb3,
  0x06,
  0x9d,
  0x74,
  0x65,
  0x18,
  0xef,
  0xe8,
  0xe7,
  0x2f,
  0x7b,
  0x24,
  0x11,
  0x2d,
  0x53,
  0x0a,
  0xbf,
  0x9b,
  0x3c,
  0xe1,
  0x0a,
  0xa0,
  0xcd,
  0x1c,
  0x3d,
  0xa2,
  0xa2,
  0x8a,
  0x52,
  0xa4,
  0x47,
  0x26,
  0xc4,
  0x00,
  0xb4,
  0x6f,
  0x07,
  0xb2,
  0xf7,
  0xbe,
  0x9b,
  0xfe,
  0x6b,
  0xa8,
  0x86,
  0x7d,
  0xc0,
  0xf5,
  0x6f,
  0x98,
  0xa3,
  0x8d,
  0x98,
  0xad,
  0x89,
  0x29,
  0x11,
  0x03,
  0x3d,
  0xe2,
  0xb4,
  0x95,
  0xdb,
  0x60,
  0xf8,
  0x04,
  0xd4,
  0x70,
  0x47,
  0x90,
  0x76,
  0x25,
  0xc9,
  0x7c,
  0x6a,
  0x79,
  0x86,
  0xa6,
  0x91,
  0xf5,
  0xf6,
  0x12,
  0xaf,
  0xc5,
  0x98,
  0x85,
  0xd9,
  0x39,
  0x13,
  0x8f,
  0x14,
  0x96,
  0x5d,
  0xfd,
  0x60,
  0x4e,
  0x98,
  0x0a,
  0x6b,
  0x8d,
  0xb8,
  0x6f,
  0x89,
  0xda,
  0x36,
  0xc3,
  0x94,
  0x07,
  0x79,
  0x59,
  0x6e,
  0x0a,
  0x08,
  0xe5,
  0x50,
  0x3a,
  0x67,
  0x7a,
  0x36,
  0xc6,
  0xcc,
  0x70,
  0xeb,
  0x79,
  0xa2,
  0x0a,
  0xbf,
  0xb9,
  0x67,
  0x0d,
  0x32,
  0xea,
  0x35,
  0x20,
  0xc5,
  0x72,
  0x5b,
  0xb5,
  0x68,
  0x9f,
  0xcc,
  0xfa,
  0xba,
  0x37,
  0xe5,
  0xb9,
  0x1b,
  0xfc,
  0x58,
  0x2f,
  0xfe,
  0xcb,
  0xa4,
  0xa6,
  0x75,
  0x5f,
  0xbf,
  0x9e,
  0x38,
  0x84,
  0x3d,
  0x0a,
  0xc0,
  0xff,
  0x0e,
  0x51,
  0x45,
  0x10,
  0x34,
  0x6e,
  0xe9,
  0xbb,
  0x77,
  0x27,
  0xad,
  0x7d,
  0x5c,
  0x7d,
  0xae,
  0xfc,
  0xcc,
  0xb2,
  0xe8,
  0x81,
  0x53,
  0xd0,
  0xe4,
  0x81,
  0x51,
  0x08,
  0xa7,
  0x18,
  0x52,
  0x07,
  0xfc,
  0xe4,
  0x10,
  0x15,
  0x2c,
  0xf9,
  0x96,
  0x47,
  0x31,
  0x51,
  0xd9,
  0x2f,
  0x44,
  0x6c,
  0x23,
  0xf6,
  0x22,
  0x91,
  0xf9,
  0xf9,
  0xdb,
  0x9e,
  0x09,
  0x90,
  0x18,
  0xe4,
  0x10,
  0x27,
  0xc9,
  0x1a,
  0x2a,
  0x0f,
  0x68,
  0x38,
  0x6b,
  0x92,
  0x5d,
  0xe0,
  0xa9,
  0x5f,
  0x90,
  0xeb,
  0x7e,
  0x4d,
  0xbe,
  0x97,
  0x73,
  0x94,
  0x87,
  0xb5,
  0x99,
  0x12,
  0x75,
  0xa7,
  0x40,
  0x61,
  0xdd,
  0x50,
  0x2a,
  0xe2,
  0x15,
  0xa6,
  0x65,
  0x0d,
  0x64,
  0x42,
  0x0c,
  0x08,
  0xec,
  0x49,
  0x3a,
  0x61,
  0x59,
  0x55,
  0x49,
  0x47,
  0xee,
  0x64,
  0x5f,
  0x8f,
  0x85,
  0xd4,
  0x80,
  0x8c,
  0x6f,
  0x14,
  0xd2,
  0x5a,
  0x86,
  0x11,
  0x6a,
  0x31,
  0xa7,
  0x66,
  0xcf,
  0x07,
  0x0d,
  0x86,
  0x4f,
  0x9a,
  0x14,
  0xc8,
  0x4e,
  0x9d,
  0x1e,
  0x64,
  0xd7,
  0x37,
  0xb5,
  0xba,
  0x7f,
  0x92,
  0x7d,
  0x4d,
  0x81,
  0x57,
  0x2e,
  0x7b,
  0xee,
  0xdd,
  0x82,
  0x22,
  0xc0,
  0xc8,
  0xd3,
  0x78,
  0x13,
  0x09,
  0xe6,
  0x84,
  0xa9,
  0x3b,
  0x1c,
  0xc8,
  0x58,
  0x1e,
  0x34,
  0x15,
  0x56,
  0x02,
  0xbf,
  0x68,
  0x5b,
  0x89,
  0x2e,
  0x25,
  0x90,
  0x8d,
  0x6d,
  0x19,
  0xe4,
  0xdb,
  0xd2,
  0x88,
  0x6b,
  0x55,
  0x13,
  0x6b,
  0x7f,
  0x05,
  0x9b,
  0x7b,
  0xd6,
  0xc4,
  0xe3,
  0x17,
  0xa7,
  0x61,
  0xcd,
  0xea,
  0xa8,
  0xfd,
  0x42,
  0x97,
  0xa4,
  0x72,
  0xd1,
  0x5a,
  0x6f,
  0x72,
  0x92,
  0xe6,
  0x0b,
  0x24,
  0x3d,
  0x7f,
  0x95,
  0xaa,
  0xec,
  0x95,
  0x88,
  0x08,
  0x2b,
  0xc5,
  0x72,
  0xbb,
  0xb5,
  0x68,
  0x9f,
  0xc1,
  0xfa,
  0xba,
  0x47,
  0xe5,
  0xb9,
  0x1b,
  0xf8,
  0x58,
  0x2f,
  0x6e,
  0xcb,
  0xa4,
  0xa6,
  0x7a,
  0x5f,
  0xbf,
  0x3e,
  0x38,
  0x84,
  0x3d,
  0x7c,
  0xcc,
  0xb8,
  0x09,
  0x52,
  0x45,
  0x10,
  0x74,
  0x6e,
  0xe9,
  0xbb,
  0x78,
  0x27,
  0xad,
  0xcd,
  0x5c,
  0x7d,
  0xae,
  0xf8,
  0xcc,
  0xb2,
  0x08,
  0x81,
  0x53,
  0xd0,
  0xec,
  0x81,
  0x51,
  0xb8,
  0xa7,
  0x18,
  0x52,
  0xf4,
  0x35,
  0x14,
  0x0e,
  0x17,
  0x2c,
  0xf9,
  0xe6,
  0x47,
  0x31,
  0x51,
  0xd0,
  0x2f,
  0x44,
  0x3c,
  0x23,
  0xf6,
  0x22,
  0x91,
  0xf9,
  0xf9,
  0x6b,
  0x9e,
  0x09,
  0x90,
  0x1b,
  0xe4,
  0x10,
  0x37,
  0xc9,
  0x1a,
  0x2a,
  0x46,
  0xb2,
  0xe1,
  0x0c,
  0x9b,
  0x5d,
  0xe0,
  0xf9,
  0x5f,
  0x90,
  0xeb,
  0x71,
  0x4d,
  0xbe,
  0xb7,
  0x73,
  0x94,
  0x87,
  0xbc,
  0x99,
  0x12,
  0xe5,
  0xa7,
  0x40,
  0x61,
  0xd5,
  0x50,
  0x2a,
  0x22,
  0x15,
  0xa6,
  0x65,
  0x90,
  0x7c,
  0x39,
  0x09,
  0x0b,
  0xec,
  0x49,
  0x4a,
  0x61,
  0x59,
  0x55,
  0x44,
  0x47,
  0xee,
  0xa4,
  0x5f,
  0x8f,
  0x85,
  0xd9,
  0x80,
  0x8c,
  0xff,
  0x14,
  0xd2,
  0x5a,
  0x87,
  0x11,
  0x6a,
  0xe1,
  0xa7,
  0x66,
  0xcf,
  0xdb,
  0x69,
  0x97,
  0x0a,
  0x97,
  0x14,
  0xc8,
  0xae,
  0x9d,
  0x1e,
  0x64,
  0xdd,
  0x37,
  0xb5,
  0x6a,
  0x7f,
  0x92,
  0x7d,
  0x4b,
  0x81,
  0x57,
  0x6e,
  0x7b,
  0xee,
  0xdd,
  0x8e,
  0x22,
  0xc0,
  0x88,
  0xd3,
  0x78,
  0x13,
  0xaa,
  0x4e,
  0x91,
  0x06,
  0x33,
  0x1c,
  0xc8,
  0xb8,
  0x1e,
  0x34,
  0x15,
  0x55,
  0x02,
  0xbf,
  0x48,
  0x5b,
  0x89,
  0x2e,
  0x2b,
  0x90,
  0x8d,
  0x4d,
  0x19,
  0xe4,
  0xdb,
  0xdc,
  0x88,
  0x6b,
  0xe5,
  0x13,
  0x6b,
  0x7f,
  0x38,
  0xf8,
  0x83,
  0x07,
  0xcc,
  0xe3,
  0x17,
  0x47,
  0x61,
  0xcd,
  0xea,
  0xaa,
  0xfd,
  0x42,
  0xb7,
  0xa4,
  0x72,
  0xd1,
  0x54,
  0x6f,
  0x72,
  0x92,
  0xe6,
  0x0b,
  0x24,
  0x31,
  0x7f,
  0x95,
  0x3a,
  0xec,
  0x95,
  0x88,
  0x47,
  0x07,
  0x7c,
  0x08,
  0xc7,
  0x8c,
  0x9b,
  0xff,
  0x6c,
  0x86,
  0xcb,
  0xb3,
  0x66,
  0xa6,
  0x7e,
  0x6c,
  0x02,
  0x42,
  0x24,
  0x02,
  0xc5,
  0xcc,
  0x88,
  0xc6,
  0xad,
  0x35,
  0x12,
  0xcb,
  0x86,
  0x5c,
  0xba,
  0x24,
  0xf7,
  0xcc,
  0x07,
  0x02,
  0x5f,
  0x43,
  0xe1,
  0xf3,
  0x7b,
  0xaf,
  0x2d,
  0xd3,
  0xcc,
  0xa0,
  0x6f,
  0x05,
  0xc9,
  0x00,
  0xdf,
  0xc2,
  0xc1,
  0x86,
  0x33,
  0x0a,
  0x33,
  0x08,
  0x13,
  0x48,
  0xba,
  0x3e,
  0xab,
  0x32,
  0x2e,
  0x66,
  0xda,
  0x0a,
  0x24,
  0x1b,
  0xce,
  0x21,
  0x91,
  0xaf,
  0x3b,
  0xb8,
  0x86,
  0x9f,
  0x56,
  0x13,
  0x73,
  0xd0,
  0x5e,
  0xef,
  0xe3,
  0x87,
  0xf2,
  0x44,
  0x86,
  0xdb,
  0xda,
  0xcf,
  0x31,
  0x89,
  0x45,
  0x60,
  0xf5,
  0x70,
  0x5c,
  0x07,
  0xc9,
  0x97,
  0x93,
  0x7a,
  0xd8,
  0xf9,
  0xaf,
  0xfa,
  0xca,
  0x10,
  0x33,
  0x4d,
  0x11,
  0x61,
  0x4c,
  0x76,
  0x65,
  0xbc,
  0x45,
  0x58,
  0xb4,
  0x5f,
  0xcb,
  0x61,
  0x7a,
  0x10,
  0x5a,
  0xc2,
  0x56,
  0x6f,
  0x6b,
  0x01,
  0x9d,
  0x76,
  0xa9,
  0x16,
  0x29,
  0x59,
  0xf7,
  0x4f,
  0xba,
  0x6e,
  0x15,
  0x42,
  0x5e,
  0xd9,
  0xa0,
  0x27,
  0x02,
  0x8b,
  0x35,
  0xc6,
  0x96,
  0x61,
  0xeb,
  0xa8,
  0xe3,
  0x4e,
  0xfe,
  0xac,
  0x0e,
  0xce,
  0x91,
  0x0b,
  0xea,
  0x14,
  0x69,
  0x27,
  0x03,
  0x42,
  0xf0,
  0xa3,
  0x75,
  0xe0,
  0xf9,
  0xb0,
  0xf1,
  0xee,
  0xee,
  0xec,
  0x27,
  0xcf,
  0x55,
  0xe1,
  0x0c,
  0xbd,
  0x15,
  0xc9,
  0x27,
  0x30,
  0xe5,
  0x9b,
  0xde,
  0x7e,
  0xce,
  0x05,
  0x83,
  0x3f,
  0x78,
  0xa3,
  0x08,
  0x58,
  0xe7,
  0x33,
  0xfc,
  0x60,
  0x99,
  0xaa,
  0x11,
  0xa8,
  0xcc,
  0xee,
  0xcb,
  0x0e,
  0xa4,
  0xf1,
  0x00,
  0x5b,
  0x15,
  0x81,
  0x4c,
  0x52,
  0xaa,
  0x26,
  0xfc,
  0x8a,
  0xe9,
  0x0a,
  0x74,
  0xc0,
  0x87,
  0x4c,
  0xf7,
  0xa7,
  0x08,
  0xc4,
  0x03,
  0x9f,
  0x66,
  0x55,
  0xae,
  0x57,
  0x33,
  0x11,
  0x3d,
  0x71,
  0xdb,
  0x0e,
  0xff,
  0xa6,
  0xea,
  0x3e,
  0xb3,
  0xad,
  0x15,
  0x59,
  0x03,
  0x71,
  0x16,
  0x04,
  0xf0,
  0x6c,
  0x86,
  0xdb,
  0xb3,
  0x66,
  0xa6,
  0x7e,
  0x6c,
  0x02,
  0x62,
  0x24,
  0x02,
  0xc5,
  0xc4,
  0x88,
  0xc6,
  0x0d,
  0x35,
  0x12,
  0xcb,
  0x8b,
  0x5c,
  0xba,
  0xc4,
  0xf7,
  0xcc,
  0x07,
  0xff,
  0x9f,
  0x5d,
  0x01,
  0xf8,
  0x7b,
  0xaf,
  0x6d,
  0xd3,
  0xcc,
  0xa0,
  0x6a,
  0x05,
  0xc9,
  0xb0,
  0xdf,
  0xc2,
  0xc1,
  0x83,
  0x33,
  0x0a,
  0x03,
  0x08,
  0x13,
  0x48,
  0xba,
  0x3e,
  0xab,
  0x82,
  0x2e,
  0x66,
  0xda,
  0x24,
  0x78,
  0x1f,
  0x08,
  0x24,
  0x91,
  0xaf,
  0x5b,
  0xb8,
  0x86,
  0x9f,
  0x53,
  0x13,
  0x73,
  0x90,
  0x5e,
  0xef,
  0xe3,
  0x84,
  0xf2,
  0x44,
  0xf6,
  0xdb,
  0xda,
  0xcf,
  0x38,
  0x89,
  0x45,
  0x20,
  0xf5,
  0x70,
  0x5c,
  0xd3,
  0x14,
  0xbc,
  0x03,
  0x74,
  0xd8,
  0xf9,
  0x9f,
  0xfa,
  0xca,
  0x10,
  0x3b,
  0x4d,
  0x11,
  0xc1,
  0x4c,
  0x76,
  0x65,
  0xba,
  0x45,
  0x58,
  0x64,
  0x5f,
  0xcb,
  0x61,
  0x7d,
  0x10,
  0x5a,
  0x62,
  0x56,
  0x6f,
  0x6b,
  0x92,
  0x32,
  0xe4,
  0x0d,
  0x14,
  0x29,
  0x59,
  0xf7,
  0x4f,
  0xba,
  0x6e,
  0x11,
  0x42,
  0x5e,
  0x69,
  0xa0,
  0x27,
  0x02,
  0x87,
  0x35,
  0xc6,
  0x36,
  0x61,
  0xeb,
  0xa8,
  0xe2,
  0x4e,
  0xfe,
  0x7c,
  0x0e,
  0xce,
  0x91,
  0x1a,
  0x84,
  0xba,
  0x0e,
  0x2e,
  0x03,
  0x42,
  0x80,
  0xa3,
  0x75,
  0xe0,
  0xfb,
  0xb0,
  0xf1,
  0x2e,
  0xee,
  0xec,
  0x27,
  0xcf,
  0x55,
  0xe1,
  0x1c,
  0xbd,
  0x15,
  0xc9,
  0x2b,
  0x30,
  0xe5,
  0x1b,
  0xde,
  0x7e,
  0xce,
  0x66,
  0x0f,
  0x66,
  0x0f,
  0xa6,
  0x08,
  0x58,
  0x77,
  0x33,
  0xfc,
  0x60,
  0x91,
  0xaa,
  0x11,
  0x78,
  0xcc,
  0xee,
  0xcb,
  0x07,
  0xa4,
  0xf1,
  0xc0,
  0x5b,
  0x15,
  0x81,
  0x42,
  0x52,
  0xaa,
  0x16,
  0xfc,
  0x8a,
  0xe9,
  0x46,
  0x06,
  0x76,
  0x0f,
  0x49,
  0xf7,
  0xa7,
  0x88,
  0xc4,
  0x03,
  0x9f,
  0x6e,
  0x55,
  0xae,
  0x87,
  0x33,
  0x11,
  0x3d,
  0x78,
  0xdb,
  0x0e,
  0xaf,
  0xa6,
  0xea,
  0x3e,
  0xbd,
  0xad,
  0x15,
  0xe9,
  0x03,
  0x71,
  0x16,
  0xb9,
  0xf9,
  0x99,
  0x00,
  0xff,
  0xd9,
  0x15,
  0x46,
  0x51,
  0x74,
  0x76,
  0x8b,
  0x87,
  0x87,
  0xe9,
  0x80,
  0x66,
  0x63,
  0x6c,
  0x1a,
  0x10,
  0x22,
  0xb5,
  0x97,
  0xab,
  0x3d,
  0x2b,
  0x03,
  0x3d,
  0xfb,
  0x63,
  0xf3,
  0xf8,
  0x9a,
  0xc6,
  0x08,
  0x82,
  0xf7,
  0x81,
  0x54,
  0xce,
  0x82,
  0x2e,
  0xd5,
  0xb8,
  0x4c,
  0x8c,
  0x00,
  0x7e,
  0x98,
  0xa5,
  0x56,
  0x30,
  0xec,
  0xe4,
  0xc5,
  0xd1,
  0x46,
  0xb8,
  0xbb,
  0x14,
  0xbc,
  0x96,
  0x58,
  0x5b,
  0xe6,
  0x15,
  0x06,
  0x4d,
  0xc1,
  0x3b,
  0x47,
  0x5c,
  0x64,
  0xf8,
  0xff,
  0xbd,
  0x7e,
  0xc7,
  0xd1,
  0x61,
  0x6c,
  0x10,
  0x30,
  0x56,
  0x87,
  0xe2,
  0xa2,
  0x8f,
  0x00,
  0x0f,
  0x1c,
  0xb9,
  0x87,
  0xd3,
  0x9a,
  0x93,
  0xf6,
  0x43,
  0x07,
  0x29,
  0x43,
  0xde,
  0x0f,
  0xbf,
  0xa4,
  0x48,
  0xbe,
  0x95,
  0x58,
  0xa7,
  0xce,
  0x53,
  0xe2,
  0xb6,
  0xf9,
  0x77,
  0xe8,
  0x68,
  0x33,
  0x58,
  0xad,
  0x88,
  0x02,
  0x15,
  0xe2,
  0x85,
  0xd7,
  0xf3,
  0x9c,
  0x6c,
  0x0a,
  0x41,
  0xa8,
  0xeb,
  0x0f,
  0xd9,
  0xc3,
  0x21,
  0x5d,
  0x81,
  0xdb,
  0x19,
  0x28,
  0x54,
  0xdc,
  0x73,
  0x07,
  0x9d,
  0x5e,
  0x01,
  0x0b,
  0x66,
  0xd2,
  0x75,
  0xae,
  0x9d,
  0x88,
  0xa0,
  0x57,
  0x31,
  0x5b,
  0x60,
  0x03,
  0xf6,
  0x60,
  0xf6,
  0x1a,
  0x82,
  0x5e,
  0xea,
  0x82,
  0xe3,
  0xee,
  0x41,
  0x29,
  0x23,
  0x69,
  0xde,
  0xdc,
  0x49,
  0xb2,
  0x09,
  0x88,
  0x6c,
  0x13,
  0x53,
  0x33,
  0xea,
  0x91,
  0x3a,
  0x52,
  0xf4,
  0x02,
  0x7c,
  0x06,
  0x64,
  0x60,
  0xf7,
  0xde,
  0xd6,
  0x45,
