#define STIM_W_SIZE 16384
// weights [32 x 2 x 8 x 3 x 3 x 4]
L2_DATA uint8_t ne16_weights_padding[] = {
  0x34,
  0x25,
  0xf1,
  0x56,
  0xd1,
  0xec,
  0xe0,
  0x3d,
  0xbe,
  0x3d,
  0xfe,
  0xf0,
  0x83,
  0x8f,
  0x59,
  0x85,
  0xa5,
  0x55,
  0xe8,
  0xc7,
  0x1f,
  0xff,
  0x08,
  0x99,
  0x62,
  0x3a,
  0xa4,
  0x43,
  0xf7,
  0xd9,
  0xda,
  0x0b,
  0x0a,
  0x1b,
  0xeb,
  0x01,
  0x43,
  0x78,
  0x20,
  0x76,
  0xf1,
  0x20,
  0xc5,
  0x24,
  0x40,
  0xc6,
  0xea,
  0x12,
  0x88,
  0x4a,
  0xb0,
  0x57,
  0xa1,
  0xff,
  0x1c,
  0xa9,
  0x2a,
  0x06,
  0x6d,
  0x52,
  0x99,
  0x20,
  0x3d,
  0x00,
  0xb7,
  0x8c,
  0xb0,
  0xed,
  0x4f,
  0xb9,
  0x95,
  0x00,
  0x81,
  0x49,
  0xb1,
  0x25,
  0x84,
  0x0b,
  0x84,
  0xeb,
  0xa8,
  0x35,
  0x84,
  0x5c,
  0x4f,
  0xe9,
  0x17,
  0xaf,
  0x76,
  0x29,
  0x71,
  0x1f,
  0xbb,
  0xff,
  0x86,
  0x01,
  0xbe,
  0xe5,
  0xb4,
  0x60,
  0x27,
  0x1a,
  0xa4,
  0x56,
  0xe3,
  0xd0,
  0xc7,
  0xcc,
  0xd1,
  0x19,
  0x7e,
  0x2b,
  0x9d,
  0x77,
  0x58,
  0xc6,
  0x5a,
  0x77,
  0xa0,
  0x72,
  0x5d,
  0xca,
  0x29,
  0x68,
  0x1b,
  0xb5,
  0xee,
  0x0b,
  0xf7,
  0xb7,
  0xf8,
  0x32,
  0x99,
  0xf6,
  0x1f,
  0x16,
  0x00,
  0x12,
  0x3a,
  0x18,
  0xb8,
  0xa5,
  0xdc,
  0xb3,
  0x0a,
  0xd0,
  0xff,
  0x2d,
  0xcd,
  0xad,
  0x3a,
  0x3d,
  0x09,
  0xd5,
  0x97,
  0xcc,
  0x67,
  0x08,
  0xd0,
  0x0b,
  0x23,
  0x32,
  0x01,
  0xa3,
  0x00,
  0x78,
  0x21,
  0x15,
  0xfa,
  0xf0,
  0xc3,
  0x14,
  0x2b,
  0xa8,
  0xf6,
  0xfb,
  0x51,
  0x8a,
  0x3f,
  0x66,
  0x81,
  0xfe,
  0x90,
  0x36,
  0x91,
  0x03,
  0xc1,
  0x9a,
  0x41,
  0x7c,
  0xda,
  0x0b,
  0xbc,
  0x30,
  0x27,
  0x23,
  0xe8,
  0x79,
  0x35,
  0x9c,
  0x02,
  0x38,
  0x06,
  0x15,
  0x9e,
  0x3c,
  0x57,
  0xeb,
  0xc1,
  0x3a,
  0x29,
  0xa7,
  0x9b,
  0xed,
  0xb0,
  0x30,
  0xd1,
  0xe0,
  0x55,
  0x43,
  0x80,
  0x3c,
  0xd0,
  0x0c,
  0x4a,
  0xcf,
  0xdc,
  0xdc,
  0x17,
  0x86,
  0xce,
  0xe3,
  0xfd,
  0x4f,
  0xf9,
  0xeb,
  0x61,
  0xc3,
  0xa8,
  0x14,
  0xbe,
  0xc5,
  0xd2,
  0xd8,
  0x74,
  0x02,
  0x4f,
  0xcb,
  0x2e,
  0x3f,
  0xae,
  0xb5,
  0x7f,
  0xc3,
  0x2f,
  0x03,
  0x51,
  0xd1,
  0xec,
  0xe0,
  0x3d,
  0xbe,
  0x3d,
  0xf6,
  0xf0,
  0x83,
  0x8f,
  0x59,
  0x85,
  0xa5,
  0x55,
  0xe8,
  0xc7,
  0x6f,
  0xff,
  0x08,
  0x99,
  0x6f,
  0x3a,
  0xa4,
  0x53,
  0xf7,
  0xd9,
  0xda,
  0x2c,
  0x93,
  0x6b,
  0x0b,
  0x0c,
  0x43,
  0x78,
  0x20,
  0x76,
  0xf1,
  0x20,
  0xce,
  0x24,
  0x40,
  0x96,
  0xea,
  0x12,
  0x88,
  0x42,
  0xb0,
  0x57,
  0xf1,
  0xff,
  0x1c,
  0xa9,
  0x2f,
  0x06,
  0x6d,
  0xe2,
  0x99,
  0x20,
  0x3d,
  0x1e,
  0x54,
  0x67,
  0x0b,
  0xe4,
  0x4f,
  0xb9,
  0xf5,
  0x00,
  0x81,
  0x49,
  0xbe,
  0x25,
  0x84,
  0x6b,
  0x84,
  0xeb,
  0xa8,
  0x32,
  0x84,
  0x5c,
  0x0f,
  0xe9,
  0x17,
  0xaf,
  0x75,
  0x29,
  0x71,
  0x9f,
  0xbb,
  0xff,
  0x86,
  0x92,
  0x4c,
  0x5a,
  0x0d,
  0x61,
  0x27,
  0x1a,
  0x84,
  0x56,
  0xe3,
  0xd0,
  0xca,
  0xcc,
  0xd1,
  0xa9,
  0x7e,
  0x2b,
  0x9d,
  0x77,
  0x58,
  0xc6,
  0xaa,
  0x77,
  0xa0,
  0x72,
  0x50,
  0xca,
  0x29,
  0xa8,
  0x1b,
  0xb5,
  0xee,
  0x8e,
  0xe6,
  0xe3,
  0x07,
  0x30,
  0x99,
  0xf6,
  0x6f,
  0x16,
  0x00,
  0x12,
  0x36,
  0x18,
  0xb8,
  0x15,
  0xdc,
  0xb3,
  0x0a,
  0xdb,
  0xff,
  0x2d,
  0x6d,
  0xad,
  0x3a,
  0x3d,
  0x02,
  0xd5,
  0x97,
  0xec,
  0x67,
  0x08,
  0xd0,
  0x29,
  0x10,
  0x49,
  0x0d,
  0xaa,
  0x00,
  0x78,
  0x61,
  0x15,
  0xfa,
  0xf0,
  0xca,
  0x14,
  0x2b,
  0x18,
  0xf6,
  0xfb,
  0x51,
  0x88,
  0x3f,
  0x66,
  0x31,
  0xfe,
  0x90,
  0x36,
  0x95,
  0x03,
  0xc1,
  0x4a,
  0x41,
  0x7c,
  0xda,
  0x87,
  0xce,
  0x0b,
  0x07,
  0x28,
  0xe8,
  0x79,
  0x75,
  0x9c,
  0x02,
  0x38,
  0x0a,
  0x15,
  0x9e,
  0xfc,
  0x57,
  0xeb,
  0xc1,
  0x34,
  0x29,
  0xa7,
  0xeb,
  0xed,
  0xb0,
  0x30,
  0xd1,
  0xe0,
  0x55,
  0x33,
  0x80,
  0x3c,
  0xd0,
  0x9d,
  0x4c,
  0x1a,
  0x07,
  0xd7,
  0x17,
  0x86,
  0x8e,
  0xe3,
  0xfd,
  0x4f,
  0xf5,
  0xeb,
  0x61,
  0x43,
  0xa8,
  0x14,
  0xbe,
  0xc7,
  0xd2,
  0xd8,
  0x14,
  0x02,
  0x4f,
  0xcb,
  0x2e,
  0x3f,
  0xae,
  0xd5,
  0x7f,
  0xc3,
  0x2f,
  0x72,
  0xb3,
  0xe5,
  0x08,
  0x32,
  0xb9,
  0xb6,
  0x69,
  0x92,
  0x36,
  0x15,
  0x7e,
  0x48,
  0xf3,
  0x26,
  0x9f,
  0xff,
  0x1b,
  0xe9,
  0xc7,
  0x48,
  0x59,
  0x2e,
  0xc1,
  0x95,
  0x59,
  0x73,
  0x7e,
  0x96,
  0x18,
  0xb2,
  0xba,
  0x87,
  0x0d,
  0x48,
  0x0e,
  0x41,
  0x75,
  0xb6,
  0x99,
  0x41,
  0x2b,
  0x54,
  0x59,
  0xe1,
  0xe1,
  0x60,
  0x86,
  0x52,
  0x02,
  0xb1,
  0x25,
  0x4a,
  0xb9,
  0x9a,
  0x4d,
  0x16,
  0x0f,
  0x8d,
  0x49,
  0xf0,
  0xe2,
  0x67,
  0xee,
  0x59,
  0xb6,
  0xe7,
  0x01,
  0xc9,
  0xa4,
  0xd5,
  0xbc,
  0xc6,
  0x78,
  0x8e,
  0x45,
  0x13,
  0x81,
  0xf3,
  0xb7,
  0x0c,
  0x9c,
  0x79,
  0x4b,
  0x8e,
  0x1b,
  0xc3,
  0x9c,
  0xef,
  0x44,
  0xda,
  0xd6,
  0x5f,
  0x46,
  0x7a,
  0xd1,
  0xfb,
  0x1d,
  0x73,
  0x0d,
  0x68,
  0x3e,
  0x7e,
  0xca,
  0xc3,
  0x26,
  0xd7,
  0xd4,
  0x96,
  0x1a,
  0xba,
  0x97,
  0xc8,
  0xc4,
  0xb4,
  0x99,
  0x5b,
  0x0f,
  0x03,
  0x06,
  0x22,
  0x8f,
  0xe8,
  0x07,
  0x5b,
  0x0b,
  0x2c,
  0x07,
  0x12,
  0xa1,
  0xb9,
  0x0c,
  0x02,
  0x91,
  0xd4,
  0x5f,
  0x86,
  0x1c,
  0x4a,
  0xd9,
  0xd2,
  0x76,
  0xde,
  0xa9,
  0xb9,
  0xff,
  0xbc,
  0xf8,
  0x4a,
  0x8b,
  0x65,
  0xf3,
  0x22,
  0xf3,
  0xa3,
  0x60,
  0x8f,
  0x49,
  0x9c,
  0x14,
  0xe7,
  0xd2,
  0xb8,
  0x00,
  0xe8,
  0xbc,
  0x70,
  0xa7,
  0x91,
  0x7a,
  0xbc,
  0xef,
  0x84,
  0x57,
  0x13,
  0x4f,
  0x1e,
  0x9a,
  0xce,
  0x22,
  0x24,
  0xcb,
  0x03,
  0x20,
  0x1b,
  0x66,
  0xf7,
  0xf5,
  0xaa,
  0xd3,
  0xce,
  0x0d,
  0x7a,
  0x42,
  0xab,
  0x0b,
  0xc9,
  0xa4,
  0x71,
  0xc1,
  0x90,
  0x3b,
  0x96,
  0xc1,
  0x24,
  0xd3,
  0x43,
  0x63,
  0x9e,
  0xc8,
  0xb8,
  0x28,
  0x19,
  0x20,
  0x49,
  0x93,
  0xbe,
  0xfd,
  0xf5,
  0x7c,
  0x02,
  0xd3,
  0x7e,
  0x0e,
  0x72,
  0x96,
  0xab,
  0x05,
  0x37,
  0x5b,
  0x8e,
  0x3e,
  0x6f,
  0xc5,
  0x69,
  0x3e,
  0x7b,
  0xac,
  0xbc,
  0xbc,
  0x61,
  0x37,
  0x47,
  0xd7,
  0xe6,
  0xf7,
  0xbe,
  0x6c,
  0x41,
  0x02,
  0x0a,
  0x83,
  0xf5,
  0x2c,
  0x81,
  0xf1,
  0x8d,
  0x69,
  0x54,
  0x0a,
  0x60,
  0x92,
  0x36,
  0xa5,
  0x7e,
  0x48,
  0xf3,
  0x20,
  0x9f,
  0xff,
  0x1b,
  0xe9,
  0xc7,
  0x48,
  0x5e,
  0x2e,
  0xc1,
  0xe5,
  0x59,
  0x73,
  0x7e,
  0x96,
  0x18,
  0xb2,
  0x7a,
  0x87,
  0x0d,
  0x48,
  0x8a,
  0xf6,
  0xda,
  0x0d,
  0x9d,
  0x41,
  0x2b,
  0x04,
  0x59,
  0xe1,
  0xe1,
  0x60,
  0x86,
  0x52,
  0x02,
  0xb1,
  0x25,
  0x4a,
  0xb4,
  0x9a,
  0x4d,
  0xf6,
  0x0f,
  0x8d,
  0x49,
  0xff,
  0xe2,
  0x67,
  0x1e,
  0x59,
  0xb6,
  0xe7,
  0xa8,
  0xc4,
  0x32,
  0x0b,
  0xb2,
  0xc6,
  0x78,
  0x7e,
  0x45,
  0x13,
  0x81,
  0xf6,
  0xb7,
  0x0c,
  0x2c,
  0x79,
  0x4b,
  0x8e,
  0x1c,
  0xc3,
  0x9c,
  0xdf,
  0x44,
  0xda,
  0xd6,
  0x5a,
  0x46,
  0x7a,
  0x21,
  0xfb,
  0x1d,
  0x73,
  0x1c,
  0x8f,
  0xe6,
  0x08,
  0xc8,
  0xc3,
  0x26,
  0x27,
  0xd4,
  0x96,
  0x1a,
  0xba,
  0x97,
  0xc8,
  0x84,
  0xb4,
  0x99,
  0x5b,
  0x0c,
  0x03,
  0x06,
  0x32,
  0x8f,
  0xe8,
  0x07,
  0x5c,
  0x0b,
  0x2c,
  0x27,
  0x12,
  0xa1,
  0xb9,
  0x3c,
  0x13,
  0x34,
  0x09,
  0x57,
  0x86,
  0x1c,
  0x8a,
  0xd9,
  0xd2,
  0x76,
  0xdc,
  0xa9,
  0xb9,
  0x4f,
  0xbc,
  0xf8,
  0x4a,
  0x81,
  0x65,
  0xf3,
  0xc2,
  0xf3,
  0xa3,
  0x60,
  0x8e,
  0x49,
  0x9c,
  0x64,
  0xe7,
  0xd2,
  0xb8,
  0x2c,
  0x7c,
  0xfd,
  0x06,
  0xa9,
  0x91,
  0x7a,
  0x2c,
  0xef,
  0x84,
  0x57,
  0x18,
  0x4f,
  0x1e,
  0xda,
  0xce,
  0x22,
  0x24,
  0xca,
  0x03,
  0x20,
  0x9b,
  0x66,
  0xf7,
  0xf5,
  0xae,
  0xd3,
  0xce,
  0xed,
  0x7a,
  0x42,
  0xab,
  0x7a,
  0x4b,
  0x22,
  0x02,
  0xc1,
  0x90,
  0x3b,
  0x96,
  0xc1,
  0x24,
  0xd3,
  0x4c,
  0x63,
  0x9e,
  0xa8,
  0xb8,
  0x28,
  0x19,
  0x2a,
  0x49,
  0x93,
  0x8e,
  0xfd,
  0xf5,
  0x7c,
  0x0e,
  0xd3,
  0x7e,
  0xae,
  0x72,
  0x96,
  0xab,
  0x1b,
  0x13,
  0x20,
  0x0b,
  0x3e,
  0x6f,
  0xc5,
  0x69,
  0x3e,
  0x7b,
  0xac,
  0xb3,
  0xbc,
  0x61,
  0x57,
  0x47,
  0xd7,
  0xe6,
  0xf5,
  0xbe,
  0x6c,
  0x71,
  0x02,
  0x0a,
  0x83,
  0xf1,
  0x2c,
  0x81,
  0x51,
  0x8d,
  0x69,
  0x54,
  0xe5,
  0xe4,
  0x5f,
  0x04,
  0x68,
  0xaf,
  0xdd,
  0xb7,
  0xcc,
  0x03,
  0x85,
  0x28,
  0xca,
  0xc5,
  0x36,
  0x6f,
  0x5d,
  0xd7,
  0xe0,
  0x34,
  0xfe,
  0xc2,
  0xd5,
  0x10,
  0x23,
  0xb4,
  0x46,
  0x7b,
  0x84,
  0xfe,
  0xc7,
  0x4d,
  0x0e,
  0xef,
  0x5a,
  0x00,
  0x4a,
  0x2c,
  0xb3,
  0x48,
  0xd9,
  0x43,
  0x48,
  0x48,
  0xf4,
  0x54,
  0xec,
  0x46,
  0x35,
  0x23,
  0xd8,
  0x80,
  0x60,
  0x96,
  0x67,
  0x90,
  0x3b,
  0x59,
  0x0d,
  0xa2,
  0x12,
  0x0a,
  0x6e,
  0x4d,
  0x77,
  0x6a,
  0xed,
  0x05,
  0xf1,
  0x68,
  0x8e,
  0x3a,
  0xf7,
  0xf4,
  0x68,
  0xc7,
  0x05,
  0x1b,
  0xfd,
  0x09,
  0x29,
  0x41,
  0x27,
  0x36,
  0xd8,
  0x78,
  0xe3,
  0x08,
  0x36,
  0x94,
  0xad,
  0x0e,
  0xa5,
  0xe8,
  0x0c,
  0x1e,
  0xce,
  0x5d,
  0xb1,
  0x06,
  0x33,
  0x41,
  0x93,
  0x99,
  0x8e,
  0xae,
  0x06,
  0x5b,
  0xbe,
  0xfe,
  0xf6,
  0xad,
  0xb7,
  0x7a,
  0xfd,
  0x7a,
  0xc7,
  0xdf,
  0x2d,
  0xdb,
  0x9d,
  0xf8,
  0x29,
  0xe9,
  0x42,
  0x58,
  0x8f,
  0x28,
  0x58,
  0x35,
  0xd3,
  0x04,
  0xc2,
  0xd7,
  0x6f,
  0x37,
  0x01,
  0x2a,
  0x86,
  0x22,
  0x41,
  0x66,
  0x68,
  0x88,
  0x53,
  0x51,
  0xec,
  0x0d,
  0x36,
  0xaf,
  0x15,
  0x1d,
  0xf8,
  0xbf,
  0x47,
  0x64,
  0xa7,
  0xef,
  0x31,
  0xc6,
  0x08,
  0x08,
  0x69,
  0x02,
  0xb7,
  0x24,
  0x22,
  0x37,
  0xa6,
  0x8f,
  0xf8,
  0x1a,
  0x6f,
  0xd7,
  0x40,
  0x5f,
  0xe5,
  0xf8,
  0x81,
  0xfe,
  0x92,
  0xa8,
  0xf6,
  0x4c,
  0x5f,
  0xa1,
  0xad,
  0xa9,
  0x2b,
  0x03,
  0xd3,
  0xad,
  0x82,
  0xb4,
  0xae,
  0x03,
  0x31,
  0x01,
  0xb2,
  0x3e,
  0x31,
  0x4e,
  0xd9,
  0x5f,
  0x9d,
  0xfb,
  0xc8,
  0x0f,
  0xe5,
  0xa9,
  0x81,
  0x34,
  0x66,
  0x7b,
  0x5d,
  0x7d,
  0xd3,
  0xa8,
  0xaf,
  0xd8,
  0x19,
  0xcb,
  0xcb,
  0x8c,
  0x8c,
  0xd4,
  0xba,
  0x00,
  0x4e,
  0xfe,
  0x45,
  0xc1,
  0x4e,
  0xb1,
  0x26,
  0xa4,
  0xf2,
  0x04,
  0x37,
  0xf0,
  0x0a,
  0x16,
  0x7e,
  0xcb,
  0x99,
  0x84,
  0xa2,
  0xa2,
  0x2c,
  0x5f,
  0x50,
  0x26,
  0xa4,
  0x34,
  0x24,
  0x73,
  0x73,
  0x0b,
  0x45,
  0x0f,
  0xb9,
  0xcc,
  0x03,
  0xe5,
  0x28,
  0xca,
  0xc5,
  0x39,
  0x6f,
  0x5d,
  0x17,
  0xe0,
  0x34,
  0xfe,
  0xc3,
  0xd5,
  0x10,
  0xd3,
  0xb4,
  0x46,
  0x7b,
  0x88,
  0xfe,
  0xc7,
  0xcd,
  0x0e,
  0xef,
  0x5a,
  0xfc,
  0x14,
  0xa2,
  0x03,
  0x40,
  0xd9,
  0x43,
  0xe8,
  0x48,
  0xf4,
  0x54,
  0xe7,
  0x46,
  0x35,
  0xa3,
  0xd8,
  0x80,
  0x60,
  0x9d,
  0x67,
  0x90,
  0x7b,
  0x59,
  0x0d,
  0xa2,
  0x1d,
  0x0a,
  0x6e,
  0xad,
  0x77,
  0x6a,
  0xed,
  0x3e,
  0x99,
  0x1a,
  0x05,
  0x3e,
  0xf7,
  0xf4,
  0x38,
  0xc7,
  0x05,
  0x1b,
  0xfa,
  0x09,
  0x29,
  0x91,
  0x27,
  0x36,
  0xd8,
  0x72,
  0xe3,
  0x08,
  0xe6,
  0x94,
  0xad,
  0x0e,
  0xa3,
  0xe8,
  0x0c,
  0x5e,
  0xce,
  0x5d,
  0xb1,
  0x6e,
  0x12,
  0x37,
  0x09,
  0x90,
  0x8e,
  0xae,
  0xe6,
  0x5b,
  0xbe,
  0xfe,
  0xf8,
  0xad,
  0xb7,
  0x2a,
  0xfd,
  0x7a,
  0xc7,
  0xdc,
  0x2d,
  0xdb,
  0x7d,
  0xf8,
  0x29,
  0xe9,
  0x42,
  0x58,
  0x8f,
  0xd8,
  0x58,
  0x35,
  0xd3,
  0x30,
  0xc3,
  0x2b,
  0x05,
  0x34,
  0x01,
  0x2a,
  0x56,
  0x22,
  0x41,
  0x66,
  0x6b,
  0x88,
  0x53,
  0x01,
  0xec,
  0x0d,
  0x36,
  0xad,
  0x15,
  0x1d,
  0xa8,
  0xbf,
  0x47,
  0x64,
  0xa1,
  0xef,
  0x31,
  0x36,
  0x08,
  0x08,
  0x69,
  0xd0,
  0xfc,
  0x2f,
  0x0a,
  0x33,
  0xa6,
  0x8f,
  0x28,
  0x1a,
  0x6f,
  0xd7,
  0x49,
  0x5f,
  0xe5,
  0xa8,
  0x81,
  0xfe,
  0x92,
  0xa9,
  0xf6,
  0x4c,
  0x9f,
  0xa1,
  0xad,
  0xa9,
  0x28,
  0x03,
  0xd3,
  0xad,
  0x82,
  0xb4,
  0xae,
  0x9c,
  0x9b,
  0x2c,
  0x0a,
  0x34,
  0x31,
  0x4e,
  0xc9,
  0x5f,
  0x9d,
  0xfb,
  0xca,
  0x0f,
  0xe5,
  0x09,
  0x81,
  0x34,
  0x66,
  0x79,
  0x5d,
  0x7d,
  0x83,
  0xa8,
  0xaf,
  0xd8,
  0x12,
  0xcb,
  0xcb,
  0xac,
  0x8c,
  0xd4,
  0xba,
  0x70,
  0x9b,
  0x21,
  0x08,
  0xcb,
  0x4e,
  0xb1,
  0xb6,
  0xa4,
  0xf2,
  0x04,
  0x35,
  0xf0,
  0x0a,
  0xf6,
  0x7e,
  0xcb,
  0x99,
  0x86,
  0xa2,
  0xa2,
  0x7c,
  0x5f,
  0x50,
  0x26,
  0xad,
  0x34,
  0x24,
  0x53,
  0x73,
  0x0b,
  0x45,
  0x8f,
  0x64,
  0xde,
  0x07,
  0x4f,
  0x21,
  0x3a,
  0x73,
  0x38,
  0x03,
  0x73,
  0xac,
  0x5f,
  0xd0,
  0x0e,
  0x55,
  0x47,
  0x5f,
  0xab,
  0xe1,
  0x7a,
  0xe2,
  0x3c,
  0xb0,
  0xfa,
  0x00,
  0x5b,
  0x89,
  0x80,
  0x96,
  0xf8,
  0xa0,
  0x0c,
  0xe2,
  0xde,
  0x06,
  0x93,
  0xa9,
  0x51,
  0xbc,
  0xdc,
  0x3b,
  0x8b,
  0xc2,
  0xf1,
  0x61,
  0xba,
  0x1e,
  0x5b,
  0xbc,
  0x1e,
  0x3f,
  0x63,
  0x26,
  0xd1,
  0x5b,
  0x8d,
  0x97,
  0xed,
  0x63,
  0xf6,
  0x00,
  0xf4,
  0x79,
  0xf7,
  0xdd,
  0xf3,
  0x06,
  0x26,
  0x71,
  0x93,
  0xce,
  0x5c,
  0xd5,
  0xed,
  0x8c,
  0x2c,
  0xb9,
  0xf2,
  0x08,
  0x48,
  0xe1,
  0xe6,
  0x8c,
  0x76,
  0x66,
  0x0d,
  0x3c,
  0x53,
  0x6c,
  0x69,
  0x2f,
  0x01,
  0x44,
  0x83,
  0x9d,
  0xa9,
  0xef,
  0x57,
  0x0a,
  0x33,
  0xbc,
  0x52,
  0xd9,
  0xfd,
  0x32,
  0x69,
  0xae,
  0xb3,
  0x62,
  0x8b,
  0xb0,
  0x5b,
  0x87,
  0x42,
  0xc6,
  0x20,
  0x4d,
  0x31,
  0x17,
  0x3a,
  0xec,
  0x68,
  0xb5,
  0xf8,
  0xc1,
  0x9c,
  0xe3,
  0x54,
  0x96,
  0x86,
  0x0a,
  0xcd,
  0xff,
  0xa2,
  0xd8,
  0x5c,
  0xff,
  0xcf,
  0x57,
  0x4e,
  0xf4,
  0x3d,
  0x7d,
  0xe5,
  0x42,
  0x62,
  0xf9,
  0x82,
  0xf5,
  0xc9,
  0xed,
  0x90,
  0x49,
  0x24,
  0xfa,
  0x5f,
  0x40,
  0xd6,
  0xb7,
  0x68,
  0x7b,
  0x18,
  0x01,
  0xb9,
  0xc9,
  0xa2,
  0x64,
  0x85,
  0xbd,
  0x83,
  0x38,
  0xb7,
  0x5b,
  0x2e,
  0xbe,
  0x67,
  0x57,
  0x23,
  0x5a,
  0xba,
  0x51,
  0x29,
  0x10,
  0x71,
  0x7a,
  0xa0,
  0x57,
  0xec,
  0xfd,
  0xe7,
  0x62,
  0xc4,
  0x80,
  0x8b,
  0x03,
  0xb7,
  0x19,
  0x82,
  0xf1,
  0x95,
  0x8f,
  0x8b,
  0x9e,
  0xb7,
  0xfb,
  0x1e,
  0x1a,
  0x47,
  0x43,
  0x50,
  0xdb,
  0x8e,
  0xcd,
  0x3c,
  0x30,
  0xe8,
  0x34,
  0xa8,
  0x51,
  0x49,
  0x59,
  0xef,
  0xc3,
  0x04,
  0x83,
  0x0f,
  0x01,
  0x48,
  0xe6,
  0x7d,
  0x0e,
  0x6a,
  0x60,
  0x74,
  0x61,
  0x48,
  0x04,
  0xe1,
  0xe1,
  0xb8,
  0xa8,
  0xaf,
  0x24,
  0x71,
  0xba,
  0xc3,
  0xcf,
  0x0f,
  0xc5,
  0x5f,
  0xae,
  0xb6,
  0x86,
  0x10,
  0x1c,
  0xfb,
  0x7c,
  0xf0,
  0x0e,
  0x79,
  0x38,
  0x03,
  0x43,
  0xac,
  0x5f,
  0xd0,
  0x03,
  0x55,
  0x47,
  0x5f,
  0xab,
  0xe1,
  0x7a,
  0xeb,
  0x3c,
  0xb0,
  0x9a,
  0x00,
  0x5b,
  0x89,
  0x87,
  0x96,
  0xf8,
  0xb0,
  0x0c,
  0xe2,
  0xde,
  0xd9,
  0xfe,
  0xd1,
  0x0f,
  0xba,
  0xdc,
  0x3b,
  0xab,
  0xc2,
  0xf1,
  0x61,
  0xba,
  0x1e,
  0x5b,
  0x7c,
  0x1e,
  0x3f,
  0x63,
  0x27,
  0xd1,
  0x5b,
  0x3d,
  0x97,
  0xed,
  0x63,
  0xfd,
  0x00,
  0xf4,
  0xd9,
  0xf7,
  0xdd,
  0xf3,
  0x2f,
  0xde,
  0xb7,
  0x0c,
  0xc4,
  0x5c,
  0xd5,
  0xbd,
  0x8c,
  0x2c,
  0xb9,
  0xf1,
  0x08,
  0x48,
  0xf1,
  0xe6,
  0x8c,
  0x76,
  0x61,
  0x0d,
  0x3c,
  0x23,
  0x6c,
  0x69,
  0x2f,
  0x0f,
  0x44,
  0x83,
  0x7d,
  0xa9,
  0xef,
  0x57,
  0xa1,
  0x73,
  0xfc,
  0x01,
  0xdd,
  0xfd,
  0x32,
  0xf9,
  0xae,
  0xb3,
  0x62,
  0x84,
  0xb0,
  0x5b,
  0x17,
  0x42,
  0xc6,
  0x20,
  0x49,
  0x31,
  0x17,
  0xea,
  0xec,
  0x68,
  0xb5,
  0xf5,
  0xc1,
  0x9c,
  0xa3,
  0x54,
  0x96,
  0x86,
  0xb6,
  0x3c,
  0x1e,
  0x08,
  0xd2,
  0x5c,
  0xff,
  0xbf,
  0x57,
  0x4e,
  0xf4,
  0x35,
  0x7d,
  0xe5,
  0x12,
  0x62,
  0xf9,
  0x82,
  0xfe,
  0xc9,
  0xed,
  0x10,
  0x49,
  0x24,
  0xfa,
  0x5a,
  0x40,
  0xd6,
  0x67,
  0x68,
  0x7b,
  0x18,
  0x29,
  0x6f,
  0x91,
  0x07,
  0x62,
  0x85,
  0xbd,
  0x13,
  0x38,
  0xb7,
  0x5b,
  0x23,
  0xbe,
  0x67,
  0x37,
  0x23,
  0x5a,
  0xba,
  0x53,
  0x29,
  0x10,
  0xa1,
  0x7a,
  0xa0,
  0x57,
  0xef,
  0xfd,
  0xe7,
  0xf2,
  0xc4,
  0x80,
  0x8b,
  0x5c,
  0x2f,
  0x8a,
  0x00,
  0xf6,
  0x95,
  0x8f,
  0x9b,
  0x9e,
  0xb7,
  0xfb,
  0x1b,
  0x1a,
  0x47,
  0x33,
  0x50,
  0xdb,
  0x8e,
  0xc0,
  0x3c,
  0x30,
  0xf8,
  0x34,
  0xa8,
  0x51,
  0x4f,
  0x59,
  0xef,
  0xf3,
  0x04,
  0x83,
  0x0f,
  0x6a,
  0x0f,
  0x8d,
  0x06,
  0x09,
  0x6a,
  0x60,
  0x64,
  0x61,
  0x48,
  0x04,
  0xe4,
  0xe1,
  0xb8,
  0xc8,
  0xaf,
  0x24,
  0x71,
  0xbf,
  0xc3,
  0xcf,
  0x4f,
  0xc5,
  0x5f,
  0xae,
  0xb0,
  0x86,
  0x10,
  0x0c,
  0xfb,
  0x7c,
  0xf0,
  0x97,
  0xd0,
  0x73,
  0x01,
  0xed,
  0x1f,
  0xfd,
  0x0a,
  0x97,
  0x1e,
  0xac,
  0xd0,
  0xf7,
  0x69,
  0xb8,
  0x1e,
  0x68,
  0x85,
  0x9e,
  0xe1,
  0xf3,
  0x9a,
  0x77,
  0xda,
  0x51,
  0x51,
  0x93,
  0x75,
  0xcc,
  0x6c,
  0x49,
  0x67,
  0x1b,
  0x4a,
  0x90,
  0x0d,
  0xe2,
  0x7d,
  0xcb,
  0x88,
  0xab,
  0x01,
  0x7e,
  0x15,
  0xce,
  0x21,
  0xb0,
  0x40,
  0x38,
  0xbf,
  0xbf,
  0xd9,
  0x28,
  0x58,
  0xc7,
  0xa6,
  0x40,
  0x5c,
  0x2b,
  0x9e,
  0xce,
  0x9c,
  0x39,
  0x1d,
  0x18,
  0x6a,
  0x90,
  0x07,
  0x3a,
  0xc7,
  0x1f,
  0x59,
  0x54,
  0xa3,
  0x4e,
  0xd8,
  0xda,
  0x9f,
  0x4a,
  0x4d,
  0x40,
  0xf8,
  0xa5,
  0x93,
  0xc0,
  0x9d,
  0x3f,
  0x1e,
  0x43,
  0xe7,
  0xa7,
  0xf8,
  0xbf,
  0xec,
  0x02,
  0x04,
  0xd3,
  0x3f,
  0xa4,
  0x05,
  0xcb,
  0xe3,
  0x81,
  0x62,
  0xaf,
  0x25,
  0x1e,
  0xbb,
  0xee,
  0xee,
  0xcd,
  0x08,
  0xdb,
  0x49,
  0xe1,
  0x7f,
  0x27,
  0xc8,
  0x17,
  0x27,
  0x54,
  0xbd,
  0x29,
  0x44,
  0x46,
  0x66,
  0x82,
  0xdd,
  0x4c,
  0xff,
  0x0e,
  0x08,
  0xf2,
  0x16,
  0x79,
  0x93,
  0xf3,
  0x14,
  0x38,
  0x7f,
  0x57,
  0x2a,
  0xf4,
  0xfb,
  0xb8,
  0xb4,
  0x2b,
  0x8f,
  0xdc,
  0x14,
  0x05,
  0xca,
  0x5f,
  0x04,
  0xf7,
  0x63,
  0x59,
  0x64,
  0x8b,
  0x24,
  0xf1,
  0xc4,
  0x59,
  0x0e,
  0xf5,
  0xa2,
  0x08,
  0xa1,
  0x2f,
  0xfc,
  0x88,
  0x8a,
  0x20,
  0x6a,
  0xfe,
  0xc3,
  0x7e,
  0x85,
  0x95,
  0x18,
  0xe3,
  0xdf,
  0x42,
  0x85,
  0x44,
  0xfe,
  0x9e,
  0xe9,
  0x7b,
  0x9e,
  0xa9,
  0xf7,
  0x2e,
  0x67,
  0xb4,
  0x0a,
  0xf6,
  0xd0,
  0x68,
  0x81,
  0xba,
  0x2c,
  0x3c,
  0x8b,
  0x21,
  0xe2,
  0xd2,
  0xc5,
  0x3b,
  0xcd,
  0xb8,
  0x1b,
  0x46,
  0xdc,
  0x5b,
  0x03,
  0x78,
  0xee,
  0x33,
  0x43,
  0x2f,
  0x94,
  0x60,
  0xce,
  0xd4,
  0xe7,
  0x34,
  0x00,
  0x09,
  0x3d,
  0x17,
  0x7e,
  0x45,
  0x53,
  0xc3,
  0x74,
  0xde,
  0x15,
  0x29,
  0x3e,
  0xc4,
  0x3a,
  0x46,
  0xe4,
  0x39,
  0x23,
  0xa4,
  0xfc,
  0x83,
  0x11,
  0xcc,
  0x9c,
  0xd0,
  0x6b,
  0x9e,
  0x31,
  0x8b,
  0x18,
  0xcb,
  0x0d,
  0x05,
  0x97,
  0x1e,
  0xbc,
  0xd0,
  0xf7,
  0x69,
  0xb7,
  0x1e,
  0x68,
  0xb5,
  0x9e,
  0xe1,
  0xf3,
  0x9f,
  0x77,
  0xda,
  0xd1,
  0x51,
  0x93,
  0x75,
  0xc6,
  0x6c,
  0x49,
  0x77,
  0x1b,
  0x4a,
  0x90,
  0x84,
  0x32,
  0x22,
  0x05,
  0x8d,
  0xab,
  0x01,
  0x9e,
  0x15,
  0xce,
  0x21,
  0xb7,
  0x40,
  0x38,
  0xef,
  0xbf,
  0xd9,
  0x28,
  0x59,
  0xc7,
  0xa6,
  0x90,
  0x5c,
  0x2b,
  0x9e,
  0xcb,
  0x9c,
  0x39,
  0xed,
  0x18,
  0x6a,
  0x90,
  0x93,
  0xa9,
  0x1e,
  0x02,
  0x5b,
  0x54,
  0xa3,
  0x3e,
  0xd8,
  0xda,
  0x9f,
  0x4e,
  0x4d,
  0x40,
  0x98,
  0xa5,
  0x93,
  0xc0,
  0x98,
  0x3f,
  0x1e,
  0x53,
  0xe7,
  0xa7,
  0xf8,
  0xb9,
  0xec,
  0x02,
  0x54,
  0xd3,
  0x3f,
  0xa4,
  0xb4,
  0x25,
  0x6e,
  0x02,
  0x60,
  0xaf,
  0x25,
  0xde,
  0xbb,
  0xee,
  0xee,
  0xc6,
  0x08,
  0xdb,
  0x59,
  0xe1,
  0x7f,
  0x27,
  0xc7,
  0x17,
  0x27,
  0x94,
  0xbd,
  0x29,
  0x44,
  0x4d,
  0x66,
  0x82,
  0x7d,
  0x4c,
  0xff,
  0x0e,
  0x27,
  0x28,
  0x65,
  0x0b,
  0x9d,
  0xf3,
  0x14,
  0xc8,
  0x7f,
  0x57,
  0x2a,
  0xf2,
  0xfb,
  0xb8,
  0x94,
  0x2b,
  0x8f,
  0xdc,
  0x15,
  0x05,
  0xca,
  0x5f,
  0x04,
  0xf7,
  0x63,
  0x59,
  0x64,
  0x8b,
  0x64,
  0xf1,
  0xc4,
  0x59,
  0x43,
  0x72,
  0x8e,
  0x0c,
  0xa9,
  0x2f,
  0xfc,
  0x58,
  0x8a,
  0x20,
  0x6a,
  0xfb,
  0xc3,
  0x7e,
  0x45,
  0x95,
  0x18,
  0xe3,
  0xd7,
  0x42,
  0x85,
  0x24,
  0xfe,
  0x9e,
  0xe9,
  0x76,
  0x9e,
  0xa9,
  0x77,
  0x2e,
  0x67,
  0xb4,
  0x6e,
  0xe5,
  0x51,
  0x0c,
  0x81,
  0xba,
  0x2c,
  0x6c,
  0x8b,
  0x21,
  0xe2,
  0xd0,
  0xc5,
  0x3b,
  0xdd,
  0xb8,
  0x1b,
  0x46,
  0xd1,
  0x5b,
  0x03,
  0x38,
  0xee,
  0x33,
  0x43,
  0x2c,
  0x94,
  0x60,
  0x7e,
  0xd4,
  0xe7,
  0x34,
  0x62,
  0xf6,
  0x76,
  0x09,
  0x7e,
  0x45,
  0x53,
  0x93,
  0x74,
  0xde,
  0x15,
  0x2f,
  0x3e,
  0xc4,
  0x2a,
  0x46,
  0xe4,
  0x39,
  0x2a,
  0xa4,
  0xfc,
  0xc3,
  0x11,
  0xcc,
  0x9c,
  0xd1,
  0x6b,
  0x9e,
  0x81,
  0x8b,
  0x18,
  0xcb,
  0x9d,
  0x09,
  0x89,
  0x06,
  0x28,
  0x23,
  0x52,
  0x98,
  0xb6,
  0xdf,
  0xae,
  0xf9,
  0xa9,
  0x27,
  0x70,
  0x8e,
  0x22,
  0xee,
  0x1c,
  0x47,
  0x7a,
  0xfe,
  0x24,
  0x44,
  0xfc,
  0xef,
  0x55,
  0x23,
  0x5d,
  0x25,
  0xaa,
  0x0f,
  0xdd,
  0x9d,
  0x60,
  0x07,
  0x99,
  0xea,
  0x21,
  0xd1,
  0x8d,
  0x56,
  0xca,
  0x93,
  0x3a,
  0xbf,
  0xbb,
  0xdc,
  0x71,
  0x0f,
  0x04,
  0x8a,
  0xe2,
  0x45,
  0x76,
  0xd1,
  0x03,
  0x22,
  0x25,
  0x6b,
  0x85,
  0xf2,
  0xdf,
  0x8d,
  0x52,
  0x4b,
  0x21,
  0x0b,
  0x5b,
  0xe2,
  0x26,
  0xfa,
  0x32,
  0x05,
  0x2d,
  0x8e,
  0x4f,
  0x24,
  0x0b,
  0x1f,
  0x0b,
  0xc6,
  0x95,
  0x54,
  0xa6,
  0x3c,
  0x1a,
  0xbe,
  0xdf,
  0x26,
  0x45,
  0xfe,
  0x94,
  0x42,
  0x4b,
  0x29,
  0xab,
  0x6a,
  0x52,
  0x05,
  0x82,
  0x52,
  0xb6,
  0x2e,
  0xd7,
  0x91,
  0xf2,
  0x41,
  0x46,
  0x4e,
  0xa7,
  0xff,
  0xf8,
  0xbb,
  0x8f,
  0x6d,
  0xec,
  0x9a,
  0xfa,
  0x90,
  0x84,
  0x0f,
  0xc2,
  0x7e,
  0x81,
  0x85,
  0xb9,
  0x21,
  0x6b,
  0x49,
  0xf4,
  0x05,
  0x24,
  0xe7,
  0xc8,
  0x53,
  0x17,
  0x1d,
  0x7e,
  0x9a,
  0xb4,
  0xb0,
  0xec,
  0x1d,
  0x80,
  0x85,
  0xe2,
  0x74,
  0x29,
  0x0e,
  0x7c,
  0xb2,
  0x2e,
  0xe4,
  0x39,
  0x58,
  0xc0,
  0x11,
  0x42,
  0x0a,
  0x88,
  0x77,
  0x9a,
  0x0c,
  0x56,
  0x1e,
  0xc5,
  0x76,
  0x20,
  0xfd,
  0xb6,
  0x99,
  0x06,
  0xd6,
  0x9f,
  0x64,
  0x8f,
  0xc6,
  0xc0,
  0xa9,
  0x6c,
  0xeb,
  0x51,
  0xfa,
  0x72,
  0xbd,
  0xfb,
  0x78,
  0xfa,
  0xb3,
  0x99,
  0xf1,
  0x49,
  0xf1,
  0x33,
  0x0e,
  0x66,
  0x6f,
  0x97,
  0x56,
  0x34,
  0xdd,
  0xb0,
  0x99,
  0x06,
  0xe2,
  0x97,
  0xe7,
  0xac,
  0xde,
  0x83,
  0x8b,
  0xed,
  0x04,
  0x13,
  0xca,
  0x3a,
  0x36,
  0xfa,
  0x6e,
  0x63,
  0xb3,
  0x1a,
  0x82,
  0x81,
  0xdd,
  0x32,
  0x04,
  0x99,
  0x90,
  0x68,
  0xa9,
  0xcb,
  0x22,
  0x4f,
  0x66,
  0xf9,
  0x3d,
  0x68,
  0x18,
  0x51,
  0x31,
  0x7d,
  0x76,
  0x12,
  0xf3,
  0xae,
  0x25,
  0xc5,
  0xc1,
  0x05,
  0x91,
  0x9c,
  0x4c,
  0xe5,
  0x7d,
  0x76,
  0x26,
  0xcd,
  0x0b,
  0x92,
  0xb6,
  0xdf,
  0x5e,
  0xf9,
  0xa9,
  0x27,
  0x71,
  0x8e,
  0x22,
  0x8e,
  0x1c,
  0x47,
  0x7a,
  0xfe,
  0x24,
  0x44,
  0xbc,
  0xef,
  0x55,
  0x23,
  0x50,
  0x25,
  0xaa,
  0xef,
  0xdd,
  0x9d,
  0x60,
  0xf1,
  0x8d,
  0xd3,
  0x00,
  0xd9,
  0x8d,
  0x56,
  0x3a,
  0x93,
  0x3a,
  0xbf,
  0xbf,
  0xdc,
  0x71,
  0xcf,
  0x04,
  0x8a,
  0xe2,
  0x49,
  0x76,
  0xd1,
  0x03,
  0x22,
  0x25,
  0x6b,
  0x80,
  0xf2,
  0xdf,
  0x9d,
  0x52,
  0x4b,
  0x21,
  0x3d,
  0x84,
  0x86,
  0x0b,
  0xf6,
  0x32,
  0x05,
  0xad,
  0x8e,
  0x4f,
  0x24,
  0x0a,
  0x1f,
  0x0b,
  0xc6,
  0x95,
  0x54,
  0xa6,
  0x3d,
  0x1a,
  0xbe,
  0xbf,
  0x26,
  0x45,
  0xfe,
  0x9f,
  0x42,
  0x4b,
  0xe9,
  0xab,
  0x6a,
  0x52,
  0x25,
  0x92,
  0xe9,
  0x05,
  0x2d,
  0xd7,
  0x91,
  0x72,
  0x41,
  0x46,
  0x4e,
  0xa1,
  0xff,
  0xf8,
  0xdb,
  0x8f,
  0x6d,
  0xec,
  0x96,
  0xfa,
  0x90,
  0x64,
  0x0f,
  0xc2,
  0x7e,
  0x89,
  0x85,
  0xb9,
  0x51,
  0x6b,
  0x49,
  0xf4,
  0xd1,
  0x7a,
  0x82,
  0x09,
  0x56,
  0x17,
  0x1d,
  0x1e,
  0x9a,
  0xb4,
  0xb0,
  0xec,
  0x1d,
  0x80,
  0x95,
  0xe2,
  0x74,
  0x29,
  0x08,
  0x7c,
  0xb2,
  0x4e,
  0xe4,
  0x39,
  0x58,
  0xcd,
  0x11,
  0x42,
  0x4a,
  0x88,
  0x77,
  0x9a,
  0xcc,
  0xaa,
  0x63,
  0x07,
  0x77,
  0x20,
  0xfd,
  0xd6,
  0x99,
  0x06,
  0xd6,
  0x99,
  0x64,
  0x8f,
  0x76,
  0xc0,
  0xa9,
  0x6c,
  0xe9,
  0x51,
  0xfa,
  0xd2,
  0xbd,
  0xfb,
  0x78,
  0xf1,
  0xb3,
  0x99,
  0x11,
  0x49,
  0xf1,
  0x33,
  0x4c,
  0xa7,
  0x8b,
  0x09,
  0x57,
  0x34,
  0xdd,
  0x30,
  0x99,
  0x06,
  0xe2,
  0x99,
  0xe7,
  0xac,
  0x6e,
  0x83,
  0x8b,
  0xed,
  0x00,
  0x13,
  0xca,
  0xaa,
  0x36,
  0xfa,
  0x6e,
  0x6d,
  0xb3,
  0x1a,
  0x32,
  0x81,
  0xdd,
  0x32,
  0xcd,
  0x9e,
  0xcb,
  0x05,
  0xa8,
  0xcb,
  0x22,
  0xef,
  0x66,
  0xf9,
  0x3d,
  0x66,
  0x18,
  0x51,
  0x91,
  0x7d,
  0x76,
  0x12,
  0xff,
  0xae,
  0x25,
  0x75,
  0xc1,
  0x05,
  0x91,
  0x92,
  0x4c,
  0xe5,
  0x6d,
  0x76,
  0x26,
  0xcd,
  0x32,
  0x69,
  0x34,
  0x0a,
  0xdf,
  0x38,
  0x0d,
  0xd2,
  0x99,
  0x26,
  0x99,
  0xa3,
  0x10,
  0x3e,
  0x85,
  0x4b,
  0x67,
  0x14,
  0x19,
  0xa7,
  0x20,
  0x91,
  0xde,
  0xe6,
  0x3e,
  0x7e,
  0xa3,
  0x36,
  0x54,
  0x25,
  0xc4,
  0x56,
  0x89,
  0xfd,
  0x97,
  0x0c,
  0x43,
  0x68,
  0xb8,
  0xda,
  0x7d,
  0x97,
  0xf6,
  0x96,
  0x73,
  0x6e,
  0x6b,
  0x72,
  0xbc,
  0xcc,
  0xda,
  0x11,
  0xe6,
  0x2f,
  0xbc,
  0xbd,
  0x03,
  0x9e,
  0xfa,
  0xb0,
  0x43,
  0xa6,
  0x13,
  0xae,
  0x92,
  0xc8,
  0x57,
  0x05,
  0x22,
  0x99,
  0x5e,
  0x26,
  0xeb,
  0x4d,
  0xee,
  0x74,
  0x96,
  0x51,
  0x35,
  0x1c,
  0x43,
  0xa9,
  0x04,
  0xdd,
  0x19,
  0xe8,
  0xf0,
  0xcd,
  0xe6,
  0x3c,
  0xca,
  0x70,
  0x8d,
  0x79,
  0xd9,
  0x0e,
  0xb8,
  0x3e,
  0x8e,
  0x04,
  0xad,
  0x27,
  0x98,
  0xd1,
  0x39,
  0xca,
  0x75,
  0x7a,
  0x5f,
  0xd1,
  0x52,
  0x51,
  0xca,
  0x9e,
  0x39,
  0x3b,
  0xc9,
  0xbe,
  0xc5,
  0x92,
  0x9a,
  0x04,
  0x83,
  0xad,
  0xe1,
  0xae,
  0x27,
  0xe7,
  0x15,
  0x38,
  0x4c,
  0x0e,
  0xac,
  0x3a,
  0x76,
  0x66,
  0xf6,
  0x61,
  0x7b,
  0x3f,
  0xe3,
  0x91,
  0x3d,
  0x02,
  0xf4,
  0x65,
  0xeb,
  0x29,
  0x5b,
  0xa5,
  0xed,
  0xc6,
  0xd0,
  0xd4,
  0xc5,
  0x5f,
  0xc8,
  0xf3,
  0xfb,
  0xd1,
  0x12,
  0xaf,
  0xb6,
  0x0b,
  0x74,
  0xba,
  0x98,
  0xad,
  0xa3,
  0x5d,
  0x2f,
  0xdb,
  0xb4,
  0x88,
  0x67,
  0x7a,
  0x6c,
  0x3c,
  0xbd,
  0x1e,
  0xb0,
  0x4f,
  0xa3,
  0x04,
  0xa4,
  0x41,
  0x2c,
  0xf3,
  0x36,
  0x70,
  0xfc,
  0x68,
  0x86,
  0xa4,
  0x7c,
  0x02,
  0xec,
  0xb9,
  0x5c,
  0x0b,
  0x23,
  0x7b,
  0x4b,
  0xd7,
  0x85,
  0x87,
  0x1f,
  0x78,
  0x67,
  0xa9,
  0xad,
  0x38,
  0x98,
  0xaa,
  0xf2,
  0xe4,
  0x0c,
  0xd0,
  0xbc,
  0x9b,
  0x47,
  0xf6,
  0xfc,
  0xe4,
  0x16,
  0xa5,
  0x90,
  0x0a,
  0x93,
  0x46,
  0xa3,
  0xd4,
  0xdc,
  0x80,
  0xb4,
  0x20,
  0x7a,
  0x72,
  0x80,
  0x85,
  0x98,
  0x56,
  0x52,
  0xc6,
  0x67,
  0x55,
  0x0d,
  0x3b,
  0xf3,
  0xaf,
  0x53,
  0x64,
  0xb8,
  0x09,
  0x03,
  0x13,
  0xe9,
  0x5a,
  0x6f,
  0x05,
  0xd3,
  0x99,
  0x26,
  0x09,
  0xa3,
  0x10,
  0x3e,
  0x80,
  0x4b,
  0x67,
  0x84,
  0x19,
  0xa7,
  0x20,
  0x97,
  0xde,
  0xe6,
  0x2e,
  0x7e,
  0xa3,
  0x36,
  0x58,
  0x25,
  0xc4,
  0xf6,
  0x89,
  0xfd,
  0x97,
  0x8d,
  0x70,
  0xc2,
  0x02,
  0xd9,
  0x7d,
  0x97,
  0x16,
  0x96,
  0x73,
  0x6e,
  0x66,
  0x72,
  0xbc,
  0x7c,
  0xda,
  0x11,
  0xe6,
  0x20,
  0xbc,
  0xbd,
  0x43,
  0x9e,
  0xfa,
  0xb0,
  0x49,
  0xa6,
  0x13,
  0xee,
  0x92,
  0xc8,
  0x57,
  0x0b,
  0xa4,
  0x54,
  0x03,
  0x28,
  0xeb,
  0x4d,
  0x8e,
  0x74,
  0x96,
  0x51,
  0x31,
  0x1c,
  0x43,
  0x99,
  0x04,
  0xdd,
  0x19,
  0xe8,
  0xf0,
  0xcd,
  0x06,
  0x3c,
  0xca,
  0x70,
  0x85,
  0x79,
  0xd9,
  0x2e,
  0xb8,
  0x3e,
  0x8e,
  0xff,
  0xea,
  0xa2,
  0x03,
  0xd0,
  0x39,
  0xca,
  0xb5,
  0x7a,
  0x5f,
  0xd1,
  0x56,
  0x51,
  0xca,
  0xde,
  0x39,
  0x3b,
  0xc9,
  0xb2,
  0xc5,
  0x92,
  0xfa,
  0x04,
  0x83,
  0xad,
  0xe9,
  0xae,
  0x27,
  0xe7,
  0x15,
  0x38,
  0x4c,
  0xca,
  0x95,
  0xf5,
  0x09,
  0x6f,
  0xf6,
  0x61,
  0x3b,
  0x3f,
  0xe3,
  0x91,
  0x30,
  0x02,
  0xf4,
  0xc5,
  0xeb,
  0x29,
  0x5b,
  0xa5,
  0xed,
  0xc6,
  0x80,
  0xd4,
  0xc5,
  0x5f,
  0xc3,
  0xf3,
  0xfb,
  0x51,
  0x12,
  0xaf,
  0xb6,
  0xef,
  0xaf,
  0x5b,
  0x0a,
  0xac,
  0xa3,
  0x5d,
  0x8f,
  0xdb,
  0xb4,
  0x88,
  0x66,
  0x7a,
  0x6c,
  0xcc,
  0xbd,
  0x1e,
  0xb0,
  0x4e,
  0xa3,
  0x04,
  0x94,
  0x41,
  0x2c,
  0xf3,
  0x35,
  0x70,
  0xfc,
  0xf8,
  0x86,
  0xa4,
  0x7c,
  0x9b,
  0x84,
  0x2c,
  0x0c,
  0x0e,
  0x23,
  0x7b,
  0x0b,
  0xd7,
  0x85,
  0x87,
  0x18,
  0x78,
  0x67,
  0x89,
  0xad,
  0x38,
  0x98,
  0xa2,
  0xf2,
  0xe4,
  0xdc,
  0xd0,
  0xbc,
  0x9b,
  0x44,
  0xf6,
  0xfc,
  0xf4,
  0x16,
  0xa5,
  0x90,
  0x4b,
  0x5f,
  0x08,
  0x0f,
  0xd1,
  0xdc,
  0x80,
  0xf4,
  0x20,
  0x7a,
  0x72,
  0x8f,
  0x85,
  0x98,
  0x76,
  0x52,
  0xc6,
  0x67,
  0x5d,
  0x0d,
  0x3b,
  0x23,
  0xaf,
  0x53,
  0x64,
  0xba,
  0x09,
  0x03,
  0x03,
  0xe9,
  0x5a,
  0x6f,
  0x34,
  0x28,
  0xf7,
  0x02,
  0x08,
  0x27,
  0x2c,
  0x98,
  0x88,
  0xcb,
  0x86,
  0x9a,
  0x8b,
  0xbf,
  0xf2,
  0xd6,
  0xed,
  0x9e,
  0x96,
  0x8c,
  0xc4,
  0xd1,
  0x53,
  0x32,
  0xd8,
  0x98,
  0x1e,
  0xf3,
  0x9f,
  0x0e,
  0x6d,
  0x59,
  0x9b,
  0xcb,
  0xeb,
  0x08,
  0x40,
  0x4a,
  0x35,
  0xe0,
  0xff,
  0x28,
  0x64,
  0x43,
  0x9b,
  0x12,
  0xef,
  0xc9,
  0x2a,
  0x81,
  0x13,
  0x6c,
  0xd6,
  0x50,
  0x3a,
  0x6f,
  0x36,
  0xda,
  0x7e,
  0x2e,
  0xa8,
  0x53,
  0x61,
  0x6a,
  0xcd,
  0x78,
  0x32,
  0x06,
  0xaf,
  0x2e,
  0x3a,
  0x94,
  0x2b,
  0x90,
  0x35,
  0x3f,
  0xa4,
  0x02,
  0x16,
  0x13,
  0xb1,
  0x3b,
  0x42,
  0xb0,
  0x18,
  0x5d,
  0xa4,
  0x86,
  0x8b,
  0xf2,
  0x5b,
  0x32,
  0xc6,
  0x5b,
  0xeb,
  0xbd,
  0xc5,
  0xe7,
  0x51,
  0x04,
  0x5c,
  0x59,
  0x9f,
  0x69,
  0xf7,
  0x61,
  0xbd,
  0x10,
  0x2c,
  0xef,
  0xd6,
  0xaf,
  0x81,
  0xf8,
  0x91,
  0x6d,
  0xf4,
  0x72,
  0x95,
  0x36,
  0xab,
  0x6b,
  0xfb,
  0xdd,
  0x7b,
  0xce,
  0xd3,
  0xf3,
  0x0c,
  0x85,
  0x9e,
  0x03,
  0xfe,
  0xba,
  0xa5,
  0x9c,
  0x40,
  0x42,
  0x05,
  0x45,
  0x66,
  0x5f,
  0x6c,
  0x3d,
  0x5d,
  0x12,
  0x7b,
  0x8e,
  0x6a,
  0x94,
  0x35,
  0xd4,
  0xb6,
  0xa7,
  0xa8,
  0x60,
  0x6e,
  0x42,
  0x3e,
  0xcb,
  0x77,
  0x6e,
  0xf6,
  0x05,
  0x49,
  0xc8,
  0xc2,
  0x93,
  0x57,
  0xf3,
  0xda,
  0xfd,
  0x7e,
  0x95,
  0xef,
  0x1a,
  0xf3,
  0x1c,
  0x98,
  0x81,
  0xf0,
  0x8c,
  0xfc,
  0x7d,
  0x4e,
  0xf1,
  0x46,
  0x65,
  0x22,
  0x57,
  0x1f,
  0x2c,
  0xfa,
  0x8c,
  0xd4,
  0x05,
  0xf4,
  0x85,
  0xf0,
  0x9f,
  0x4f,
  0xf5,
  0x96,
  0x6c,
  0x36,
  0xdd,
  0xa7,
  0x5f,
  0xeb,
  0xda,
  0x9e,
  0xa1,
  0xc1,
  0x19,
  0x8c,
  0x5e,
  0xbb,
  0x47,
  0x92,
  0x6c,
  0xe2,
  0x36,
  0x18,
  0xff,
  0xfa,
  0x38,
  0x24,
  0x04,
  0x83,
  0x72,
  0x2f,
  0x61,
  0xb0,
  0x0e,
  0x69,
  0x93,
  0xc9,
  0x22,
  0x18,
  0xe0,
  0x1c,
  0x25,
  0x61,
  0x7e,
  0x1f,
  0x66,
  0x73,
  0xa1,
  0xc0,
  0x38,
  0x6d,
  0x93,
  0x1d,
  0x89,
  0xe3,
  0x40,
  0x05,
  0xc7,
  0x4b,
  0x0a,
  0x9a,
  0x88,
  0xcb,
  0x76,
  0x9a,
  0x8b,
  0xbf,
  0xfd,
  0xd6,
  0xed,
  0x0e,
  0x96,
  0x8c,
  0xc4,
  0xdc,
  0x53,
  0x32,
  0x88,
  0x98,
  0x1e,
  0xf3,
  0x96,
  0x0e,
  0x6d,
  0x09,
  0x9b,
  0xcb,
  0xeb,
  0x1d,
  0x61,
  0x42,
  0x06,
  0xee,
  0xff,
  0x28,
  0x54,
  0x43,
  0x9b,
  0x12,
  0xe5,
  0xc9,
  0x2a,
  0x21,
  0x13,
  0x6c,
  0xd6,
  0x5f,
  0x3a,
  0x6f,
  0xa6,
  0xda,
  0x7e,
  0x2e,
  0xac,
  0x53,
  0x61,
  0x9a,
  0xcd,
  0x78,
  0x32,
  0xef,
  0x02,
  0x86,
  0x0c,
  0x93,
  0x2b,
  0x90,
  0x95,
  0x3f,
  0xa4,
  0x02,
  0x18,
  0x13,
  0xb1,
  0x9b,
  0x42,
  0xb0,
  0x18,
  0x5c,
  0xa4,
  0x86,
  0x1b,
  0xf2,
  0x5b,
  0x32,
  0xc5,
  0x5b,
  0xeb,
  0x5d,
  0xc5,
  0xe7,
  0x51,
  0x2d,
  0x5f,
  0x00,
  0x08,
  0x67,
  0xf7,
  0x61,
  0x4d,
  0x10,
  0x2c,
  0xef,
  0xdc,
  0xaf,
  0x81,
  0xc8,
  0x91,
  0x6d,
  0xf4,
  0x7b,
  0x95,
  0x36,
  0xdb,
  0x6b,
  0xfb,
  0xdd,
  0x76,
  0xce,
  0xd3,
  0xf3,
  0x0c,
  0x85,
  0x9e,
  0x59,
  0x6f,
  0x4f,
  0x0c,
  0x9e,
  0x40,
  0x42,
  0x75,
  0x45,
  0x66,
  0x5f,
  0x68,
  0x3d,
  0x5d,
  0x22,
  0x7b,
  0x8e,
  0x6a,
  0x92,
  0x35,
  0xd4,
  0xd6,
  0xa7,
  0xa8,
  0x60,
  0x65,
  0x42,
  0x3e,
  0x6b,
  0x77,
  0x6e,
  0xf6,
  0xaa,
  0x30,
  0xf8,
  0x05,
  0x92,
  0x57,
  0xf3,
  0x3a,
  0xfd,
  0x7e,
  0x95,
  0xe8,
  0x1a,
  0xf3,
  0x9c,
  0x98,
  0x81,
  0xf0,
  0x81,
  0xfc,
  0x7d,
  0xce,
  0xf1,
  0x46,
  0x65,
  0x20,
  0x57,
  0x1f,
  0x7c,
  0xfa,
  0x8c,
  0xd4,
  0xb0,
  0x5e,
  0x95,
  0x03,
  0x92,
  0x4f,
  0xf5,
  0x76,
  0x6c,
  0x36,
  0xdd,
  0xa8,
  0x5f,
  0xeb,
  0x0a,
  0x9e,
  0xa1,
  0xc1,
  0x1a,
  0x8c,
  0x5e,
  0xbb,
  0x47,
  0x92,
  0x6c,
  0xe0,
  0x36,
  0x18,
  0x5f,
  0xfa,
  0x38,
  0x24,
  0xb3,
  0xd6,
  0xc1,
  0x08,
  0x6d,
  0xb0,
  0x0e,
  0x89,
  0x93,
  0xc9,
  0x22,
  0x17,
  0xe0,
  0x1c,
  0xf5,
  0x61,
  0x7e,
  0x1f,
  0x67,
  0x73,
  0xa1,
  0x40,
  0x38,
  0x6d,
  0x93,
  0x1f,
  0x89,
  0xe3,
  0xa0,
  0x05,
  0xc7,
  0x4b,
  0x4c,
  0x29,
  0x3e,
  0x0f,
  0x11,
  0x26,
  0x64,
  0x08,
  0xd5,
  0x59,
  0x3a,
  0x7f,
  0x00,
  0x84,
  0xfc,
  0x35,
  0x35,
  0x3b,
  0xe5,
  0xc1,
  0x0d,
  0x0f,
  0x9e,
  0x87,
  0xb7,
  0xb8,
  0xd5,
  0xb2,
  0x82,
  0x35,
  0x4f,
  0x4c,
  0xc0,
  0x92,
  0xc9,
  0x03,
  0x2e,
  0x60,
  0xc8,
  0x60,
  0x92,
  0x26,
  0x92,
  0xaf,
  0x27,
  0xc2,
  0xae,
  0x28,
  0x92,
  0x07,
  0xf1,
  0x5d,
  0xd5,
  0xdf,
  0x05,
  0xe3,
  0x34,
  0x25,
  0xd8,
  0x95,
  0xa2,
  0xfd,
  0x12,
  0x91,
  0x58,
  0x08,
  0xb2,
  0x07,
  0xf2,
  0x05,
  0x80,
  0xc9,
  0x02,
  0x6c,
  0x77,
  0x6b,
  0x83,
  0xd4,
  0x40,
  0x8e,
  0x1f,
  0xe9,
  0xc8,
  0x08,
  0x22,
  0x3d,
  0x3b,
  0xc2,
  0x98,
  0x1e,
  0xaf,
  0xfe,
  0x6c,
  0x0c,
  0x01,
  0xb7,
  0x40,
  0x43,
  0x25,
  0x01,
  0xf5,
  0xf6,
  0xc4,
  0x90,
  0xb3,
  0x89,
  0x76,
  0xac,
  0x7a,
  0xfc,
  0x09,
  0x6d,
  0x9d,
  0x70,
  0xaa,
  0x0e,
  0x06,
  0x9b,
  0x28,
  0x57,
  0xcd,
  0xbf,
  0x5f,
  0xad,
  0x16,
  0x31,
  0xb4,
  0xc2,
  0xeb,
  0x90,
  0x32,
  0x0e,
  0x0a,
  0x83,
  0x5f,
  0x67,
  0x44,
  0x62,
  0xed,
  0xdd,
  0xbf,
  0x77,
  0x4a,
  0x6e,
  0x75,
  0x40,
  0xd0,
  0xaf,
  0x37,
  0x09,
  0xff,
  0xc4,
  0x0a,
  0xbc,
  0xe7,
  0x73,
  0x29,
  0x9e,
  0xb3,
  0x96,
  0x87,
  0x0f,
  0x72,
  0x04,
  0xeb,
  0x55,
  0x39,
  0x55,
  0xd4,
  0xf4,
  0xfd,
  0x3c,
  0x72,
  0x4e,
  0x36,
  0x46,
  0x72,
  0x54,
  0x3f,
  0xb3,
  0xba,
  0x86,
  0xc8,
  0x3d,
  0x59,
  0x9b,
  0xb4,
  0xdc,
  0xc4,
  0xcf,
  0x31,
  0x96,
  0x24,
  0x79,
  0xf7,
  0x02,
  0x6b,
  0x1d,
  0x8c,
  0xd2,
  0xd1,
  0x06,
  0xd9,
  0x7d,
  0xf7,
  0x4f,
  0x6a,
  0x07,
  0x67,
  0x08,
  0x62,
  0x85,
  0x12,
  0xfe,
  0xb8,
  0x7f,
  0xca,
  0x9f,
  0x31,
  0x38,
  0xad,
  0x9f,
  0xe1,
  0x06,
  0xa6,
  0xef,
  0xb3,
  0x00,
  0x94,
  0xe2,
  0xf3,
  0x2f,
  0x2f,
  0xb9,
  0x02,
  0x82,
  0x08,
  0xb0,
  0xb5,
  0xf8,
  0x88,
  0xb7,
  0x9d,
  0x7a,
  0x6d,
  0x00,
  0x47,
  0x90,
  0x37,
  0x60,
  0xce,
  0xc7,
  0x52,
  0x60,
  0x5e,
  0xf9,
  0x59,
  0x12,
  0x4c,
  0x0f,
  0x0c,
  0xd5,
  0x59,
  0xda,
  0x7f,
  0x00,
  0x84,
  0xf3,
  0x35,
  0x35,
  0x2b,
  0xe5,
  0xc1,
  0x0d,
  0x03,
  0x9e,
  0x87,
  0x07,
  0xb8,
  0xd5,
  0xb2,
  0x80,
  0x35,
  0x4f,
  0x5c,
  0xc0,
  0x92,
  0xc9,
  0x8d,
  0xb3,
  0x01,
  0x07,
  0x69,
  0x92,
  0x26,
  0xf2,
  0xaf,
  0x27,
  0xc2,
  0xa6,
  0x28,
  0x92,
  0xd7,
  0xf1,
  0x5d,
  0xd5,
  0xd3,
  0x05,
  0xe3,
  0x74,
  0x25,
  0xd8,
  0x95,
  0xa0,
  0xfd,
  0x12,
  0xd1,
  0x58,
  0x08,
  0xb2,
  0x53,
  0x47,
  0x22,
  0x0c,
  0xcc,
  0x02,
  0x6c,
  0x57,
  0x6b,
  0x83,
  0xd4,
  0x4f,
  0x8e,
  0x1f,
  0x19,
  0xc8,
  0x08,
  0x22,
  0x39,
  0x3b,
  0xc2,
  0x08,
  0x1e,
  0xaf,
  0xfe,
  0x61,
  0x0c,
  0x01,
  0x67,
  0x40,
  0x43,
  0x25,
  0x44,
  0x1c,
  0x5c,
  0x04,
  0x91,
  0xb3,
  0x89,
  0x36,
  0xac,
  0x7a,
  0xfc,
  0x07,
  0x6d,
  0x9d,
  0x70,
  0xaa,
  0x0e,
  0x06,
  0x91,
  0x28,
  0x57,
  0xed,
  0xbf,
  0x5f,
  0xad,
  0x1f,
  0x31,
  0xb4,
  0xc2,
  0xeb,
  0x90,
  0x32,
  0x3e,
  0x89,
  0x42,
  0x05,
  0x65,
  0x44,
  0x62,
  0x5d,
  0xdd,
  0xbf,
  0x77,
  0x41,
  0x6e,
  0x75,
  0xc0,
  0xd0,
  0xaf,
  0x37,
  0x05,
  0xff,
  0xc4,
  0x1a,
  0xbc,
  0xe7,
  0x73,
  0x2f,
  0x9e,
  0xb3,
  0x86,
  0x87,
  0x0f,
  0x72,
  0x62,
  0x8f,
  0x16,
  0x0f,
  0x5f,
  0xd4,
  0xf4,
  0x2d,
  0x3c,
  0x72,
  0x4e,
  0x39,
  0x46,
  0x72,
  0xa4,
  0x3f,
  0xb3,
  0xba,
  0x86,
  0xc8,
  0x3d,
  0x39,
  0x9b,
  0xb4,
  0xdc,
  0xc7,
  0xcf,
  0x31,
  0x56,
  0x24,
  0x79,
  0xf7,
  0x35,
  0x18,
  0xe5,
  0x01,
  0xd5,
  0xd1,
  0x06,
  0x79,
  0x7d,
  0xf7,
  0x4f,
  0x61,
  0x07,
  0x67,
  0xe8,
  0x62,
  0x85,
  0x12,
  0xf0,
  0xb8,
  0x7f,
  0x9a,
  0x9f,
  0x31,
  0x38,
  0xa6,
  0x9f,
  0xe1,
  0x76,
  0xa6,
  0xef,
  0xb3,
  0x76,
  0x02,
  0x36,
  0x09,
  0x2a,
  0x2f,
  0xb9,
  0x82,
  0x82,
  0x08,
  0xb0,
  0xbe,
  0xf8,
  0x88,
  0x17,
  0x9d,
  0x7a,
  0x6d,
  0x0f,
  0x47,
  0x90,
  0x67,
  0x60,
  0xce,
  0xc7,
  0x59,
  0x60,
  0x5e,
  0x89,
  0x59,
  0x12,
  0x4c,
  0x89,
  0xf5,
  0x88,
  0x06,
  0x38,
  0x1b,
  0x70,
  0xbf,
  0x14,
  0xca,
  0xcb,
  0x87,
  0xba,
  0x59,
  0x19,
  0x43,
  0x65,
  0x70,
  0x06,
  0x0f,
  0xa0,
  0xa5,
  0x6a,
  0x8f,
  0x86,
  0xa4,
  0xaa,
  0x88,
  0x1a,
  0xdd,
  0x02,
  0xd2,
  0x29,
  0x7f,
  0x10,
  0x0c,
  0x75,
  0x24,
  0xc2,
  0x7d,
  0xa4,
  0x8b,
  0xd4,
  0x58,
  0x49,
  0xf6,
  0x62,
  0x3a,
  0x01,
  0x7a,
  0xea,
  0x8f,
  0x92,
  0xd1,
  0x2c,
  0x6a,
  0x9e,
  0xe9,
  0x2d,
  0x22,
  0x3d,
  0xd0,
  0xb2,
  0x8e,
  0xef,
  0xa8,
  0xf2,
  0x06,
  0xc4,
  0xc1,
  0x45,
  0x90,
  0xef,
  0xc9,
  0x4a,
  0xe5,
  0x6c,
  0xaa,
  0x9d,
  0x6d,
  0x74,
  0xcb,
  0x58,
  0x90,
  0xac,
  0x04,
  0x77,
  0x67,
  0x96,
  0xf3,
  0xda,
  0xef,
  0x9c,
  0x72,
  0x5c,
  0xf2,
  0xf7,
  0x9e,
  0x49,
  0x00,
  0x93,
  0x28,
  0x54,
  0xd3,
  0xf9,
  0x50,
  0x25,
  0x18,
  0x74,
  0x7a,
  0xf3,
  0xb6,
  0xf0,
  0x38,
  0x81,
  0x4e,
  0x09,
  0x8a,
  0x24,
  0x15,
  0x6d,
  0xc1,
  0x9e,
  0x47,
  0x33,
  0x64,
  0xf4,
  0x96,
  0x05,
  0xf0,
  0xe3,
  0x08,
  0xf6,
  0x68,
  0xf1,
  0x8d,
  0x77,
  0xdb,
  0xd2,
  0xe0,
  0xbe,
  0x1a,
  0x19,
  0x5f,
  0x7d,
  0x15,
  0xe6,
  0xb9,
  0xca,
  0xb8,
  0x9f,
  0x37,
  0x5c,
  0x70,
  0x97,
  0x95,
  0xed,
  0x76,
  0xd5,
  0x98,
  0x9c,
  0x35,
  0x43,
  0x07,
  0x83,
  0x51,
  0x1e,
  0x46,
  0x32,
  0x44,
  0xa0,
  0xf8,
  0x3f,
  0x6a,
  0x39,
  0x0c,
  0xef,
  0xfb,
  0x29,
  0xf0,
  0x15,
  0x48,
  0xd7,
  0x0d,
  0xfa,
  0xd9,
  0x2c,
  0x0c,
  0xee,
  0x2a,
  0x3a,
  0xfd,
  0xc3,
  0xf7,
  0x7b,
  0x0b,
  0x27,
  0x60,
  0x93,
  0x64,
  0x51,
  0x48,
  0xa5,
  0xf8,
  0x39,
  0xfa,
  0x8d,
  0x07,
  0x6f,
  0x7b,
  0x05,
  0x1f,
  0x4d,
  0x4a,
  0xb1,
  0x2d,
  0xde,
  0xc8,
  0xa7,
  0x04,
  0x0d,
  0x60,
  0x3f,
  0xd4,
  0xd7,
  0xb4,
  0x7b,
  0x0d,
  0x58,
  0x8f,
  0x68,
  0x9b,
  0x8e,
  0xb7,
  0x5a,
  0x07,
  0xc2,
  0x85,
  0x76,
  0xf8,
  0x90,
  0x84,
  0xfa,
  0xc2,
  0xb2,
  0xb7,
  0x2a,
  0xd2,
  0x21,
  0x37,
  0x5a,
  0xfa,
  0x32,
  0x9d,
  0xc5,
  0x2b,
  0x68,
  0x4b,
  0x84,
  0x02,
  0xb3,
  0x14,
  0xca,
  0x7b,
  0x87,
  0xba,
  0x59,
  0x15,
  0x43,
  0x65,
  0x90,
  0x06,
  0x0f,
  0xa0,
  0xa3,
  0x6a,
  0x8f,
  0xa6,
  0xa4,
  0xaa,
  0x88,
  0x11,
  0xdd,
  0x02,
  0xf2,
  0x29,
  0x7f,
  0x10,
  0x3a,
  0x36,
  0xdf,
  0x0d,
  0x72,
  0xa4,
  0x8b,
  0x34,
  0x58,
  0x49,
  0xf6,
  0x62,
  0x3a,
  0x01,
  0xba,
  0xea,
  0x8f,
  0x92,
  0xd6,
  0x2c,
  0x6a,
  0x3e,
  0xe9,
  0x2d,
  0x22,
  0x30,
  0xd0,
  0xb2,
  0x9e,
  0xef,
  0xa8,
  0xf2,
  0x8f,
  0xc2,
  0x98,
  0x04,
  0x96,
  0xef,
  0xc9,
  0x9a,
  0xe5,
  0x6c,
  0xaa,
  0x95,
  0x6d,
  0x74,
  0x7b,
  0x58,
  0x90,
  0xac,
  0x0f,
  0x77,
  0x67,
  0xd6,
  0xf3,
  0xda,
  0xef,
  0x9a,
  0x72,
  0x5c,
  0xe2,
  0xf7,
  0x9e,
  0x49,
  0x8e,
  0x4c,
  0x70,
  0x02,
  0xd8,
  0xf9,
  0x50,
  0xc5,
  0x18,
  0x74,
  0x7a,
  0xf5,
  0xb6,
  0xf0,
  0x68,
  0x81,
  0x4e,
  0x09,
  0x84,
  0x24,
  0x15,
  0x0d,
  0xc1,
  0x9e,
  0x47,
  0x3c,
  0x64,
  0xf4,
  0x16,
  0x05,
  0xf0,
  0xe3,
  0x93,
  0x35,
  0x9e,
  0x07,
  0x88,
  0x77,
  0xdb,
  0x42,
  0xe0,
  0xbe,
  0x1a,
  0x1b,
  0x5f,
  0x7d,
  0xd5,
  0xe6,
  0xb9,
  0xca,
  0xb2,
  0x9f,
  0x37,
  0x4c,
  0x70,
  0x97,
  0x95,
  0xee,
  0x76,
  0xd5,
  0x38,
  0x9c,
  0x35,
  0x43,
  0xc3,
  0xe0,
  0xd7,
  0x02,
  0x49,
  0x32,
  0x44,
  0xa0,
  0xf8,
  0x3f,
  0x6a,
  0x3c,
  0x0c,
  0xef,
  0xcb,
  0x29,
  0xf0,
  0x15,
  0x41,
  0xd7,
  0x0d,
  0xaa,
  0xd9,
  0x2c,
  0x0c,
  0xe0,
  0x2a,
  0x3a,
  0x5d,
  0xc3,
  0xf7,
  0x7b,
  0x33,
  0xbc,
  0xbc,
  0x00,
  0x69,
  0x51,
  0x48,
  0xa5,
  0xf8,
  0x39,
  0xfa,
  0x8d,
  0x07,
  0x6f,
  0x9b,
  0x05,
  0x1f,
  0x4d,
  0x47,
  0xb1,
  0x2d,
  0x0e,
  0xc8,
  0xa7,
  0x04,
  0x00,
  0x60,
  0x3f,
  0x54,
  0xd7,
  0xb4,
  0x7b,
  0x03,
  0x38,
  0x3d,
  0x02,
  0x96,
  0x8e,
  0xb7,
  0x5a,
  0x07,
  0xc2,
  0x85,
  0x72,
  0xf8,
  0x90,
  0x64,
  0xfa,
  0xc2,
  0xb2,
  0xb8,
  0x2a,
  0xd2,
  0xf1,
  0x37,
  0x5a,
  0xfa,
  0x3f,
  0x9d,
  0xc5,
  0xab,
  0x68,
  0x4b,
  0x84,
  0xfc,
  0xc7,
  0xc2,
  0x0d,
  0x63,
  0xf3,
  0xdd,
  0x1e,
  0xad,
  0xb9,
  0xa1,
  0x52,
  0x9c,
  0x31,
  0xab,
  0x45,
  0x2f,
  0x13,
  0x01,
  0xd2,
  0x33,
  0x47,
  0x30,
  0x0c,
  0x2d,
  0xc9,
  0xa3,
  0x74,
  0x74,
  0x22,
  0xc5,
  0x82,
  0x69,
  0x3c,
  0xef,
  0x08,
  0x28,
  0x8c,
  0x49,
  0x87,
  0xc3,
  0x49,
  0xe6,
  0xaf,
  0x0a,
  0xd4,
  0xea,
  0x8f,
  0xb2,
  0x5a,
  0x6f,
  0xf8,
  0x71,
  0x7d,
  0x64,
  0x8d,
  0x5a,
  0x15,
  0xe2,
  0xa8,
  0xb7,
  0x3c,
  0x0e,
  0xeb,
  0x0f,
  0xb8,
  0x0f,
  0x0b,
  0xc8,
  0x04,
  0x27,
  0x5d,
  0x38,
  0xf9,
  0xb4,
  0xfa,
  0x8b,
  0x59,
  0x34,
  0x74,
  0xf1,
  0x52,
  0xde,
  0x90,
  0x10,
  0xe7,
  0xc3,
  0xab,
  0xe7,
  0x85,
  0xa7,
  0x62,
  0x77,
  0x49,
  0x4f,
  0x04,
  0xca,
  0x9b,
  0x48,
  0x0f,
  0x59,
  0xe3,
  0x79,
  0x8a,
  0x31,
  0x7e,
  0xc5,
  0x54,
  0x1e,
  0xa7,
  0x95,
  0x87,
  0x19,
  0xf2,
  0x2a,
  0x2b,
  0xe6,
  0x35,
  0xcf,
  0xfe,
  0x4d,
  0x6a,
  0x22,
  0xbd,
  0xc6,
  0x43,
  0x2c,
  0x56,
  0x2c,
  0x5e,
  0xce,
  0x0f,
  0x0c,
  0x7e,
  0x2d,
  0x44,
  0xa2,
  0x72,
  0x15,
  0x2c,
  0x98,
  0x09,
  0x42,
  0xd1,
  0xbf,
  0xbd,
  0xf1,
  0x7a,
  0xf0,
  0xaa,
  0x83,
  0x90,
  0xfb,
  0x88,
  0x90,
  0x38,
  0x74,
  0x71,
  0x11,
  0x20,
  0x84,
  0xb5,
  0xc8,
  0x09,
  0xc3,
  0xcb,
  0x0b,
  0x7f,
  0xf6,
  0xc1,
  0x1e,
  0x96,
  0x01,
  0x40,
  0x9a,
  0x32,
  0x11,
  0x71,
  0xc8,
  0xe2,
  0x06,
  0x11,
  0x8c,
  0x62,
  0x95,
  0x12,
  0x6e,
  0x26,
  0x5c,
  0xf0,
  0x9b,
  0xc8,
  0x8a,
  0x82,
  0xb9,
  0x0c,
  0x80,
  0xd3,
  0x23,
  0xe7,
  0xd2,
  0xe3,
  0x9e,
  0x04,
  0x50,
  0x78,
  0xfa,
  0x82,
  0xf9,
  0xf7,
  0xc8,
  0x62,
  0x5b,
  0x50,
  0xdb,
  0xfe,
  0xf5,
  0x06,
  0x06,
  0x37,
  0x55,
  0x51,
  0xba,
  0x7a,
  0x86,
  0x2a,
  0x08,
  0x0c,
  0x7f,
  0x2c,
  0xdc,
  0x18,
  0x2d,
  0x1c,
  0x67,
  0xfb,
  0xef,
  0xd7,
  0x25,
  0x2d,
  0x26,
  0x08,
  0x37,
  0x9d,
  0xa4,
  0xaf,
  0x24,
  0x05,
  0x0a,
  0xfd,
  0xf9,
  0xc8,
  0xaa,
  0xae,
  0x44,
  0x97,
  0x79,
  0x55,
  0xf7,
  0x03,
  0x10,
  0xad,
  0xb9,
  0xd1,
  0x52,
  0x9c,
  0x31,
  0xa4,
  0x45,
  0x2f,
  0xe3,
  0x01,
  0xd2,
  0x33,
  0x48,
  0x30,
  0x0c,
  0xad,
  0xc9,
  0xa3,
  0x74,
  0x73,
  0x22,
  0xc5,
  0xb2,
  0x69,
  0x3c,
  0xef,
  0xda,
  0x10,
  0x67,
  0x01,
  0x8b,
  0xc3,
  0x49,
  0xa6,
  0xaf,
  0x0a,
  0xd4,
  0xe6,
  0x8f,
  0xb2,
  0x6a,
  0x6f,
  0xf8,
  0x71,
  0x74,
  0x64,
  0x8d,
  0xaa,
  0x15,
  0xe2,
  0xa8,
  0xbf,
  0x3c,
  0x0e,
  0x2b,
  0x0f,
  0xb8,
  0x0f,
  0x9c,
  0xfc,
  0x11,
  0x03,
  0x59,
  0x38,
  0xf9,
  0xf4,
  0xfa,
  0x8b,
  0x59,
  0x3f,
  0x74,
  0xf1,
  0xd2,
  0xde,
  0x90,
  0x10,
  0xed,
  0xc3,
  0xab,
  0x67,
  0x85,
  0xa7,
  0x62,
  0x77,
  0x49,
  0x4f,
  0xf4,
  0xca,
  0x9b,
  0x48,
  0x34,
  0xd7,
  0xa2,
  0x05,
  0x82,
  0x31,
  0x7e,
  0x15,
  0x54,
  0x1e,
  0xa7,
  0x98,
  0x87,
  0x19,
  0xc2,
  0x2a,
  0x2b,
  0xe6,
  0x3e,
  0xcf,
  0xfe,
  0x8d,
  0x6a,
  0x22,
  0xbd,
  0xce,
  0x43,
  0x2c,
  0x86,
  0x2c,
  0x5e,
  0xce,
  0x25,
  0x55,
  0xaf,
  0x0e,
  0x4e,
  0xa2,
  0x72,
  0xe5,
  0x2c,
  0x98,
  0x09,
  0x4e,
  0xd1,
  0xbf,
  0x3d,
  0xf1,
  0x7a,
  0xf0,
  0xaa,
  0x83,
  0x90,
  0xcb,
  0x88,
  0x90,
  0x38,
  0x7f,
  0x71,
  0x11,
  0xb0,
  0x84,
  0xb5,
  0xc8,
  0x38,
  0xf2,
  0xd2,
  0x0c,
  0x7b,
  0xf6,
  0xc1,
  0xbe,
  0x96,
  0x01,
  0x40,
  0x9a,
  0x32,
  0x11,
  0xd1,
  0xc8,
  0xe2,
  0x06,
  0x17,
  0x8c,
  0x62,
  0x05,
  0x12,
  0x6e,
  0x26,
  0x50,
  0xf0,
  0x9b,
  0x78,
  0x8a,
  0x82,
  0xb9,
  0x3e,
  0x57,
  0x72,
  0x07,
  0xea,
  0xd2,
  0xe3,
  0xbe,
  0x04,
  0x50,
  0x78,
  0xf2,
  0x82,
  0xf9,
  0xf7,
  0xc8,
  0x62,
  0x5b,
  0x56,
  0xdb,
  0xfe,
  0x95,
  0x06,
  0x06,
  0x37,
  0x50,
  0x51,
  0xba,
  0x3a,
  0x86,
  0x2a,
  0x08,
  0x32,
  0xf3,
  0x42,
  0x0f,
  0x15,
  0x2d,
  0x1c,
  0x47,
  0xfb,
  0xef,
  0xd7,
  0x2d,
  0x2d,
  0x26,
  0x08,
  0x37,
  0x9d,
  0xa4,
  0xa9,
  0x24,
  0x05,
  0x7a,
  0xfd,
  0xf9,
  0xc8,
  0xaf,
  0xae,
  0x44,
  0xc7,
  0x79,
  0x55,
  0xf7,
  0xcd,
  0x2c,
  0xbd,
  0x00,
  0x0d,
  0x71,
  0x16,
  0xaa,
  0x3e,
  0x87,
  0x5b,
  0xc2,
  0xfd,
  0x60,
  0xb7,
  0x6c,
  0x79,
  0x2c,
  0x41,
  0xa1,
  0xad,
  0x92,
  0xcd,
  0x6e,
  0x2d,
  0x1f,
  0x3b,
  0x3c,
  0x28,
  0x89,
  0x96,
  0x70,
  0x09,
  0xe4,
  0x4f,
  0x03,
  0xc9,
  0x1f,
  0x31,
  0xe5,
  0xee,
  0x2e,
  0xef,
  0xa7,
  0x38,
  0x93,
  0xd4,
  0x0f,
  0xfb,
  0x07,
  0xe0,
  0x58,
  0xef,
  0xed,
  0x3b,
  0xdb,
  0x70,
  0x2b,
  0xdb,
  0xc3,
  0x47,
  0x30,
  0xae,
  0xaf,
  0x46,
  0x68,
  0xab,
  0x08,
  0x73,
  0x2d,
  0x5a,
  0x9b,
  0xa9,
  0xd5,
  0xf6,
  0xb2,
  0x23,
  0x83,
  0xcc,
  0x27,
  0x96,
  0xf1,
  0xb9,
  0x40,
  0xf5,
  0xb2,
  0x76,
  0x24,
  0x03,
  0xb3,
  0x13,
  0x0f,
  0xca,
  0x91,
  0x92,
  0xf8,
  0xd9,
  0xab,
  0x5e,
  0x08,
  0x52,
  0xf5,
  0xea,
  0x5f,
  0xe7,
  0xeb,
  0x14,
  0x29,
  0x05,
  0x52,
  0x43,
  0x4a,
  0xf8,
  0xce,
  0x6a,
  0xe5,
  0x1a,
  0xfa,
  0x2d,
  0xe4,
  0x27,
  0xda,
  0x05,
  0x8c,
  0x3d,
  0x9a,
  0x39,
  0x83,
  0x24,
  0xe8,
  0x72,
  0x06,
  0x23,
  0x2f,
  0xcd,
  0x29,
  0x50,
  0xef,
  0x23,
  0x6b,
  0xcf,
  0x13,
  0xf3,
  0xc9,
  0x32,
  0xfd,
  0xae,
  0x29,
  0xc4,
  0xea,
  0x4f,
  0x20,
  0x31,
  0x72,
  0x23,
  0xbf,
  0x78,
  0xce,
  0x23,
  0x6f,
  0x7a,
  0xc8,
  0x3e,
  0x04,
  0x73,
  0x25,
  0x77,
  0x82,
  0xc5,
  0x58,
  0xac,
  0x79,
  0xc7,
  0x98,
  0x24,
  0x6b,
  0xbb,
  0x33,
  0xba,
  0x6c,
  0x1d,
  0x11,
  0x0e,
  0xfd,
  0x0f,
  0x44,
  0x07,
  0x70,
  0x36,
  0x9d,
  0xd8,
  0xc1,
  0x51,
  0x74,
  0xe4,
  0x02,
  0x33,
  0x2f,
  0xf4,
  0x83,
  0x04,
  0xa6,
  0x2c,
  0x65,
  0xcf,
  0x8c,
  0xb6,
  0x63,
  0x35,
  0xb3,
  0xfa,
  0x44,
  0xf9,
  0x41,
  0x4b,
  0xef,
  0x2f,
  0x7c,
  0x25,
  0x81,
  0x2c,
  0x9c,
  0x68,
  0x8f,
  0x61,
  0xb7,
  0xba,
  0x03,
  0xcc,
  0xd2,
  0x0b,
  0x7c,
  0xfb,
  0x11,
  0xd3,
  0x9a,
  0x30,
  0x67,
  0x49,
  0x9c,
  0x4a,
  0x4c,
  0x45,
  0xbb,
  0x26,
  0xbe,
  0xb4,
  0x16,
  0xd0,
  0x83,
  0xda,
  0x6e,
  0xd3,
  0x63,
  0x97,
  0x74,
  0xbe,
  0x4a,
  0x45,
  0x0c,
  0xa3,
  0x3e,
  0x87,
  0x2b,
  0xc2,
  0xfd,
  0x60,
  0xb4,
  0x6c,
  0x79,
  0x2c,
  0x41,
  0xa1,
  0xad,
  0x92,
  0xcd,
  0x6e,
  0xdd,
  0x1f,
  0x3b,
  0x3c,
  0x29,
  0x89,
  0x96,
  0x00,
  0x09,
  0xe4,
  0x4f,
  0x89,
  0xe2,
  0xdc,
  0x02,
  0xe1,
  0xee,
  0x2e,
  0x3f,
  0xa7,
  0x38,
  0x93,
  0xd0,
  0x0f,
  0xfb,
  0xc7,
  0xe0,
  0x58,
  0xef,
  0xe8,
  0x3b,
  0xdb,
  0x30,
  0x2b,
  0xdb,
  0xc3,
  0x43,
  0x30,
  0xae,
  0xff,
  0x46,
  0x68,
  0xab,
  0x84,
  0x31,
  0x33,
  0x06,
  0x9a,
  0xa9,
  0xd5,
  0x16,
  0xb2,
  0x23,
  0x83,
  0xcf,
  0x27,
  0x96,
  0x51,
  0xb9,
  0x40,
  0xf5,
  0xbf,
  0x76,
  0x24,
  0xf3,
  0xb3,
  0x13,
  0x0f,
  0xc6,
  0x91,
  0x92,
  0x08,
  0xd9,
  0xab,
  0x5e,
  0xce,
  0x8e,
  0xe0,
  0x03,
  0x5a,
  0xe7,
  0xeb,
  0xb4,
  0x29,
  0x05,
  0x52,
  0x44,
  0x4a,
  0xf8,
  0xee,
  0x6a,
  0xe5,
  0x1a,
  0xf9,
  0x2d,
  0xe4,
  0x07,
  0xda,
  0x05,
  0x8c,
  0x35,
  0x9a,
  0x39,
  0x23,
  0x24,
  0xe8,
  0x72,
  0x9e,
  0x70,
  0x9a,
  0x04,
  0x25,
  0x50,
  0xef,
  0x83,
  0x6b,
  0xcf,
  0x13,
  0xf5,
  0xc9,
  0x32,
  0xbd,
  0xae,
  0x29,
  0xc4,
  0xe1,
  0x4f,
  0x20,
  0xb1,
  0x72,
  0x23,
  0xbf,
  0x75,
  0xce,
  0x23,
  0x8f,
  0x7a,
  0xc8,
  0x3e,
  0x2d,
  0xb3,
  0xa5,
  0x0e,
  0x86,
  0xc5,
  0x58,
  0x4c,
  0x79,
  0xc7,
  0x98,
  0x28,
  0x6b,
  0xbb,
  0x63,
  0xba,
  0x6c,
  0x1d,
  0x19,
  0x0e,
  0xfd,
  0xbf,
  0x44,
  0x07,
  0x70,
  0x37,
  0x9d,
  0xd8,
  0x11,
  0x51,
  0x74,
  0xe4,
  0x9e,
  0xf7,
  0x2d,
  0x0d,
  0x85,
  0x04,
  0xa6,
  0x8c,
  0x65,
  0xcf,
  0x8c,
  0xb0,
  0x63,
  0x35,
  0x33,
  0xfa,
  0x44,
  0xf9,
  0x45,
  0x4b,
  0xef,
  0x3f,
  0x7c,
  0x25,
  0x81,
  0x27,
  0x9c,
  0x68,
  0xbf,
  0x61,
  0xb7,
  0xba,
  0xad,
  0xb2,
  0xe1,
  0x08,
  0x7a,
  0xfb,
  0x11,
  0x73,
  0x9a,
  0x30,
  0x67,
  0x4f,
  0x9c,
  0x4a,
  0xcc,
  0x45,
  0xbb,
  0x26,
  0xba,
  0xb4,
  0x16,
  0xc0,
  0x83,
  0xda,
  0x6e,
  0xd8,
  0x63,
  0x97,
  0x44,
  0xbe,
  0x4a,
  0x45,
  0x52,
  0x4d,
  0xde,
  0x06,
  0x28,
  0xce,
  0x2d,
  0x51,
  0x85,
  0x03,
  0xfe,
  0xa7,
  0xcf,
  0xc4,
  0xce,
  0x09,
  0x56,
  0xb3,
  0x8d,
  0x65,
  0xa2,
  0x19,
  0xd8,
  0x5a,
  0x89,
  0xe8,
  0x3b,
  0x01,
  0x0d,
  0x23,
  0x17,
  0x6d,
  0xd6,
  0x46,
  0x5e,
  0x05,
  0x18,
  0x33,
  0x63,
  0xaf,
  0x03,
  0x95,
  0xdd,
  0x94,
  0x9c,
  0x6c,
  0x13,
  0x43,
  0xde,
  0x76,
  0x54,
  0x45,
  0x8e,
  0xc3,
  0x59,
  0x28,
  0xfb,
  0x74,
  0x75,
  0x17,
  0x38,
  0x9b,
  0xd3,
  0xa9,
  0x99,
  0xa2,
  0xf1,
  0x08,
  0xec,
  0x08,
  0x3e,
  0xcf,
  0x68,
  0xdd,
  0xaa,
  0xd5,
  0xbf,
  0x69,
  0x89,
  0x8d,
  0x78,
  0x0c,
  0xdf,
  0xbd,
  0xf6,
  0x58,
  0x1b,
  0x2e,
  0x58,
  0x89,
  0xee,
  0xa7,
  0x1d,
  0x52,
  0x17,
  0x25,
  0xd6,
  0xae,
  0x19,
  0x04,
  0x09,
  0xa7,
  0x49,
  0x12,
  0xc8,
  0xdd,
  0x56,
  0xaa,
  0xfc,
  0x0c,
  0xd4,
  0xb5,
  0xbe,
  0xb3,
  0xac,
  0x82,
  0x4c,
  0x60,
  0xe5,
  0xa3,
  0xdd,
  0x58,
  0xbd,
  0x87,
  0x50,
  0xd6,
  0xfd,
  0xfa,
  0xe3,
  0xe6,
  0xaf,
  0x0f,
  0x32,
  0x5b,
  0xea,
  0xe7,
  0x5f,
  0x2a,
  0x8c,
  0x7c,
  0x96,
  0xf3,
  0xc5,
  0x38,
  0xb7,
  0x07,
  0xee,
  0x72,
  0x97,
  0xd0,
  0x0f,
  0xd5,
  0x43,
  0x8b,
  0xc9,
  0xef,
  0x19,
  0xbf,
  0x58,
  0xc2,
  0x1b,
  0xda,
  0x6d,
  0x00,
  0x79,
  0xdf,
  0xd2,
  0x3d,
  0xdb,
  0xca,
  0x38,
  0xac,
  0x83,
  0x04,
  0x13,
  0x14,
  0x50,
  0x10,
  0x1b,
  0x77,
  0x14,
  0x9d,
  0x7a,
  0xa3,
  0xa9,
  0x76,
  0x50,
  0x34,
  0x97,
  0x1f,
  0x84,
  0x2e,
  0xcb,
  0xd8,
  0xf9,
  0x06,
  0x2a,
  0x1b,
  0x8e,
  0x7f,
  0x0b,
  0xff,
  0xd8,
  0xfb,
  0xba,
  0x01,
  0x21,
  0x07,
  0x2c,
  0x91,
  0x3b,
  0x33,
  0xbc,
  0x51,
  0x49,
  0xaf,
  0xca,
  0x7a,
  0xfc,
  0x34,
  0xfd,
  0x1b,
  0xd6,
  0x0a,
  0x43,
  0x98,
  0xe9,
  0x01,
  0xd5,
  0xe4,
  0x6d,
  0x80,
  0xf4,
  0x00,
  0x67,
  0x05,
  0x45,
  0xfe,
  0xfe,
  0xea,
  0xd3,
  0x6e,
  0xc4,
  0xcc,
  0x43,
  0xae,
  0xb6,
  0x50,
  0x34,
  0x85,
  0x03,
  0xcb,
  0x2a,
  0xe0,
  0x29,
  0xf5,
  0xb4,
  0x27,
  0x16,
  0x0e,
  0x51,
  0x85,
  0x03,
  0xfe,
  0xa7,
  0xcf,
  0xc4,
  0xc4,
  0x09,
  0x56,
  0x63,
  0x8d,
  0x65,
  0xa2,
  0x1a,
  0xd8,
  0x5a,
  0xe9,
  0xe8,
  0x3b,
  0x01,
  0x08,
  0x23,
  0x17,
  0x7d,
  0xd6,
  0x46,
  0x5e,
  0x55,
  0x9c,
  0x8c,
  0x06,
  0xa9,
  0x03,
  0x95,
  0x3d,
  0x94,
  0x9c,
  0x6c,
  0x14,
  0x43,
  0xde,
  0xd6,
  0x54,
  0x45,
  0x8e,
  0xc0,
  0x59,
  0x28,
  0x3b,
  0x74,
  0x75,
  0x17,
  0x34,
  0x9b,
  0xd3,
  0xf9,
  0x99,
  0xa2,
  0xf1,
  0xe1,
  0xc1,
  0x6a,
  0x05,
  0xc0,
  0x68,
  0xdd,
  0x9a,
  0xd5,
  0xbf,
  0x69,
  0x80,
  0x8d,
  0x78,
  0x5c,
  0xdf,
  0xbd,
  0xf6,
  0x54,
  0x1b,
  0x2e,
  0x78,
  0x89,
  0xee,
  0xa7,
  0x14,
  0x52,
  0x17,
  0x65,
  0xd6,
  0xae,
  0x19,
  0x1f,
  0x16,
  0xf5,
  0x07,
  0x17,
  0xc8,
  0xdd,
  0x96,
  0xaa,
  0xfc,
  0x0c,
  0xdc,
  0xb5,
  0xbe,
  0xf3,
  0xac,
  0x82,
  0x4c,
  0x6e,
  0xe5,
  0xa3,
  0x3d,
  0x58,
  0xbd,
  0x87,
  0x53,
  0xd6,
  0xfd,
  0x9a,
  0xe3,
  0xe6,
  0xaf,
  0x7a,
  0x47,
  0x3d,
  0x08,
  0xed,
  0x5f,
  0x2a,
  0xac,
  0x7c,
  0x96,
  0xf3,
  0xcc,
  0x38,
  0xb7,
  0xc7,
  0xee,
  0x72,
  0x97,
  0xd3,
  0x0f,
  0xd5,
  0x53,
  0x8b,
  0xc9,
  0xef,
  0x15,
  0xbf,
  0x58,
  0x62,
  0x1b,
  0xda,
  0x6d,
  0x1e,
  0xb8,
  0x03,
  0x06,
  0x33,
  0xdb,
  0xca,
  0x88,
  0xac,
  0x83,
  0x04,
  0x17,
  0x14,
  0x50,
  0x60,
  0x1b,
  0x77,
  0x14,
  0x9c,
  0x7a,
  0xa3,
  0x09,
  0x76,
  0x50,
  0x34,
  0x96,
  0x1f,
  0x84,
  0x6e,
  0xcb,
  0xd8,
  0xf9,
  0x0e,
  0x11,
  0x2c,
  0x0f,
  0x7f,
  0x0b,
  0xff,
  0x68,
  0xfb,
  0xba,
  0x01,
  0x29,
  0x07,
  0x2c,
  0xd1,
  0x3b,
  0x33,
  0xbc,
  0x50,
  0x49,
  0xaf,
  0x4a,
  0x7a,
  0xfc,
  0x34,
  0xf2,
  0x1b,
  0xd6,
  0x7a,
  0x43,
  0x98,
  0xe9,
  0x5e,
  0x01,
  0x3c,
  0x0f,
  0x80,
  0xf4,
  0x00,
  0x57,
  0x05,
  0x45,
  0xfe,
  0xf6,
  0xea,
  0xd3,
  0x2e,
  0xc4,
  0xcc,
  0x43,
  0xaf,
  0xb6,
  0x50,
  0xb4,
  0x85,
  0x03,
  0xcb,
  0x29,
  0xe0,
  0x29,
  0x85,
  0xb4,
  0x27,
  0x16,
  0xa1,
  0xfe,
  0xd3,
  0x00,
  0xc5,
  0xc9,
  0x68,
  0x27,
  0x7b,
  0xd4,
  0xdf,
  0xf3,
  0x49,
  0xd5,
  0x26,
  0x93,
  0x78,
  0x05,
  0xd5,
  0xbb,
  0x85,
  0xe9,
  0xdd,
  0x6a,
  0x50,
  0x4c,
  0x28,
  0x0c,
  0x5a,
  0xda,
  0x17,
  0x7f,
  0x65,
  0xe9,
  0x86,
  0x08,
  0x1e,
  0xac,
  0x56,
  0x30,
  0xa2,
  0xe1,
  0x3c,
  0x5e,
  0x63,
  0x15,
  0x8d,
  0x8b,
  0x42,
  0xbb,
  0x36,
  0x6d,
  0x07,
  0x86,
  0x65,
  0x7d,
  0x6c,
  0x15,
  0xde,
  0x9c,
  0x54,
  0x5a,
  0x2b,
  0xae,
  0x5b,
  0x72,
  0xd9,
  0x0f,
  0x61,
  0x51,
  0x7f,
  0xab,
  0x13,
  0x48,
  0x89,
  0x2a,
  0x07,
  0x6b,
  0xa9,
  0x0b,
  0x69,
  0x33,
  0x82,
  0x6d,
  0xeb,
  0xee,
  0x4b,
  0xb9,
  0x08,
  0xd4,
  0x77,
  0x8d,
  0x7c,
  0xcd,
  0xaa,
  0x62,
  0xe1,
  0x90,
  0x8e,
  0x00,
  0x77,
  0xd4,
  0x83,
  0x6f,
  0x56,
  0xb3,
  0x96,
  0xcb,
  0x44,
  0x14,
  0xcc,
  0x75,
  0xfc,
  0x74,
  0xec,
  0x93,
  0xca,
  0xc6,
  0xbe,
  0x66,
  0x85,
  0x1f,
  0xc0,
  0xef,
  0x90,
  0xc9,
  0x31,
  0xe9,
  0x24,
  0x46,
  0x9a,
  0x0e,
  0x81,
  0x3b,
  0x60,
  0x3a,
  0x79,
  0xc4,
  0xb4,
  0xee,
  0x80,
  0xf9,
  0x45,
  0x0e,
  0xee,
  0x9d,
  0xb9,
  0x71,
  0xf6,
  0xdb,
  0x7a,
  0x02,
  0xe6,
  0x46,
  0xf8,
  0x84,
  0x6e,
  0x3b,
  0x77,
  0x2b,
  0xc8,
  0xf3,
  0x46,
  0x00,
  0x10,
  0xc1,
  0xf2,
  0x07,
  0xee,
  0xde,
  0x3f,
  0x1a,
  0x8f,
  0xc0,
  0xdf,
  0xf0,
  0x58,
  0xe2,
  0xba,
  0xb6,
  0xc4,
  0x1e,
  0xc4,
  0xa5,
  0xfa,
  0xa6,
  0x29,
  0x48,
  0x1f,
  0xd2,
  0x27,
  0xc4,
  0xbc,
  0xde,
  0x08,
  0x0b,
  0x15,
  0xc0,
  0xf3,
  0x03,
  0xdc,
  0x54,
  0x74,
  0x52,
  0x22,
  0xc9,
  0xdf,
  0x1b,
  0x49,
  0x60,
  0x9b,
  0xa2,
  0xfc,
  0x8e,
  0xfe,
  0x86,
  0xf2,
  0x0e,
  0x70,
  0x0e,
  0x8b,
  0xb3,
  0x27,
  0x0c,
  0xb8,
  0x7e,
  0x48,
  0x06,
  0xea,
  0x3f,
  0x0d,
  0xfc,
  0x01,
  0x2b,
  0x8a,
  0xad,
  0xdd,
  0x36,
  0x20,
  0xa4,
  0xb6,
  0x9d,
  0x64,
  0x59,
  0x43,
  0x71,
  0x05,
  0x59,
  0x05,
  0xd9,
  0x8f,
  0xf1,
  0xf0,
  0x4c,
  0xd8,
  0xf3,
  0x47,
  0x81,
  0xb7,
  0x0d,
  0x22,
  0x7b,
  0xd4,
  0x4f,
  0xf3,
  0x49,
  0xd5,
  0x2f,
  0x93,
  0x78,
  0x95,
  0xd5,
  0xbb,
  0x85,
  0xee,
  0xdd,
  0x6a,
  0x70,
  0x4c,
  0x28,
  0x0c,
  0x51,
  0xda,
  0x17,
  0x5f,
  0x65,
  0xe9,
  0x86,
  0x7d,
  0xf4,
  0x92,
  0x08,
  0x31,
  0xa2,
  0xe1,
  0xec,
  0x5e,
  0x63,
  0x15,
  0x83,
  0x8b,
  0x42,
  0x4b,
  0x36,
  0x6d,
  0x07,
  0x8c,
  0x65,
  0x7d,
  0x2c,
  0x15,
  0xde,
  0x9c,
  0x51,
  0x5a,
  0x2b,
  0x3e,
  0x5b,
  0x72,
  0xd9,
  0xd2,
  0xe9,
  0xec,
  0x07,
  0xa8,
  0x13,
  0x48,
  0xa9,
  0x2a,
  0x07,
  0x6b,
  0xab,
  0x0b,
  0x69,
  0x93,
  0x82,
  0x6d,
  0xeb,
  0xef,
  0x4b,
  0xb9,
  0xf8,
  0xd4,
  0x77,
  0x8d,
  0x72,
  0xcd,
  0xaa,
  0x22,
  0xe1,
  0x90,
  0x8e,
  0x18,
  0xa4,
  0xd3,
  0x05,
  0x67,
  0x56,
  0xb3,
  0x26,
  0xcb,
  0x44,
  0x14,
  0xcd,
  0x75,
  0xfc,
  0x84,
  0xec,
  0x93,
  0xca,
  0xc6,
  0xbe,
  0x66,
  0xb5,
  0x1f,
  0xc0,
  0xef,
  0x97,
  0xc9,
  0x31,
  0xa9,
  0x24,
  0x46,
  0x9a,
  0xfd,
  0xa2,
  0xed,
  0x03,
  0x3b,
  0x79,
  0xc4,
  0xb4,
  0xee,
  0x80,
  0xf9,
  0x4d,
  0x0e,
  0xee,
  0x4d,
  0xb9,
  0x71,
  0xf6,
  0xde,
  0x7a,
  0x02,
  0x96,
  0x46,
  0xf8,
  0x84,
  0x6f,
  0x3b,
  0x77,
  0x7b,
  0xc8,
  0xf3,
  0x46,
  0x81,
  0x71,
  0xea,
  0x0b,
  0x02,
  0xee,
  0xde,
  0x2f,
  0x1a,
  0x8f,
  0xc0,
  0xd8,
  0xf0,
  0x58,
  0x62,
  0xba,
  0xb6,
  0xc4,
  0x1d,
  0xc4,
  0xa5,
  0x0a,
  0xa6,
  0x29,
  0x48,
  0x15,
  0xd2,
  0x27,
  0xa4,
  0xbc,
  0xde,
  0x08,
  0xc9,
  0xec,
  0x8b,
  0x00,
  0x02,
  0xdc,
  0x54,
  0x74,
  0x52,
  0x22,
  0xc9,
  0xd7,
  0x1b,
  0x49,
  0x50,
  0x9b,
  0xa2,
  0xfc,
  0x8d,
  0xfe,
  0x86,
  0x02,
  0x0e,
  0x70,
  0x0e,
  0x83,
  0xb3,
  0x27,
  0xfc,
  0xb8,
  0x7e,
  0x48,
  0x81,
  0x38,
  0x17,
  0x05,
  0xfd,
  0x01,
  0x2b,
  0x8a,
  0xad,
  0xdd,
  0x36,
  0x28,
  0xa4,
  0xb6,
  0xbd,
  0x64,
  0x59,
  0x43,
  0x72,
  0x05,
  0x59,
  0xf5,
  0xd9,
  0x8f,
  0xf1,
  0xf8,
  0x4c,
  0xd8,
  0x03,
  0x47,
  0x81,
  0xb7,
  0x7e,
  0xc7,
  0x6c,
  0x0a,
  0x47,
  0x2f,
  0x89,
  0xee,
  0x91,
  0xfd,
  0xe1,
  0x08,
  0x4f,
  0xb8,
  0xda,
  0x9d,
  0xcd,
  0x45,
  0xef,
  0x92,
  0x99,
  0xdb,
  0x2b,
  0x85,
  0x39,
  0xcb,
  0xa4,
  0x55,
  0x54,
  0xb5,
  0xa8,
  0x58,
  0x75,
  0xe7,
  0xcd,
  0x09,
  0x9d,
  0xce,
  0x7e,
  0x97,
  0x1c,
  0xa5,
  0x2a,
  0xfd,
  0xc5,
  0x80,
  0x5a,
  0x01,
  0xd3,
  0x89,
  0x06,
  0x82,
  0x49,
  0x6e,
  0x12,
  0x86,
  0x98,
  0x13,
  0x96,
  0x72,
  0x03,
  0xb6,
  0x5e,
  0x86,
  0xee,
  0x55,
  0x31,
  0x09,
  0x41,
  0x3a,
  0x5d,
  0xb8,
  0x2d,
  0x6d,
  0xe7,
  0xbc,
  0xdc,
  0x2b,
  0x5f,
  0x60,
  0x71,
  0x4c,
  0x75,
  0x57,
  0x1a,
  0xc4,
  0xb4,
  0xf5,
  0xd3,
  0x76,
  0xa1,
  0x97,
  0x3c,
  0x2c,
  0x6f,
  0x68,
  0xf8,
  0x56,
  0x87,
  0x07,
  0x2f,
  0xda,
  0x3e,
  0x00,
  0x34,
  0x85,
  0x8e,
  0x59,
  0x74,
  0xba,
  0xed,
  0x11,
  0xed,
  0xb3,
  0x9d,
  0x90,
  0x98,
  0xf1,
  0x61,
  0xba,
  0x31,
  0x3c,
  0x68,
  0xda,
  0xee,
  0xd0,
  0x58,
  0x1f,
  0xe4,
  0x0b,
  0x4d,
  0x01,
  0x18,
  0xa7,
  0xbe,
  0xa3,
  0xc4,
  0xde,
  0xdc,
  0x19,
  0xbc,
  0x43,
  0x2b,
  0x08,
  0xfc,
  0x55,
  0x2d,
  0xa3,
  0x62,
  0x5c,
  0x1f,
  0x04,
  0x32,
  0x09,
  0x9c,
  0xda,
  0xa6,
  0x1e,
  0x50,
  0x64,
  0x14,
  0x98,
  0x4f,
  0x03,
  0xcc,
  0xbe,
  0x08,
  0xfb,
  0x9f,
  0xc5,
  0xf3,
  0x4f,
  0x26,
  0x28,
  0x20,
  0x6a,
  0x03,
  0x2c,
  0x0a,
  0x85,
  0x36,
  0x7d,
  0xe5,
  0x19,
  0x16,
  0xed,
  0x00,
  0x78,
  0xa1,
  0x4a,
  0x50,
  0x9a,
  0xd2,
  0xe5,
  0xee,
  0x0d,
  0x88,
  0x73,
  0x51,
  0xa3,
  0xa0,
  0x95,
  0x62,
  0x79,
  0xba,
  0x01,
  0x69,
  0x4a,
  0xef,
  0x16,
  0x88,
  0x81,
  0xba,
  0x6d,
  0xc6,
  0x9b,
  0x1a,
  0x4d,
  0x98,
  0xfe,
  0x2d,
  0x5a,
  0x71,
  0x51,
  0xc2,
  0xe8,
  0x22,
  0x0f,
  0x77,
  0xcc,
  0xa6,
  0x4c,
  0x5f,
  0x6a,
  0x9d,
  0x86,
  0x41,
  0xfe,
  0x96,
  0x95,
  0x10,
  0xcb,
  0x77,
  0x7e,
  0x45,
  0x82,
  0x38,
  0x64,
  0xe5,
  0xb2,
  0x67,
  0x01,
  0xd2,
  0xa5,
  0x8f,
  0xae,
  0x3d,
  0x17,
  0xd8,
  0x00,
  0xea,
  0x91,
  0xfd,
  0x91,
  0x08,
  0x4f,
  0xb8,
  0xd5,
  0x9d,
  0xcd,
  0xd5,
  0xef,
  0x92,
  0x99,
  0xde,
  0x2b,
  0x85,
  0xd9,
  0xcb,
  0xa4,
  0x55,
  0x57,
  0xb5,
  0xa8,
  0x98,
  0x75,
  0xe7,
  0xcd,
  0x82,
  0xf1,
  0xcc,
  0x09,
  0x9d,
  0x1c,
  0xa5,
  0xaa,
  0xfd,
  0xc5,
  0x80,
  0x5c,
  0x01,
  0xd3,
  0xf9,
  0x06,
  0x82,
  0x49,
  0x61,
  0x12,
  0x86,
  0x78,
  0x13,
  0x96,
  0x72,
  0x07,
  0xb6,
  0x5e,
  0x16,
  0xee,
  0x55,
  0x31,
  0x7a,
  0x58,
  0xee,
  0x05,
  0xbd,
  0x2d,
  0x6d,
  0x27,
  0xbc,
  0xdc,
  0x2b,
  0x58,
  0x60,
  0x71,
  0x5c,
  0x75,
  0x57,
  0x1a,
  0xc1,
  0xb4,
  0xf5,
  0xa3,
  0x76,
  0xa1,
  0x97,
  0x39,
  0x2c,
  0x6f,
  0x88,
  0xf8,
  0x56,
  0x87,
  0xe8,
  0x6c,
  0xd8,
  0x07,
  0x07,
  0x34,
  0x85,
  0x7e,
  0x59,
  0x74,
  0xba,
  0xe9,
  0x11,
  0xed,
  0x73,
  0x9d,
  0x90,
  0x98,
  0xf0,
  0x61,
  0xba,
  0x91,
  0x3c,
  0x68,
  0xda,
  0xed,
  0xd0,
  0x58,
  0x8f,
  0xe4,
  0x0b,
  0x4d,
  0x23,
  0x0e,
  0xb7,
  0x0b,
  0xa1,
  0xc4,
  0xde,
  0x3c,
  0x19,
  0xbc,
  0x43,
  0x2b,
  0x08,
  0xfc,
  0xd5,
  0x2d,
  0xa3,
  0x62,
  0x55,
  0x1f,
  0x04,
  0x82,
  0x09,
  0x9c,
  0xda,
  0xab,
  0x1e,
  0x50,
  0x44,
  0x14,
  0x98,
  0x4f,
  0x8c,
  0x76,
  0x7b,
  0x06,
  0xfd,
  0x9f,
  0xc5,
  0x03,
  0x4f,
  0x26,
  0x28,
  0x2a,
  0x6a,
  0x03,
  0x1c,
  0x0a,
  0x85,
  0x36,
  0x7f,
  0xe5,
  0x19,
  0x36,
  0xed,
  0x00,
  0x78,
  0xa6,
  0x4a,
  0x50,
  0x6a,
  0xd2,
  0xe5,
  0xee,
  0x52,
  0x13,
  0x5c,
  0x02,
  0xa5,
  0xa0,
  0x95,
  0x32,
  0x79,
  0xba,
  0x01,
  0x60,
  0x4a,
  0xef,
  0x46,
  0x88,
  0x81,
  0xba,
  0x6b,
  0xc6,
  0x9b,
  0xaa,
  0x4d,
  0x98,
  0xfe,
  0x26,
  0x5a,
  0x71,
  0x41,
  0xc2,
  0xe8,
  0x22,
  0x44,
  0x91,
  0x79,
  0x08,
  0x4a,
  0x5f,
  0x6a,
  0xcd,
  0x86,
  0x41,
  0xfe,
  0x9f,
  0x95,
  0x10,
  0xeb,
  0x77,
  0x7e,
  0x45,
  0x84,
  0x38,
  0x64,
  0x55,
  0xb2,
  0x67,
  0x01,
  0xd9,
  0xa5,
  0x8f,
  0xbe,
  0x3d,
  0x17,
  0xd8,
  0xbb,
  0x6c,
  0x86,
  0x0f,
  0x18,
  0xcf,
  0x9c,
  0x6a,
  0xda,
  0x39,
  0xcd,
  0x6d,
  0x19,
  0x39,
  0x47,
  0x58,
  0x40,
  0xea,
  0xdf,
  0x32,
  0x43,
  0x1b,
  0x0f,
  0xd8,
  0x35,
  0x84,
  0x37,
  0xb1,
  0xbd,
  0x7f,
  0xcd,
  0x09,
  0xb4,
  0x8b,
  0xca,
  0x00,
  0x87,
  0xe5,
  0x5e,
  0xb4,
  0x02,
  0x17,
  0x7a,
  0x87,
  0x62,
  0xb1,
  0x03,
  0x1e,
  0x33,
  0x7f,
  0x4b,
  0x69,
  0xc2,
  0x33,
  0x40,
  0x9a,
  0x2e,
  0x06,
  0x9f,
  0x6d,
  0x94,
  0x15,
  0x1c,
  0xd8,
  0x21,
  0xaf,
  0xb6,
  0x09,
  0xce,
  0x86,
  0x7d,
  0x6e,
  0xfc,
  0xca,
  0x60,
  0x86,
  0x69,
  0xf9,
  0x98,
  0xf3,
  0x5c,
  0xf4,
  0x38,
  0x63,
  0x2a,
  0x2b,
  0x61,
  0xef,
  0x8c,
  0xb3,
  0xd4,
  0x3a,
  0x9a,
  0xb3,
  0x59,
  0x66,
  0x22,
  0x62,
  0xcd,
  0x01,
  0xe2,
  0x70,
  0xbb,
  0x5e,
  0x0d,
  0x1a,
  0x8c,
  0xa2,
  0x1f,
  0x5f,
  0x17,
  0x0e,
  0x06,
  0x51,
  0xa5,
  0x69,
  0x21,
  0xbf,
  0xe9,
  0x58,
  0xeb,
  0x3c,
  0x72,
  0x87,
  0x05,
  0xb1,
  0x90,
  0x4e,
  0x91,
  0x92,
  0xa0,
  0x0f,
  0x68,
  0xb7,
  0x67,
  0x33,
  0x41,
  0x32,
  0x13,
  0x9d,
  0xc9,
  0xee,
  0x79,
  0x7f,
  0xb9,
  0x64,
  0x72,
  0xfc,
  0x6d,
  0xb3,
  0x02,
  0x8a,
  0x1a,
  0x05,
  0x2e,
  0xe4,
  0x24,
  0x14,
  0xcb,
  0x9e,
  0x0f,
  0x56,
  0x5d,
  0x0f,
  0x35,
  0xc1,
  0x25,
  0xc3,
  0x3c,
  0x43,
  0xb4,
  0x7f,
  0x02,
  0xa8,
  0x7a,
  0x82,
  0x79,
  0xcd,
  0x56,
  0x2d,
  0x78,
  0x51,
  0xd2,
  0xaf,
  0x0f,
  0x6a,
  0x68,
  0x86,
  0xc0,
  0xb6,
  0x13,
  0x0c,
  0xcf,
  0xac,
  0xd8,
  0x0e,
  0x14,
  0x99,
  0x87,
  0xeb,
  0x89,
  0x53,
  0xde,
  0x1f,
  0x81,
  0xa8,
  0x5c,
  0x1a,
  0x13,
  0x90,
  0x64,
  0xb1,
  0x6e,
  0x53,
  0x83,
  0xab,
  0x4f,
  0x23,
  0x51,
  0xef,
  0x30,
  0xbc,
  0x18,
  0x9f,
  0xab,
  0x20,
  0xd4,
  0x0f,
  0xcb,
  0x66,
  0xf8,
  0x14,
  0xf6,
  0xac,
  0x29,
  0xe0,
  0x7e,
  0x57,
  0xa7,
  0xe5,
  0xec,
  0x2f,
  0x99,
  0x46,
  0x93,
  0xac,
  0x7c,
  0x54,
  0xb0,
  0xdc,
  0xbe,
  0x10,
  0xcf,
  0x43,
  0xe5,
  0x70,
  0x54,
  0xdf,
  0x2b,
  0x00,
  0x69,
  0xda,
  0x39,
  0x4d,
  0x6d,
  0x19,
  0x39,
  0x4b,
  0x58,
  0x40,
  0x4a,
  0xdf,
  0x32,
  0x43,
  0x13,
  0x0f,
  0xd8,
  0x55,
  0x84,
  0x37,
  0xb1,
  0xb1,
  0x7f,
  0xcd,
  0x09,
  0xb4,
  0x8b,
  0xca,
  0x1f,
  0x5b,
  0xdf,
  0x0c,
  0xb5,
  0x02,
  0x17,
  0xfa,
  0x87,
  0x62,
  0xb1,
  0x0a,
  0x1e,
  0x33,
  0x0f,
  0x4b,
  0x69,
  0xc2,
  0x35,
  0x40,
  0x9a,
  0xee,
  0x06,
  0x9f,
  0x6d,
  0x9b,
  0x15,
  0x1c,
  0xe8,
  0x21,
  0xaf,
  0xb6,
  0x80,
  0x20,
  0xa4,
  0x07,
  0x6d,
  0xfc,
  0xca,
  0xd0,
  0x86,
  0x69,
  0xf9,
  0x97,
  0xf3,
  0x5c,
  0x54,
  0x38,
  0x63,
  0x2a,
  0x21,
  0x61,
  0xef,
  0x0c,
  0xb3,
  0xd4,
  0x3a,
  0x9a,
  0xb3,
  0x59,
  0xf6,
  0x22,
  0x62,
  0xcd,
  0x43,
  0x0e,
  0x87,
  0x06,
  0x59,
  0x0d,
  0x1a,
  0x5c,
  0xa2,
  0x1f,
  0x5f,
  0x15,
  0x0e,
  0x06,
  0x81,
  0xa5,
  0x69,
  0x21,
  0xbf,
  0xe9,
  0x58,
  0x7b,
  0x3c,
  0x72,
  0x87,
  0x03,
  0xb1,
  0x90,
  0x2e,
  0x91,
  0x92,
  0xa0,
  0x6a,
  0xa8,
  0xd2,
  0x06,
  0x37,
  0x41,
  0x32,
  0x93,
  0x9d,
  0xc9,
  0xee,
  0x72,
  0x7f,
  0xb9,
  0xe4,
  0x72,
  0xfc,
  0x6d,
  0xb0,
  0x02,
  0x8a,
  0xca,
  0x05,
  0x2e,
  0xe4,
  0x21,
  0x14,
  0xcb,
  0x6e,
  0x0f,
  0x56,
  0x5d,
  0x17,
  0x93,
  0xc5,
  0x03,
  0xc1,
  0x3c,
  0x43,
  0x84,
  0x7f,
  0x02,
  0xa8,
  0x7b,
  0x82,
  0x79,
  0xbd,
  0x56,
  0x2d,
  0x78,
  0x5c,
  0xd2,
  0xaf,
  0xbf,
  0x6a,
  0x68,
  0x86,
  0xcf,
  0xb6,
  0x13,
  0xec,
  0xcf,
  0xac,
  0xd8,
  0xac,
  0xf0,
  0x27,
  0x0e,
  0xe3,
  0x89,
  0x53,
  0xfe,
  0x1f,
  0x81,
  0xa8,
  0x58,
  0x1a,
  0x13,
  0x20,
  0x64,
  0xb1,
  0x6e,
  0x5c,
  0x83,
  0xab,
  0x3f,
  0x23,
  0x51,
  0xef,
  0x3b,
  0xbc,
  0x18,
  0xef,
  0xab,
  0x20,
  0xd4,
  0x50,
  0xb0,
  0xe7,
  0x0b,
  0x1c,
  0xf6,
  0xac,
  0x29,
  0xe0,
  0x7e,
  0x57,
  0xa7,
  0xe5,
  0xec,
  0xdf,
  0x99,
  0x46,
  0x93,
  0xa2,
  0x7c,
  0x54,
  0xc0,
  0xdc,
  0xbe,
  0x10,
  0xc4,
  0x43,
  0xe5,
  0x10,
  0x54,
  0xdf,
  0x2b,
  0xaf,
  0x4f,
  0x18,
  0x04,
  0xb1,
  0xf5,
  0xcd,
  0x0c,
  0x59,
  0x96,
  0xc8,
  0x65,
  0x36,
  0x60,
  0x69,
  0x12,
  0x23,
  0x14,
  0x52,
  0xe8,
  0xa8,
  0x23,
  0xa1,
  0xa6,
  0x13,
  0x08,
  0x70,
  0xcb,
  0xc5,
  0xca,
  0x40,
  0x11,
  0x34,
  0x09,
  0x6d,
  0x0c,
  0x08,
  0x42,
  0x7a,
  0x43,
  0x30,
  0x0c,
  0xf0,
  0xae,
  0xac,
  0xfe,
  0x3c,
  0x13,
  0x8b,
  0xb2,
  0x2c,
  0xfe,
  0xbe,
  0x5e,
  0x16,
  0x07,
  0x74,
  0xe7,
  0x60,
  0xc2,
  0x7c,
  0x53,
  0xa5,
  0xc1,
  0xe1,
  0x2f,
  0xfb,
  0x0e,
  0xe4,
  0x70,
  0x68,
  0xee,
  0xf6,
  0xf0,
  0xad,
  0xfd,
  0x75,
  0xe5,
  0x8a,
  0xcb,
  0x0d,
  0x66,
  0xed,
  0x3f,
  0x08,
  0x07,
  0x3d,
  0xf3,
  0x38,
  0x3d,
  0xc4,
  0x7c,
  0xca,
  0x51,
  0x56,
  0x41,
  0x1d,
  0x0f,
  0x2c,
  0x05,
  0x86,
  0x2a,
  0x6d,
  0xf1,
  0x5b,
  0x93,
  0x1e,
  0xc1,
  0xa3,
  0xfc,
  0x96,
  0x0b,
  0x12,
  0xb3,
  0x04,
  0xc0,
  0x20,
  0xf4,
  0x53,
  0x75,
  0x9d,
  0x72,
  0xe1,
  0x8f,
  0x4c,
  0x29,
  0x4f,
  0x35,
  0x1d,
  0x63,
  0xf7,
  0x05,
  0x31,
  0x59,
  0x3c,
  0xe0,
  0x03,
  0xb9,
  0xe0,
  0x0d,
  0x30,
  0xe1,
  0xc9,
  0x8e,
  0x43,
  0xb7,
  0x46,
  0xff,
  0xa1,
  0xba,
  0x99,
  0x2d,
  0xba,
  0x7e,
  0x85,
  0xe1,
  0xe4,
  0x87,
  0x20,
  0xe6,
  0x5e,
  0x88,
  0xb1,
  0x06,
  0x0a,
  0x7f,
  0xe2,
  0xa6,
  0x1e,
  0x80,
  0x46,
  0x08,
  0x52,
  0x1e,
  0x02,
  0xf5,
  0xff,
  0xee,
  0x86,
  0xb6,
  0xc1,
  0x52,
  0x9a,
  0x69,
  0x83,
  0xe4,
  0xe8,
  0xd7,
  0x8b,
  0xdc,
  0xef,
  0x16,
  0x76,
  0xc2,
  0xbe,
  0x0c,
  0x05,
  0x7b,
  0xbe,
  0x1e,
  0x1f,
  0x83,
  0x58,
  0x18,
  0x40,
  0x3e,
  0x8a,
  0xa1,
  0xe7,
  0xec,
  0xa3,
  0x32,
  0x51,
  0xd7,
  0x82,
  0x78,
  0xe9,
  0xe4,
  0xc8,
  0xa1,
  0x1a,
  0xfd,
  0x25,
  0xf6,
  0xa7,
  0x4c,
  0xd9,
  0x06,
  0xfa,
  0x84,
  0x41,
  0xc1,
  0xe0,
  0x7c,
  0xab,
  0xe7,
  0xbd,
  0xc1,
  0x75,
  0x7e,
  0x08,
  0x11,
  0x58,
  0xcd,
  0xbe,
  0x28,
  0x6d,
  0x86,
  0x16,
  0x1b,
  0x37,
  0x5e,
  0x75,
  0x20,
  0xda,
  0x29,
  0x48,
  0xb3,
  0x26,
  0x09,
  0x0b,
  0x59,
  0x96,
  0x58,
  0x65,
  0x36,
  0x60,
  0x63,
  0x12,
  0x23,
  0x04,
  0x52,
  0xe8,
  0xa8,
  0x2c,
  0xa1,
  0xa6,
  0xf3,
  0x08,
  0x70,
  0xcb,
  0xcd,
  0xca,
  0x40,
  0x01,
  0x34,
  0x09,
  0x6d,
  0xd3,
  0x74,
  0xc8,
  0x0b,
  0x43,
  0x30,
  0x0c,
  0xc0,
  0xae,
  0xac,
  0xfe,
  0x3b,
  0x13,
  0x8b,
  0x82,
  0x2c,
  0xfe,
  0xbe,
  0x5f,
  0x16,
  0x07,
  0x44,
  0xe7,
  0x60,
  0xc2,
  0x77,
  0x53,
  0xa5,
  0x31,
  0xe1,
  0x2f,
  0xfb,
  0x2f,
  0x81,
  0x38,
  0x07,
  0xee,
  0xf6,
  0xf0,
  0x4d,
  0xfd,
  0x75,
  0xe5,
  0x83,
  0xcb,
  0x0d,
  0x46,
  0xed,
  0x3f,
  0x08,
  0x00,
  0x3d,
  0xf3,
  0xf8,
  0x3d,
  0xc4,
  0x7c,
  0xcc,
  0x51,
  0x56,
  0xd1,
  0x1d,
  0x0f,
  0x2c,
  0xf6,
  0x3b,
  0x46,
  0x0f,
  0xfc,
  0x5b,
  0x93,
  0x5e,
  0xc1,
  0xa3,
  0xfc,
  0x94,
  0x0b,
  0x12,
  0x33,
  0x04,
  0xc0,
  0x20,
  0xf8,
  0x53,
  0x75,
  0xdd,
  0x72,
  0xe1,
  0x8f,
  0x49,
  0x29,
  0x4f,
  0xd5,
  0x1d,
  0x63,
  0xf7,
  0x82,
  0x50,
  0x2a,
  0x07,
  0xe6,
  0x03,
  0xb9,
  0xb0,
  0x0d,
  0x30,
  0xe1,
  0xc4,
  0x8e,
  0x43,
  0xa7,
  0x46,
  0xff,
  0xa1,
  0xb2,
  0x99,
  0x2d,
  0x9a,
  0x7e,
  0x85,
  0xe1,
  0xe5,
  0x87,
  0x20,
  0x46,
  0x5e,
  0x88,
  0xb1,
  0xd7,
  0x93,
  0x4c,
  0x07,
  0xa4,
  0x1e,
  0x80,
  0x36,
  0x08,
  0x52,
  0x1e,
  0x06,
  0xf5,
  0xff,
  0xfe,
  0x86,
  0xb6,
  0xc1,
  0x5d,
  0x9a,
  0x69,
  0x33,
  0xe4,
  0xe8,
  0xd7,
  0x8a,
  0xdc,
  0xef,
  0x86,
  0x76,
  0xc2,
  0xbe,
  0xa3,
  0x2c,
  0xae,
  0x00,
  0x17,
  0x1f,
  0x83,
  0x18,
  0x18,
  0x40,
  0x3e,
  0x89,
  0xa1,
  0xe7,
  0xbc,
  0xa3,
  0x32,
  0x51,
  0xdb,
  0x82,
  0x78,
  0x19,
  0xe4,
  0xc8,
  0xa1,
  0x12,
  0xfd,
  0x25,
  0x06,
  0xa7,
  0x4c,
  0xd9,
  0x83,
  0x6e,
  0xfa,
  0x06,
  0xc9,
  0xe0,
  0x7c,
  0xcb,
  0xe7,
  0xbd,
  0xc1,
  0x77,
  0x7e,
  0x08,
  0x41,
  0x58,
  0xcd,
  0xbe,
  0x2c,
  0x6d,
  0x86,
  0xe6,
  0x1b,
  0x37,
  0x5e,
  0x7d,
  0x20,
  0xda,
  0x39,
  0x48,
  0xb3,
  0x26,
  0x7c,
  0xd3,
  0x05,
  0x09,
  0x4d,
  0x87,
  0xbc,
  0xc0,
  0xe9,
  0x1c,
  0x8c,
  0x9f,
  0x7d,
  0x81,
  0xeb,
  0xc4,
  0x66,
  0xb5,
  0xa7,
  0xac,
  0x12,
  0xb3,
  0xcb,
  0xc0,
  0xb1,
  0x86,
  0x61,
  0x7a,
  0x91,
  0xb2,
  0x03,
  0x12,
  0x69,
  0x57,
  0x4c,
  0x09,
  0x12,
  0x88,
  0x73,
  0xe4,
  0xcc,
  0xd0,
  0x8e,
  0xba,
  0x1a,
  0xfc,
  0x18,
  0xb8,
  0x46,
  0x30,
  0xcf,
  0x0c,
  0x3f,
  0xb7,
  0xf5,
  0x17,
  0x6a,
  0x15,
  0x1d,
  0x9d,
  0xf7,
  0xc6,
  0xcd,
  0xd2,
  0x32,
  0x09,
  0x5e,
  0x09,
  0xbf,
  0x63,
  0xf4,
  0x38,
  0x25,
  0x04,
  0x49,
  0xc5,
  0x9b,
  0x54,
  0x5b,
  0x91,
  0x2c,
  0xc4,
  0x66,
  0x3a,
  0xb7,
  0xeb,
  0xd8,
  0xb4,
  0xad,
  0xef,
  0x42,
  0x8f,
  0xbe,
  0x80,
  0x01,
  0xa3,
  0x9a,
  0x7c,
  0xf0,
  0x05,
  0x08,
  0xa5,
  0x72,
  0x61,
  0x41,
  0x3c,
  0x1e,
  0x51,
  0x70,
  0xc2,
  0x57,
  0xdb,
  0x2d,
  0xa5,
  0xd9,
  0x9f,
  0xb0,
  0x91,
  0x58,
  0x26,
  0xff,
  0x50,
  0x10,
  0x7a,
  0x75,
  0x6d,
  0xf5,
  0x25,
  0x46,
  0xf2,
  0x86,
  0x0b,
  0x3d,
  0xc9,
  0x74,
  0xf2,
  0x0a,
  0x0b,
  0xb7,
  0x9b,
  0xd8,
  0xd8,
  0xce,
  0xb9,
  0x88,
  0xd5,
  0xa5,
  0xb8,
  0x16,
  0xad,
  0xa6,
  0x94,
  0xd6,
  0xc1,
  0x67,
  0x1f,
  0x25,
  0xe6,
  0x98,
  0xe0,
  0x4c,
  0xd5,
  0xf3,
  0x09,
  0xca,
  0xe2,
  0x0a,
  0x50,
  0x5c,
  0xc7,
  0xbb,
  0x2d,
  0x5b,
  0x80,
  0xb8,
  0xea,
  0xdc,
  0xbb,
  0x71,
  0x31,
  0x35,
  0xc9,
  0xe0,
  0x23,
  0x6e,
  0x12,
  0x6e,
  0x7e,
  0xfb,
  0x5e,
  0xd1,
  0xd8,
  0x5d,
  0xd8,
  0xe5,
  0x0c,
  0xe8,
  0xa6,
  0x6f,
  0xf8,
  0x5c,
  0x23,
  0xa3,
  0x99,
  0xda,
  0x19,
  0x5e,
  0xf0,
  0xa4,
  0xa3,
  0x33,
  0x31,
  0x36,
  0x09,
  0xd4,
  0xa0,
  0xff,
  0x52,
  0xec,
  0x32,
  0xd1,
  0x57,
  0x98,
  0x90,
  0x07,
  0xc0,
  0xb7,
  0x09,
  0x37,
  0x5d,
  0x90,
  0x07,
  0xa3,
  0xdc,
  0x54,
  0x66,
  0x25,
  0x77,
  0xa1,
  0x0f,
  0x53,
  0x5c,
  0xcc,
  0xce,
  0xc9,
  0x76,
  0x0b,
  0x5f,
  0x00,
  0xad,
  0x13,
  0xcd,
  0x0e,
  0xa8,
  0x67,
  0x6f,
  0xf8,
  0x3f,
  0x48,
  0x06,
  0xc5,
  0xe9,
  0x1c,
  0xfc,
  0x9f,
  0x7d,
  0x81,
  0xec,
  0xc4,
  0x66,
  0xd5,
  0xa7,
  0xac,
  0x12,
  0xb0,
  0xcb,
  0xc0,
  0x61,
  0x86,
  0x61,
  0x7a,
  0x9c,
  0xb2,
  0x03,
  0x92,
  0x69,
  0x57,
  0x4c,
  0x25,
  0xb4,
  0xdb,
  0x0b,
  0xe4,
  0xcc,
  0xd0,
  0x7e,
  0xba,
  0x1a,
  0xfc,
  0x11,
  0xb8,
  0x46,
  0x80,
  0xcf,
  0x0c,
  0x3f,
  0xb9,
  0xf5,
  0x17,
  0x4a,
  0x15,
  0x1d,
  0x9d,
  0xf3,
  0xc6,
  0xcd,
  0xb2,
  0x32,
  0x09,
  0x5e,
  0x8e,
  0xc1,
  0xdd,
  0x0f,
  0x33,
  0x25,
  0x04,
  0x09,
  0xc5,
  0x9b,
  0x54,
  0x5e,
  0x91,
  0x2c,
  0xa4,
  0x66,
  0x3a,
  0xb7,
  0xe7,
  0xd8,
  0xb4,
  0xad,
  0xef,
  0x42,
  0x8f,
  0xb8,
  0x80,
  0x01,
  0xa3,
  0x9a,
  0x7c,
  0xf0,
  0xd9,
  0xc0,
  0xa0,
  0x08,
  0x60,
  0x41,
  0x3c,
  0xde,
  0x51,
  0x70,
  0xc2,
  0x5b,
  0xdb,
  0x2d,
  0xf5,
  0xd9,
  0x9f,
  0xb0,
  0x9c,
  0x58,
  0x26,
  0x0f,
  0x50,
  0x10,
  0x7a,
  0x73,
  0x6d,
  0xf5,
  0x55,
  0x46,
  0xf2,
  0x86,
  0x2a,
  0x6e,
  0x23,
  0x0e,
  0xfb,
  0x0a,
  0x0b,
  0xa7,
  0x9b,
  0xd8,
  0xd8,
  0xca,
  0xb9,
  0x88,
  0xd5,
  0xa5,
  0xb8,
  0x16,
  0xa5,
  0xa6,
  0x94,
  0xb6,
  0xc1,
  0x67,
  0x1f,
  0x2d,
  0xe6,
  0x98,
  0xb0,
  0x4c,
  0xd5,
  0xf3,
  0x40,
  0xc1,
  0x19,
  0x00,
  0x5a,
  0x5c,
  0xc7,
  0x0b,
  0x2d,
  0x5b,
  0x80,
  0xbd,
  0xea,
  0xdc,
  0x5b,
  0x71,
  0x31,
  0x35,
  0xc4,
  0xe0,
  0x23,
  0x8e,
  0x12,
  0x6e,
  0x7e,
  0xfd,
  0x5e,
  0xd1,
  0x58,
  0x5d,
  0xd8,
  0xe5,
  0x62,
  0x8e,
  0xf5,
  0x06,
  0xfc,
  0x5c,
  0x23,
  0x83,
  0x99,
  0xda,
  0x19,
  0x5a,
  0xf0,
  0xa4,
  0xf3,
  0x33,
  0x31,
  0x36,
  0x07,
  0xd4,
  0xa0,
  0x9f,
  0x52,
  0xec,
  0x32,
  0xd4,
  0x57,
  0x98,
  0xf0,
  0x07,
  0xc0,
  0xb7,
  0x43,
  0x24,
  0xa0,
  0x0a,
  0x01,
  0xa3,
  0xdc,
  0x74,
  0x66,
  0x25,
  0x77,
  0xa5,
  0x0f,
  0x53,
  0x0c,
  0xcc,
  0xce,
  0xc9,
  0x78,
  0x0b,
  0x5f,
  0x60,
  0xad,
  0x13,
  0xcd,
  0x0b,
  0xa8,
  0x67,
  0x0f,
  0xf8,
  0x3f,
  0x48,
  0xbc,
  0xfb,
  0x5f,
  0x05,
  0x42,
  0xbb,
  0xbd,
  0x6f,
  0x24,
  0x87,
  0x96,
  0x67,
  0xd8,
  0x3d,
  0xf0,
  0xb4,
  0x1c,
  0x57,
  0x42,
  0x8e,
  0xd7,
  0x58,
  0x98,
  0x6d,
  0x74,
  0xf9,
  0x36,
  0x9f,
  0x34,
  0x5c,
  0x8f,
  0x71,
  0x92,
  0xf8,
  0x19,
  0x02,
  0x18,
  0xdc,
  0xfd,
  0x01,
  0xd4,
  0x9c,
  0xb6,
  0x7c,
  0x7a,
  0xd9,
  0x63,
  0xff,
  0x99,
  0x3e,
  0x59,
  0xd1,
  0xf0,
  0x07,
  0xa6,
  0x4c,
  0xb2,
  0x12,
  0xe0,
  0x80,
  0x80,
  0x8a,
  0x62,
  0x00,
  0x45,
  0x1c,
  0x9e,
  0x0f,
  0x0d,
  0x0c,
  0x8a,
  0x4b,
  0x5a,
  0xbc,
  0xa7,
  0xa8,
  0x14,
  0x6f,
  0xc8,
  0x4e,
  0x3b,
  0xbf,
  0xcc,
  0xae,
  0x04,
  0x32,
  0xc5,
  0xf4,
  0xde,
  0x20,
  0x3b,
  0x1f,
  0xe1,
  0xd7,
  0x36,
  0x41,
  0xc3,
  0x44,
  0x37,
  0x03,
  0xe2,
  0x36,
  0xe2,
  0xf9,
  0xd8,
  0x27,
  0x1d,
  0xd2,
  0x0d,
  0x78,
  0xb1,
  0x8f,
  0xf4,
  0x05,
  0xb8,
  0xd5,
  0x27,
  0x96,
  0x5d,
  0xea,
  0x39,
  0x13,
  0x0a,
  0x92,
  0xbf,
  0x84,
  0x4a,
  0x58,
  0x7c,
  0x70,
  0xe3,
  0x06,
  0x14,
  0x9c,
  0x01,
  0x07,
  0xd2,
  0x21,
  0xbc,
  0xb8,
  0x83,
  0xc1,
  0x1f,
  0xfc,
  0x2b,
  0xe3,
  0xc2,
  0xb2,
  0x25,
  0x98,
  0xe4,
  0x46,
  0x9b,
  0xbe,
  0x75,
  0x04,
  0x13,
  0x02,
  0xa5,
  0xf4,
  0x6b,
  0xf1,
  0x5d,
  0x08,
  0xe6,
  0x58,
  0x6f,
  0x03,
  0xf3,
  0x25,
  0x96,
  0x7f,
  0xa7,
  0xfa,
  0xd0,
  0x19,
  0x84,
  0x3a,
  0xc6,
  0x7d,
  0xd7,
  0xfe,
  0x72,
  0xc8,
  0x9f,
  0x62,
  0xd4,
  0x43,
  0xd9,
  0x65,
  0x54,
  0xda,
  0xda,
  0x33,
  0x75,
  0x0d,
  0x44,
  0x02,
  0xaa,
  0x93,
  0xb7,
  0xa5,
  0x84,
  0xcb,
  0xc2,
  0xc0,
  0xcb,
  0xb8,
  0x2b,
  0xa1,
  0xc0,
  0x77,
  0x87,
  0xc9,
  0x63,
  0xc2,
  0xbf,
  0x22,
  0x46,
  0x52,
  0x9c,
  0x71,
  0x58,
  0x88,
  0xda,
  0xf5,
  0xc3,
  0x0b,
  0xbb,
  0xff,
  0x55,
  0x6c,
  0x0c,
  0xda,
  0x7b,
  0x34,
  0x3c,
  0x3f,
  0x2c,
  0x47,
  0xd4,
  0xde,
  0x3f,
  0x8a,
  0x78,
  0x16,
  0x9c,
  0x3d,
  0x40,
  0xdd,
  0xbb,
  0xbd,
  0x62,
  0x8e,
  0xa7,
  0x37,
  0x25,
  0x0a,
  0x2e,
  0x04,
  0x6b,
  0x24,
  0x87,
  0x16,
  0x67,
  0xd8,
  0x3d,
  0xf8,
  0xb4,
  0x1c,
  0xb7,
  0x42,
  0x8e,
  0xd7,
  0x59,
  0x98,
  0x6d,
  0xd4,
  0xf9,
  0x36,
  0x9f,
  0x3b,
  0x5c,
  0x8f,
  0xd1,
  0x92,
  0xf8,
  0x19,
  0x08,
  0x85,
  0xc9,
  0x04,
  0x09,
  0xd4,
  0x9c,
  0xe6,
  0x7c,
  0x7a,
  0xd9,
  0x65,
  0xff,
  0x99,
  0x9e,
  0x59,
  0xd1,
  0xf0,
  0x07,
  0xa6,
  0x4c,
  0xe2,
  0x12,
  0xe0,
  0x80,
  0x89,
  0x8a,
  0x62,
  0x60,
  0x45,
  0x1c,
  0x9e,
  0xe8,
  0x0b,
  0x0b,
  0x0d,
  0x43,
  0x5a,
  0xbc,
  0x07,
  0xa8,
  0x14,
  0x6f,
  0xc2,
  0x4e,
  0x3b,
  0xcf,
  0xcc,
  0xae,
  0x04,
  0x34,
  0xc5,
  0xf4,
  0xce,
  0x20,
  0x3b,
  0x1f,
  0xed,
  0xd7,
  0x36,
  0x21,
  0xc3,
  0x44,
  0x37,
  0xf2,
  0x06,
  0x1a,
  0x05,
  0xf2,
  0xd8,
  0x27,
  0xdd,
  0xd2,
  0x0d,
  0x78,
  0xb2,
  0x8f,
  0xf4,
  0xf5,
  0xb8,
  0xd5,
  0x27,
  0x94,
  0x5d,
  0xea,
  0x59,
  0x13,
  0x0a,
  0x92,
  0xb0,
  0x84,
  0x4a,
  0xf8,
  0x7c,
  0x70,
  0xe3,
  0x93,
  0xc9,
  0x99,
  0x06,
  0x0c,
  0xd2,
  0x21,
  0x3c,
  0xb8,
  0x83,
  0xc1,
  0x1c,
  0xfc,
  0x2b,
  0x53,
  0xc2,
  0xb2,
  0x25,
  0x9b,
  0xe4,
  0x46,
  0x3b,
  0xbe,
  0x75,
  0x04,
  0x10,
  0x02,
  0xa5,
  0xf4,
  0x6b,
  0xf1,
  0x5d,
  0x8e,
  0x06,
  0x68,
  0x06,
  0x02,
  0xf3,
  0x25,
  0xa6,
  0x7f,
  0xa7,
  0xfa,
  0xd5,
  0x19,
  0x84,
  0xca,
  0xc6,
  0x7d,
  0xd7,
  0xfa,
  0x72,
  0xc8,
  0xdf,
  0x62,
  0xd4,
  0x43,
  0xd8,
  0x65,
  0x54,
  0x7a,
  0xda,
  0x33,
  0x75,
  0x9a,
  0xc8,
  0xc3,
  0x06,
  0x92,
  0xb7,
  0xa5,
  0x24,
  0xcb,
  0xc2,
  0xc0,
  0xca,
  0xb8,
  0x2b,
  0xe1,
  0xc0,
  0x77,
  0x87,
  0xc5,
  0x63,
  0xc2,
  0x9f,
  0x22,
  0x46,
  0x52,
  0x91,
  0x71,
  0x58,
  0x78,
  0xda,
  0xf5,
  0xc3,
  0xab,
  0x48,
  0xe8,
  0x06,
  0x6d,
  0x0c,
  0xda,
  0xdb,
  0x34,
  0x3c,
  0x3f,
  0x21,
  0x47,
  0xd4,
  0x3e,
  0x3f,
  0x8a,
  0x78,
  0x10,
  0x9c,
  0x3d,
  0x60,
  0xdd,
  0xbb,
  0xbd,
  0x6e,
  0x8e,
  0xa7,
  0x87,
  0x25,
  0x0a,
  0x2e,
  0x54,
  0xb7,
  0x17,
  0x09,
  0x50,
  0x98,
  0x4c,
  0xd8,
  0x21,
  0x5d,
  0x9f,
  0xf3,
  0xab,
  0xac,
  0x52,
  0x04,
  0x23,
  0x7c,
  0x10,
  0xbd,
  0x7d,
  0x6e,
  0xa4,
  0xe3,
  0x23,
  0xfb,
  0x02,
  0xbb,
  0xf2,
  0xc0,
  0x88,
  0xb1,
  0x49,
  0x7a,
  0x23,
  0x0a,
  0xbe,
  0xb0,
  0xd0,
  0xe2,
  0xcd,
  0x9e,
  0x0d,
  0x79,
  0xb8,
  0x8b,
  0x34,
  0x69,
  0x8e,
  0x12,
  0xe7,
  0xfb,
  0x0e,
  0x12,
  0xa7,
  0x39,
  0x4c,
  0xc9,
  0xb2,
  0x51,
  0x49,
  0xc2,
  0xa0,
  0x83,
  0x68,
  0xfd,
  0xb9,
  0x0b,
  0x6f,
  0xa0,
  0x51,
  0xd4,
  0x52,
  0xdb,
  0xac,
  0x59,
  0x80,
  0x4c,
  0x7a,
  0x1d,
  0x86,
  0x2f,
  0x7a,
  0x37,
  0x95,
  0xfd,
  0xb2,
  0x26,
  0x18,
  0x1d,
  0xfb,
  0x23,
  0xe8,
  0xd1,
  0xe9,
  0xe1,
  0x95,
  0x0c,
  0x14,
  0x0e,
  0x99,
  0x9c,
  0x69,
  0x92,
  0xf6,
  0xce,
  0x55,
  0x6d,
  0x2a,
  0x9e,
  0x26,
  0x55,
  0x65,
  0xb6,
  0x86,
  0xb7,
  0x99,
  0x65,
  0x46,
  0x2f,
  0x74,
  0x5d,
  0x26,
  0xc2,
  0xe8,
  0x3f,
  0xd0,
  0xb7,
  0x5f,
  0x80,
  0x72,
  0x0c,
  0x68,
  0x80,
  0x66,
  0xac,
  0xa9,
  0xb6,
  0x4a,
  0x9b,
  0xe1,
  0xdc,
  0xd3,
  0xce,
  0x9c,
  0x60,
  0x30,
  0x03,
  0x66,
  0x51,
  0x91,
  0xa4,
  0x79,
  0x57,
  0x8d,
  0xe7,
  0x9d,
  0xf5,
  0x8e,
  0xe4,
  0xef,
  0x97,
  0xb6,
  0x0d,
  0x89,
  0x3c,
  0x6c,
  0xff,
  0xdf,
  0x8c,
  0x01,
  0x38,
  0xa8,
  0xd0,
  0x83,
  0xd8,
  0xc9,
  0xbc,
  0x7b,
  0x3f,
  0x40,
  0x58,
  0xc5,
  0x52,
  0xd5,
  0x40,
  0xe5,
  0x8f,
  0x92,
  0x16,
  0xe9,
  0x1d,
  0x38,
  0x9b,
  0xcc,
  0x06,
  0x8a,
  0x84,
  0x6e,
  0x94,
  0x8b,
  0x8c,
  0xe0,
  0x1a,
  0xa0,
  0xff,
  0x92,
  0xe8,
  0x87,
  0xbe,
  0xfa,
  0x0e,
  0x52,
  0x40,
  0x07,
  0xb2,
  0x7c,
  0x47,
  0xc1,
  0xc7,
  0xdb,
  0x9b,
  0x89,
  0x69,
  0x34,
  0xcb,
  0x16,
  0x04,
  0x75,
  0x7b,
  0x91,
  0x6a,
  0x74,
  0x73,
  0x1e,
  0xe7,
  0x5f,
  0x22,
  0x6d,
  0x17,
  0x7a,
  0x41,
  0x05,
  0xf1,
  0xad,
  0xbf,
  0xf8,
  0x4d,
  0x83,
  0xb8,
  0x3e,
  0x38,
  0x24,
  0xe8,
  0x76,
  0x96,
  0xc3,
  0x34,
  0xe9,
  0x0b,
  0xdc,
  0x21,
  0x5d,
  0xaf,
  0xf3,
  0xab,
  0xac,
  0x5c,
  0x04,
  0x23,
  0x8c,
  0x10,
  0xbd,
  0x7d,
  0x6d,
  0xa4,
  0xe3,
  0x43,
  0xfb,
  0x02,
  0xbb,
  0xf3,
  0xc0,
  0x88,
  0xf1,
  0x49,
  0x7a,
  0x23,
  0x1e,
  0x74,
  0xe8,
  0x06,
  0xea,
  0xcd,
  0x9e,
  0x2d,
  0x79,
  0xb8,
  0x8b,
  0x30,
  0x69,
  0x8e,
  0x72,
  0xe7,
  0xfb,
  0x0e,
  0x15,
  0xa7,
  0x39,
  0x7c,
  0xc9,
  0xb2,
  0x51,
  0x4e,
  0xc2,
  0xa0,
  0x23,
  0x68,
  0xfd,
  0xb9,
  0xff,
  0xde,
  0xaa,
  0x0c,
  0xdc,
  0x52,
  0xdb,
  0xbc,
  0x59,
  0x80,
  0x4c,
  0x7a,
  0x1d,
  0x86,
  0x8f,
  0x7a,
  0x37,
  0x95,
  0xfe,
  0xb2,
  0x26,
  0xb8,
  0x1d,
  0xfb,
  0x23,
  0xea,
  0xd1,
  0xe9,
  0x51,
  0x95,
  0x0c,
  0x14,
  0xfd,
  0x95,
  0x60,
  0x02,
  0x99,
  0xf6,
  0xce,
  0x65,
  0x6d,
  0x2a,
  0x9e,
  0x29,
  0x55,
  0x65,
  0x36,
  0x86,
  0xb7,
  0x99,
  0x63,
  0x46,
  0x2f,
  0xc4,
  0x5d,
  0x26,
  0xc2,
  0xed,
  0x3f,
  0xd0,
  0x07,
  0x5f,
  0x80,
  0x72,
  0x74,
  0x7a,
  0x8f,
  0x03,
  0xa9,
  0xa9,
  0xb6,
  0x1a,
  0x9b,
  0xe1,
  0xdc,
  0xdb,
  0xce,
  0x9c,
  0xa0,
  0x30,
  0x03,
  0x66,
  0x59,
  0x91,
  0xa4,
  0x79,
  0x57,
  0x8d,
  0xe7,
  0x9b,
  0xf5,
  0x8e,
  0xa4,
  0xef,
  0x97,
  0xb6,
  0x2f,
  0x7c,
  0xd6,
  0x0b,
  0xfd,
  0xdf,
  0x8c,
  0xf1,
  0x38,
  0xa8,
  0xd0,
  0x84,
  0xd8,
  0xc9,
  0x3c,
  0x7b,
  0x3f,
  0x40,
  0x52,
  0xc5,
  0x52,
  0x35,
  0x40,
  0xe5,
  0x8f,
  0x93,
  0x16,
  0xe9,
  0xbd,
  0x38,
  0x9b,
  0xcc,
  0x38,
  0xd6,
  0xe0,
  0x0d,
  0x99,
  0x8b,
  0x8c,
  0xa0,
  0x1a,
  0xa0,
  0xff,
  0x9e,
  0xe8,
  0x87,
  0x3e,
  0xfa,
  0x0e,
  0x52,
  0x47,
  0x07,
  0xb2,
  0x3c,
  0x47,
  0xc1,
  0xc7,
  0xd3,
  0x9b,
  0x89,
  0x39,
  0x34,
  0xcb,
  0x16,
  0x7e,
  0x09,
  0xe2,
  0x03,
  0x66,
  0x74,
  0x73,
  0x5e,
  0xe7,
  0x5f,
  0x22,
  0x61,
  0x17,
  0x7a,
  0xc1,
  0x05,
  0xf1,
  0xad,
  0xb8,
  0xf8,
  0x4d,
  0xc3,
  0xb8,
  0x3e,
  0x38,
  0x2c,
  0xe8,
  0x76,
  0xc6,
  0xc3,
  0x34,
  0xe9,
  0x81,
  0xe3,
  0x1d,
  0x0c,
  0x41,
  0x87,
  0x6e,
  0xd3,
  0x32,
  0x31,
  0xa1,
  0x6b,
  0x7e,
  0x95,
  0x62,
  0x3e,
  0xe3,
  0xf6,
  0x73,
  0xe8,
  0xdc,
  0x00,
  0x10,
  0x8a,
  0x5c,
  0xdb,
  0x95,
  0x6b,
  0x5c,
  0xff,
  0xd0,
  0x57,
  0x4e,
  0x44,
  0xd8,
  0x05,
  0xef,
  0xad,
  0xca,
  0x35,
  0x2b,
  0x56,
  0xe1,
  0x22,
  0xf8,
  0x03,
  0xce,
  0x98,
  0x1d,
  0xb1,
  0x3d,
  0xe2,
  0x9a,
  0xd0,
  0x39,
  0x60,
  0x9d,
  0x37,
  0x9a,
  0x32,
  0xaa,
  0xfd,
  0x48,
  0xd5,
  0x0e,
  0xc7,
  0xd5,
  0x09,
  0x5f,
  0x09,
  0x26,
  0xcf,
  0x2d,
  0xf5,
  0x7c,
  0x60,
  0x44,
  0xc2,
  0x6b,
  0x96,
  0xa6,
  0xbe,
  0x4b,
  0x98,
  0x18,
  0x3b,
  0x76,
  0xfd,
  0xe5,
  0x66,
  0xf6,
  0x9e,
  0x01,
  0x3d,
  0x6d,
  0x0e,
  0x43,
  0x60,
  0x0d,
  0x0a,
  0xa7,
  0xf7,
  0x38,
  0x95,
  0x59,
  0xd2,
  0x96,
  0x31,
  0xaa,
  0xa6,
  0xf8,
  0x0c,
  0xf0,
  0x88,
  0x5d,
  0x67,
  0xf3,
  0xc5,
  0x34,
  0x1f,
  0x96,
  0x99,
  0xfe,
  0x09,
  0x86,
  0xaf,
  0x09,
  0xe2,
  0x3d,
  0x23,
  0xa8,
  0x0d,
  0xc2,
  0x67,
  0xbd,
  0x47,
  0x52,
  0x51,
  0x38,
  0xa3,
  0xa0,
  0xcb,
  0xbb,
  0x47,
  0xf0,
  0xfb,
  0x47,
  0x65,
  0x16,
  0xbb,
  0xe2,
  0xbb,
  0x56,
  0x38,
  0xab,
  0xc3,
  0xf7,
  0x89,
  0xd4,
  0x03,
  0x10,
  0x8b,
  0x03,
  0x0d,
  0x63,
  0x0d,
  0xde,
  0x5b,
  0x92,
  0x8a,
  0xb6,
  0x01,
  0x35,
  0xfd,
  0x04,
  0xc5,
  0x7e,
  0xe9,
  0x4a,
  0xd5,
  0xe6,
  0x59,
  0x0f,
  0x2b,
  0x84,
  0x80,
  0xbf,
  0xd1,
  0x9d,
  0xe2,
  0x9e,
  0x30,
  0x7d,
  0x64,
  0xbe,
  0x0a,
  0x97,
  0x20,
  0x3e,
  0x53,
  0x02,
  0xbe,
  0xae,
  0x02,
  0xb8,
  0xff,
  0x11,
  0xcb,
  0xf1,
  0xef,
  0x5f,
  0x50,
  0xa6,
  0x19,
  0x37,
  0xf8,
  0x94,
  0xb0,
  0xaf,
  0x61,
  0xad,
  0xe2,
  0x14,
  0xe2,
  0x1f,
  0x6c,
  0x7e,
  0x02,
  0x38,
  0xde,
  0xc1,
  0x2c,
  0xfd,
  0x65,
  0x41,
  0xfd,
  0x47,
  0x02,
  0xee,
  0x30,
  0x0f,
  0x10,
  0xb0,
  0xab,
  0x59,
  0xe6,
  0xc8,
  0x07,
  0x6b,
  0x4f,
  0x40,
  0x1e,
  0x52,
  0x1d,
  0xf3,
  0x1d,
  0xe0,
  0x93,
  0xd1,
  0x0d,
  0xd3,
  0x32,
  0x31,
  0x51,
  0x6b,
  0x7e,
  0x95,
  0x6f,
  0x3e,
  0xe3,
  0xc6,
  0x73,
  0xe8,
  0xdc,
  0x00,
  0x10,
  0x8a,
  0xcc,
  0xdb,
  0x95,
  0x6b,
  0x53,
  0xff,
  0xd0,
  0x27,
  0x4e,
  0x44,
  0xd8,
  0xcb,
  0xa4,
  0xf1,
  0x04,
  0x3d,
  0x2b,
  0x56,
  0x11,
  0x22,
  0xf8,
  0x03,
  0xca,
  0x98,
  0x1d,
  0x41,
  0x3d,
  0xe2,
  0x9a,
  0xdf,
  0x39,
  0x60,
  0xcd,
  0x37,
  0x9a,
  0x32,
  0xa2,
  0xfd,
  0x48,
  0xf5,
  0x0e,
  0xc7,
  0xd5,
  0x61,
  0xb1,
  0xed,
  0x0d,
  0xc9,
  0x2d,
  0xf5,
  0x6c,
  0x60,
  0x44,
  0xc2,
  0x6e,
  0x96,
  0xa6,
  0xee,
  0x4b,
  0x98,
  0x18,
  0x3f,
  0x76,
  0xfd,
  0xe5,
  0x66,
  0xf6,
  0x9e,
  0x0c,
  0x3d,
  0x6d,
  0x1e,
  0x43,
  0x60,
  0x0d,
  0xaa,
  0xf0,
  0x2f,
  0x0c,
  0x93,
  0x59,
  0xd2,
  0x56,
  0x31,
  0xaa,
  0xa6,
  0xf1,
  0x0c,
  0xf0,
  0xa8,
  0x5d,
  0x67,
  0xf3,
  0xc1,
  0x34,
  0x1f,
  0x26,
  0x99,
  0xfe,
  0x09,
  0x8f,
  0xaf,
  0x09,
  0xd2,
  0x3d,
  0x23,
  0xa8,
  0x79,
  0x39,
  0x7d,
  0x0b,
  0x4d,
  0x52,
  0x51,
  0x38,
  0xa3,
  0xa0,
  0xcb,
  0xb1,
  0x47,
  0xf0,
  0x5b,
  0x47,
  0x65,
  0x16,
  0xb3,
  0xe2,
  0xbb,
  0xd6,
  0x38,
  0xab,
  0xc3,
  0xfe,
  0x89,
  0xd4,
  0xa3,
  0x10,
  0x8b,
  0x03,
  0xcb,
  0xf1,
  0x25,
  0x0c,
  0x5e,
  0x92,
  0x8a,
  0xb6,
  0x01,
  0x35,
  0xfd,
  0x04,
  0xc5,
  0x7e,
  0x09,
  0x4a,
  0xd5,
  0xe6,
  0x5f,
  0x0f,
  0x2b,
  0xf4,
  0x80,
  0xbf,
  0xd1,
  0x94,
  0xe2,
  0x9e,
  0x00,
  0x7d,
  0x64,
  0xbe,
  0xd1,
  0x2a,
  0xc6,
  0x0e,
  0x5d,
  0x02,
  0xbe,
  0xfe,
  0x02,
  0xb8,
  0xff,
  0x12,
  0xcb,
  0xf1,
  0x9f,
  0x5f,
  0x50,
  0xa6,
  0x1f,
  0x37,
  0xf8,
  0x74,
  0xb0,
  0xaf,
  0x61,
  0xa6,
  0xe2,
  0x14,
  0x82,
  0x1f,
  0x6c,
  0x7e,
  0xd9,
  0x9b,
  0xe7,
  0x0a,
  0x22,
  0xfd,
  0x65,
  0x01,
  0xfd,
  0x47,
  0x02,
  0xee,
  0x30,
  0x0f,
  0xe0,
  0xb0,
  0xab,
  0x59,
  0xe8,
  0xc8,
  0x07,
  0x8b,
  0x4f,
  0x40,
  0x1e,
  0x59,
  0x1d,
  0xf3,
  0x7d,
  0xe0,
  0x93,
  0xd1,
  0x26,
  0x64,
  0x08,
  0x01,
  0x4c,
  0x1a,
  0x4f,
  0x7e,
  0x12,
  0xf3,
  0xcf,
  0x20,
  0x58,
  0xca,
  0x2e,
  0x30,
  0xe8,
  0xf2,
  0x37,
  0xd6,
  0xe6,
  0x6c,
  0x19,
  0xa6,
  0x99,
  0xed,
  0xb4,
  0xf6,
  0xb2,
  0x6a,
  0x60,
  0x52,
  0xb3,
  0x78,
  0xc3,
  0x04,
  0x16,
  0xdb,
  0xde,
  0x10,
  0x33,
  0xd1,
  0xa5,
  0xbc,
  0x4a,
  0xc5,
  0x18,
  0xcf,
  0x81,
  0xcd,
  0x93,
  0xbc,
  0xe0,
  0xbc,
  0x20,
  0xda,
  0x08,
  0x12,
  0x4a,
  0x20,
  0x3a,
  0x04,
  0x35,
  0x26,
  0xb5,
  0x64,
  0xce,
  0x07,
  0x0a,
  0xff,
  0xc2,
  0x09,
  0xa5,
  0xf9,
  0x86,
  0xb0,
  0x96,
  0xcd,
  0x9f,
  0x9c,
  0xb4,
  0xb6,
  0xf7,
  0xc3,
  0xe5,
  0x62,
  0x35,
  0xd4,
  0x57,
  0x96,
  0x0a,
  0x00,
  0x60,
  0x7a,
  0x09,
  0x43,
  0x85,
  0xc3,
  0xbe,
  0x00,
  0x97,
  0xd3,
  0xb7,
  0xc3,
  0x00,
  0x58,
  0x2d,
  0xd9,
  0x04,
  0xe4,
  0x8d,
  0x37,
  0x99,
  0x5c,
  0xc9,
  0xbb,
  0x30,
  0x13,
  0x96,
  0x71,
  0x59,
  0x1e,
  0x73,
  0xeb,
  0xf9,
  0xcf,
  0xa6,
  0xf3,
  0xa2,
  0x64,
  0x00,
  0x0a,
  0x1c,
  0x5f,
  0xc2,
  0xe2,
  0x3f,
  0x87,
  0xd8,
  0xeb,
  0x1e,
  0xfd,
  0xc9,
  0x91,
  0x7f,
  0xfa,
  0xbd,
  0x58,
  0x36,
  0x83,
  0x02,
  0xac,
  0x39,
  0xef,
  0xf1,
  0x61,
  0x06,
  0x99,
  0x6d,
  0x8d,
  0x98,
  0x5d,
  0x76,
  0x0c,
  0xad,
  0x62,
  0xec,
  0x53,
  0xf2,
  0x66,
  0x64,
  0xfe,
  0xf1,
  0x12,
  0x77,
  0x65,
  0xa6,
  0x57,
  0xf7,
  0x46,
  0x5c,
  0xbc,
  0x29,
  0x1c,
  0xbc,
  0x93,
  0xde,
  0x87,
  0x8e,
  0x7f,
  0xc0,
  0xb4,
  0x4a,
  0x73,
  0x3b,
  0x09,
  0xbd,
  0x79,
  0xae,
  0x42,
  0x3a,
  0x2a,
  0x82,
  0x3b,
  0xb1,
  0xd5,
  0xed,
  0x77,
  0x8e,
  0x1a,
  0xbb,
  0xd1,
  0x3a,
  0xe2,
  0x72,
  0x7c,
  0x1c,
  0x3b,
  0xdc,
  0x6d,
  0x8b,
  0x7d,
  0x47,
  0x7f,
  0x2b,
  0x73,
  0x32,
  0x0b,
  0x42,
  0x86,
  0x10,
  0xbd,
  0xc5,
  0x95,
  0x7d,
  0xc4,
  0x4e,
  0x2a,
  0x12,
  0x88,
  0x71,
  0xe5,
  0x4c,
  0x2e,
  0xcd,
  0x5d,
  0xdd,
  0x83,
  0xe3,
  0xc4,
  0x23,
  0x92,
  0x75,
  0x82,
  0xb8,
  0xc1,
  0xd4,
  0x8c,
  0xcd,
  0x06,
  0x79,
  0x12,
  0xf3,
  0x6f,
  0x20,
  0x58,
  0xca,
  0x2b,
  0x30,
  0xe8,
  0x92,
  0x37,
  0xd6,
  0xe6,
  0x6c,
  0x19,
  0xa6,
  0xf9,
  0xed,
  0xb4,
  0xf6,
  0xb7,
  0x6a,
  0x60,
  0xd2,
  0xb3,
  0x78,
  0xc3,
  0x80,
  0x4a,
  0xd7,
  0x07,
  0x1f,
  0x33,
  0xd1,
  0x25,
  0xbc,
  0x4a,
  0xc5,
  0x1c,
  0xcf,
  0x81,
  0x4d,
  0x93,
  0xbc,
  0xe0,
  0xbe,
  0x20,
  0xda,
  0xd8,
  0x12,
  0x4a,
  0x20,
  0x3a,
  0x04,
  0x35,
  0x86,
  0xb5,
  0x64,
  0xce,
  0x67,
  0x75,
  0x38,
  0x09,
  0x02,
  0xa5,
  0xf9,
  0xc6,
  0xb0,
  0x96,
  0xcd,
  0x96,
  0x9c,
  0xb4,
  0x66,
  0xf7,
  0xc3,
  0xe5,
  0x64,
  0x35,
  0xd4,
  0xb7,
  0x96,
  0x0a,
  0x00,
  0x63,
  0x7a,
  0x09,
  0x93,
  0x85,
  0xc3,
  0xbe,
  0x62,
  0x17,
  0x41,
  0x0e,
  0xc6,
  0x00,
  0x58,
  0x2d,
  0xd9,
  0x04,
  0xe4,
  0x86,
  0x37,
  0x99,
  0x3c,
  0xc9,
  0xbb,
  0x30,
  0x18,
  0x96,
  0x71,
  0x49,
  0x1e,
  0x73,
  0xeb,
  0xff,
  0xcf,
  0xa6,
  0x53,
  0xa2,
  0x64,
  0x00,
  0xaf,
  0x14,
  0xca,
  0x09,
  0xe0,
  0x3f,
  0x87,
  0x08,
  0xeb,
  0x1e,
  0xfd,
  0xc8,
  0x91,
  0x7f,
  0xaa,
  0xbd,
  0x58,
  0x36,
  0x8e,
  0x02,
  0xac,
  0x69,
  0xef,
  0xf1,
  0x61,
  0x03,
  0x99,
  0x6d,
  0x6d,
  0x98,
  0x5d,
  0x76,
  0xb6,
  0x96,
  0xfe,
  0x04,
  0x52,
  0xf2,
  0x66,
  0xc4,
  0xfe,
  0xf1,
  0x12,
  0x75,
  0x65,
  0xa6,
  0x77,
  0xf7,
  0x46,
  0x5c,
  0xb0,
  0x29,
  0x1c,
  0x0c,
  0x93,
  0xde,
  0x87,
  0x8f,
  0x7f,
  0xc0,
  0x54,
  0x4a,
  0x73,
  0x3b,
  0x70,
  0x0d,
  0x88,
  0x04,
  0x46,
  0x3a,
  0x2a,
  0x42,
  0x3b,
  0xb1,
  0xd5,
  0xe0,
  0x77,
  0x8e,
  0xea,
  0xbb,
  0xd1,
  0x3a,
  0xe1,
  0x72,
  0x7c,
  0xcc,
  0x3b,
  0xdc,
  0x6d,
  0x85,
  0x7d,
  0x47,
  0x7f,
  0x2b,
  0x73,
  0x32,
  0x38,
  0x52,
  0xbb,
  0x0c,
  0xb9,
  0xc5,
  0x95,
  0xbd,
  0xc4,
  0x4e,
  0x2a,
  0x1e,
  0x88,
  0x71,
  0x15,
  0x4c,
  0x2e,
  0xcd,
  0x5f,
  0xdd,
  0x83,
  0x33,
  0xc4,
  0x23,
  0x92,
  0x7a,
  0x82,
  0xb8,
  0x81,
  0xd4,
  0x8c,
  0xcd,
  0xcf,
  0xad,
  0x45,
  0x03,
  0xa8,
  0x74,
  0x7d,
  0x95,
  0xed,
  0x20,
  0x5c,
  0x4e,
  0x83,
  0xfa,
  0xca,
  0x40,
  0x4e,
  0xe8,
  0xf4,
  0xc2,
  0xc5,
  0x27,
  0xd1,
  0xe1,
  0x43,
  0xf5,
  0x54,
  0x87,
  0x59,
  0xc4,
  0x08,
  0x84,
  0xa8,
  0x15,
  0xd9,
  0x01,
  0x56,
  0x87,
  0x93,
  0xfc,
  0x77,
  0x64,
  0x6f,
  0x8b,
  0x1b,
  0x0c,
  0xda,
  0xc7,
  0x0b,
  0x36,
  0x2b,
  0x07,
  0x40,
  0x20,
  0xbc,
  0xf3,
  0x35,
  0xdf,
  0x03,
  0x6a,
  0x6c,
  0xef,
  0x58,
  0x22,
  0x5b,
  0xa3,
  0xbf,
  0x09,
  0x76,
  0x11,
  0xe4,
  0x26,
  0x81,
  0x23,
  0x61,
  0x14,
  0x19,
  0x54,
  0x84,
  0x82,
  0x89,
  0x9f,
  0x90,
  0x2b,
  0xd8,
  0xdf,
  0x8e,
  0xdc,
  0xfa,
  0x0b,
  0xac,
  0x17,
  0xf2,
  0x58,
  0xad,
  0x19,
  0x6d,
  0xdc,
  0x99,
  0x00,
  0x4a,
  0xa1,
  0x9c,
  0xb1,
  0xb3,
  0x51,
  0xd7,
  0x08,
  0x36,
  0xd5,
  0x71,
  0x4c,
  0x39,
  0x6e,
  0x57,
  0xb5,
  0x66,
  0x27,
  0xb1,
  0xf1,
  0xd2,
  0xda,
  0xdc,
  0xda,
  0xda,
  0x27,
  0x4f,
  0x0a,
  0xa9,
  0x0e,
  0x91,
  0x0c,
  0x6b,
  0xe9,
  0x4f,
  0x19,
  0x54,
  0xf2,
  0x6f,
  0x6f,
  0x52,
  0x0a,
  0xb1,
  0x63,
  0x53,
  0x01,
  0xb9,
  0xf9,
  0x2f,
  0x81,
  0x04,
  0x75,
  0x88,
  0xd4,
  0x03,
  0x95,
  0x1d,
  0x0d,
  0x06,
  0xc7,
  0xcc,
  0x19,
  0x51,
  0x0c,
  0xd7,
  0x80,
  0x48,
  0x0f,
  0x7f,
  0xb4,
  0x42,
  0x68,
  0x52,
  0xd1,
  0x3c,
  0xbd,
  0xc5,
  0xc4,
  0x9d,
  0x6f,
  0xc8,
  0xbe,
  0xa2,
  0x98,
  0xa2,
  0x0a,
  0x80,
  0x12,
  0x82,
  0x41,
  0xaf,
  0x4e,
  0xaf,
  0x2a,
  0x2d,
  0x07,
  0x23,
  0xb5,
  0xcb,
  0xaf,
  0xb7,
  0x50,
  0xe6,
  0x54,
  0x13,
  0x97,
  0xbd,
  0x4d,
  0xc1,
  0x6d,
  0xa9,
  0x29,
  0xce,
  0xfe,
  0x25,
  0x68,
  0xfa,
  0x6a,
  0xa0,
  0x5e,
  0xb3,
  0xc5,
  0x05,
  0xcf,
  0x8c,
  0x5a,
  0x11,
  0x05,
  0xdc,
  0x5a,
  0x34,
  0x50,
  0x48,
  0xaf,
  0x19,
  0xbf,
  0xed,
  0x68,
  0x42,
  0xb2,
  0x3e,
  0x93,
  0x56,
  0xd6,
  0xb1,
  0x41,
  0xda,
  0x37,
  0x45,
  0xb5,
  0x5f,
  0xa1,
  0x4c,
  0x3a,
  0xfa,
  0x30,
  0x73,
  0xa5,
  0xee,
  0x0a,
  0x93,
  0xed,
  0x20,
  0x1c,
  0x4e,
  0x83,
  0xfa,
  0xcf,
  0x40,
  0x4e,
  0xe8,
  0xf4,
  0xc2,
  0xc5,
  0x2c,
  0xd1,
  0xe1,
  0xf3,
  0xf5,
  0x54,
  0x87,
  0x57,
  0xc4,
  0x08,
  0x34,
  0xa8,
  0x15,
  0xd9,
  0x99,
  0x83,
  0x95,
  0x09,
  0xf7,
  0x77,
  0x64,
  0xdf,
  0x8b,
  0x1b,
  0x0c,
  0xd0,
  0xc7,
  0x0b,
  0x06,
  0x2b,
  0x07,
  0x40,
  0x22,
  0xbc,
  0xf3,
  0xc5,
  0xdf,
  0x03,
  0x6a,
  0x6f,
  0xef,
  0x58,
  0x02,
  0x5b,
  0xa3,
  0xbf,
  0x43,
  0xb3,
  0xfe,
  0x01,
  0x24,
  0x81,
  0x23,
  0x51,
  0x14,
  0x19,
  0x54,
  0x88,
  0x82,
  0x89,
  0x6f,
  0x90,
  0x2b,
  0xd8,
  0xd9,
  0x8e,
  0xdc,
  0xca,
  0x0b,
  0xac,
  0x17,
  0xf2,
  0x58,
  0xad,
  0x09,
  0x6d,
  0xdc,
  0x99,
  0x2e,
  0x1a,
  0xf6,
  0x09,
  0xb8,
  0xb3,
  0x51,
  0x47,
  0x08,
  0x36,
  0xd5,
  0x73,
  0x4c,
  0x39,
  0x8e,
  0x57,
  0xb5,
  0x66,
  0x2f,
  0xb1,
  0xf1,
  0x52,
  0xda,
  0xdc,
  0xda,
  0xda,
  0x27,
  0x4f,
  0x5a,
  0xa9,
  0x0e,
  0x91,
  0x40,
  0x7e,
  0x6e,
  0x0f,
  0x1a,
  0x54,
  0xf2,
  0x5f,
  0x6f,
  0x52,
  0x0a,
  0xb4,
  0x63,
  0x53,
  0x31,
  0xb9,
  0xf9,
  0x2f,
  0x83,
  0x04,
  0x75,
  0x18,
  0xd4,
  0x03,
  0x95,
  0x17,
  0x0d,
  0x06,
  0x77,
  0xcc,
  0x19,
  0x51,
  0x35,
  0x1d,
  0x99,
  0x09,
  0x03,
  0x7f,
  0xb4,
  0x12,
  0x68,
  0x52,
  0xd1,
  0x35,
  0xbd,
  0xc5,
  0xb4,
  0x9d,
  0x6f,
  0xc8,
  0xb3,
  0xa2,
  0x98,
  0xc2,
  0x0a,
  0x80,
  0x12,
  0x88,
  0x41,
  0xaf,
  0xbe,
  0xaf,
  0x2a,
  0x2d,
  0x39,
  0x3f,
  0x57,
  0x0d,
  0xa4,
  0xb7,
  0x50,
  0x96,
  0x54,
  0x13,
  0x97,
  0xb9,
  0x4d,
  0xc1,
  0x1d,
  0xa9,
  0x29,
  0xce,
  0xf2,
  0x25,
  0x68,
  0xda,
  0x6a,
  0xa0,
  0x5e,
  0xb8,
  0xc5,
  0x05,
  0x3f,
  0x8c,
  0x5a,
  0x11,
  0x39,
  0x3b,
  0x51,
  0x0f,
  0x5b,
  0x48,
  0xaf,
  0x69,
  0xbf,
  0xed,
  0x68,
  0x46,
  0xb2,
  0x3e,
  0xc3,
  0x56,
  0xd6,
  0xb1,
  0x4c,
  0xda,
  0x37,
  0x25,
  0xb5,
  0x5f,
  0xa1,
  0x47,
  0x3a,
  0xfa,
  0xc0,
  0x73,
  0xa5,
  0xee,
  0xc6,
  0xc4,
  0xaa,
  0x02,
  0x39,
  0x58,
  0x99,
  0xf8,
  0x5f,
  0x00,
  0x63,
  0x4c,
  0xdc,
  0xe8,
  0x83,
  0x93,
  0xde,
  0x84,
  0x6b,
  0x2a,
  0x19,
  0x45,
  0x4e,
  0xb2,
  0xfb,
  0x7d,
  0x13,
  0x3f,
  0xd2,
  0x5e,
  0x80,
  0xb5,
  0x22,
  0x15,
  0x93,
  0x03,
  0x34,
  0xeb,
  0x1f,
  0x4c,
  0xd2,
  0xe5,
  0x1b,
  0x27,
  0xf1,
  0xdc,
  0x77,
  0x24,
  0x5d,
  0x5f,
  0xbc,
  0xce,
  0xc2,
  0xd6,
  0x72,
  0x1f,
  0x58,
  0x8c,
  0x05,
  0x1c,
  0xa4,
  0x8c,
  0x22,
  0x7c,
  0x05,
  0x73,
  0x32,
  0x0d,
  0xa2,
  0x61,
  0x9f,
  0xbb,
  0xc0,
  0x4d,
  0x9e,
  0x70,
  0x2f,
  0x53,
  0x9c,
  0xf6,
  0xf9,
  0x45,
  0xaa,
  0xd9,
  0x1f,
  0x2c,
  0x59,
  0x0e,
  0x97,
  0xe0,
  0xcd,
  0x91,
  0xad,
  0xa7,
  0x77,
  0xdc,
  0xdb,
  0x48,
  0x27,
  0x0b,
  0xe4,
  0xe7,
  0xf6,
  0x00,
  0x65,
  0xe2,
  0xe0,
  0xde,
  0xee,
  0xfb,
  0x96,
  0xf9,
  0x9e,
  0x5d,
  0xb5,
  0x11,
  0x5a,
  0xd4,
  0xe1,
  0xc2,
  0x11,
  0x2d,
  0xa0,
  0x9b,
  0x10,
  0x9a,
  0x57,
  0xc9,
  0xbc,
  0xcf,
  0xdb,
  0x0d,
  0xd3,
  0x91,
  0x99,
  0x60,
  0xfb,
  0xef,
  0xd6,
  0xf8,
  0xfd,
  0x91,
  0x8d,
  0xdc,
  0xe6,
  0xfc,
  0x68,
  0x63,
  0x88,
  0xfd,
  0x40,
  0xe3,
  0x4c,
  0xe2,
  0x11,
  0xd2,
  0x2c,
  0xbf,
  0x2b,
  0x1c,
  0x86,
  0xe9,
  0x89,
  0x0a,
  0xf3,
  0x73,
  0xd5,
  0x6f,
  0x3a,
  0xb7,
  0xd1,
  0xa3,
  0x07,
  0xad,
  0xed,
  0x2a,
  0x6c,
  0xb4,
  0x4b,
  0xc3,
  0xe5,
  0xa3,
  0xc8,
  0xe8,
  0x7a,
  0x9e,
  0x8d,
  0x2d,
  0x5c,
  0xa1,
  0xb1,
  0x69,
  0x54,
  0x4d,
  0xff,
  0x01,
  0xb3,
  0x13,
  0xf5,
  0xc2,
  0xea,
  0xb9,
  0x51,
  0xe2,
  0x9d,
  0xa9,
  0x45,
  0xfb,
  0xea,
  0x2e,
  0xdb,
  0x5a,
  0x95,
  0x87,
  0xdc,
  0xaa,
  0x78,
  0x83,
  0x8b,
  0x4e,
  0x58,
  0x8b,
  0x2a,
  0x23,
  0x04,
  0x40,
  0x9e,
  0x09,
  0x4c,
  0xac,
  0x2a,
  0xbd,
  0x15,
  0x46,
  0xae,
  0x5d,
  0x62,
  0x56,
  0x32,
  0x04,
  0x15,
  0xd1,
  0x24,
  0xac,
  0x6a,
  0x58,
  0x27,
  0x55,
  0x87,
  0x7d,
  0x76,
  0xb1,
  0xa3,
  0x74,
  0xd4,
  0xd4,
  0xfb,
  0xb6,
  0x60,
  0x06,
  0xf8,
  0x5f,
  0x00,
  0x43,
  0x4c,
  0xdc,
  0xe8,
  0x8a,
  0x93,
  0xde,
  0xc4,
  0x6b,
  0x2a,
  0x19,
  0x4d,
  0x4e,
  0xb2,
  0xeb,
  0x7d,
  0x13,
  0x3f,
  0xdd,
  0x5e,
  0x80,
  0x95,
  0x22,
  0x15,
  0x93,
  0xc3,
  0xf5,
  0x32,
  0x04,
  0x48,
  0xd2,
  0xe5,
  0xbb,
  0x27,
  0xf1,
  0xdc,
  0x7d,
  0x24,
  0x5d,
  0x1f,
  0xbc,
  0xce,
  0xc2,
  0xd8,
  0x72,
  0x1f,
  0x88,
  0x8c,
  0x05,
  0x1c,
  0xaf,
  0x8c,
  0x22,
  0xfc,
  0x05,
  0x73,
  0x32,
  0xd9,
  0x8b,
  0x5c,
  0x07,
  0xbd,
  0xc0,
  0x4d,
  0xde,
  0x70,
  0x2f,
  0x53,
  0x9b,
  0xf6,
  0xf9,
  0x45,
  0xaa,
  0xd9,
  0x1f,
  0x28,
  0x59,
  0x0e,
  0x37,
  0xe0,
  0xcd,
  0x91,
  0xa8,
  0xa7,
  0x77,
  0x1c,
  0xdb,
  0x48,
  0x27,
  0x4b,
  0x2e,
  0xca,
  0x08,
  0x01,
  0x65,
  0xe2,
  0x50,
  0xde,
  0xee,
  0xfb,
  0x95,
  0xf9,
  0x9e,
  0x6d,
  0xb5,
  0x11,
  0x5a,
  0xd4,
  0xe1,
  0xc2,
  0x71,
  0x2d,
  0xa0,
  0x9b,
  0x19,
  0x9a,
  0x57,
  0x19,
  0xbc,
  0xcf,
  0xdb,
  0x9c,
  0xbe,
  0xbd,
  0x0a,
  0x68,
  0xfb,
  0xef,
  0x76,
  0xf8,
  0xfd,
  0x91,
  0x8a,
  0xdc,
  0xe6,
  0x1c,
  0x68,
  0x63,
  0x88,
  0xfe,
  0x40,
  0xe3,
  0x9c,
  0xe2,
  0x11,
  0xd2,
  0x2e,
  0xbf,
  0x2b,
  0xec,
  0x86,
  0xe9,
  0x89,
  0xc0,
  0xe0,
  0xd5,
  0x0d,
  0x6e,
  0x3a,
  0xb7,
  0x31,
  0xa3,
  0x07,
  0xad,
  0xef,
  0x2a,
  0x6c,
  0x64,
  0x4b,
  0xc3,
  0xe5,
  0xa8,
  0xc8,
  0xe8,
  0xea,
  0x9e,
  0x8d,
  0x2d,
  0x56,
  0xa1,
  0xb1,
  0x69,
  0x54,
  0x4d,
  0xff,
  0xf4,
  0x34,
  0x0a,
  0x07,
  0xce,
  0xea,
  0xb9,
  0x11,
  0xe2,
  0x9d,
  0xa9,
  0x4e,
  0xfb,
  0xea,
  0xbe,
  0xdb,
  0x5a,
  0x95,
  0x80,
  0xdc,
  0xaa,
  0x08,
  0x83,
  0x8b,
  0x4e,
  0x53,
  0x8b,
  0x2a,
  0x03,
  0x04,
  0x40,
  0x9e,
  0x60,
  0x10,
  0x18,
  0x07,
  0xb1,
  0x15,
  0x46,
  0xee,
  0x5d,
  0x62,
  0x56,
  0x31,
  0x04,
  0x15,
  0x41,
  0x24,
  0xac,
  0x6a,
  0x57,
  0x27,
  0x55,
  0xf7,
  0x7d,
  0x76,
  0xb1,
  0xac,
  0x74,
  0xd4,
  0xd4,
  0xfb,
  0xb6,
  0x60,
  0x9f,
  0xef,
  0xf7,
  0x08,
  0x5c,
  0x2f,
  0x43,
  0x0d,
  0x23,
  0x47,
  0xcb,
  0x57,
  0x66,
  0x3d,
  0x05,
  0x6c,
  0xb1,
  0x1d,
  0x78,
  0xb6,
  0x59,
  0x83,
  0xd0,
  0x1f,
  0x61,
  0x6f,
  0x77,
  0x3e,
  0x16,
  0x6f,
  0x29,
  0x71,
  0xec,
  0x42,
  0x75,
  0x07,
  0xbd,
  0xc8,
  0x75,
  0x97,
  0xc7,
  0xbc,
  0x1a,
  0x56,
  0x39,
  0x82,
  0xd5,
  0xfc,
  0x0f,
  0xc7,
  0x81,
  0x25,
  0x51,
  0xb1,
  0x5d,
  0x86,
  0x5f,
  0x8a,
  0xea,
  0xf0,
  0x51,
  0x86,
  0x95,
  0x5b,
  0xac,
  0xf6,
  0xe0,
  0x00,
  0xe4,
  0xa2,
  0x8c,
  0xb6,
  0x09,
  0x14,
  0x9d,
  0xf7,
  0xc2,
  0xf0,
  0xc5,
  0x42,
  0x1b,
  0x2a,
  0x5a,
  0xd0,
  0x50,
  0x71,
  0x48,
  0xdc,
  0xc0,
  0x93,
  0x61,
  0x94,
  0x7b,
  0x54,
  0xe4,
  0x40,
  0x6a,
  0x05,
  0xe7,
  0x0e,
  0xe9,
  0xdb,
  0xab,
  0x1c,
  0x46,
  0x0d,
  0x2a,
  0xd5,
  0xb4,
  0xe2,
  0x5b,
  0x81,
  0x8c,
  0xe2,
  0xb8,
  0x90,
  0xdf,
  0xe4,
  0xb8,
  0x01,
  0x77,
  0x3e,
  0xad,
  0x85,
  0xa0,
  0x92,
  0xf6,
  0xac,
  0x0a,
  0x29,
  0xde,
  0x08,
  0x0c,
  0x5e,
  0xdd,
  0xfb,
  0x09,
  0x47,
  0xc1,
  0xa0,
  0xf6,
  0xe0,
  0x48,
  0x22,
  0xe6,
  0xf9,
  0x72,
  0xd8,
  0x87,
  0x76,
  0xfd,
  0x03,
  0x62,
  0xa5,
  0xb5,
  0x79,
  0x8c,
  0x1c,
  0x22,
  0x97,
  0x1f,
  0x5b,
  0x14,
  0x01,
  0x4f,
  0xa3,
  0x70,
  0x2b,
  0xd9,
  0x69,
  0x2f,
  0x40,
  0x0c,
  0xe6,
  0x3f,
  0x47,
  0x79,
  0x13,
  0xaa,
  0xc2,
  0x1d,
  0xc5,
  0x2f,
  0xf3,
  0x56,
  0x0c,
  0xeb,
  0x9a,
  0x0c,
  0x6c,
  0xed,
  0x75,
  0xfb,
  0x36,
  0x45,
  0x01,
  0x06,
  0x81,
  0x71,
  0x4b,
  0x59,
  0xce,
