#define STIM_W_SIZE 2048
// weights [64 x 1 x 8 x 4]
L2_DATA uint8_t ne16_weights_streamin[] = {
  0x59,
  0x40,
  0x6f,
  0x1e,
  0x56,
  0x4c,
  0xe3,
  0x96,
  0x68,
  0x00,
  0x50,
  0xe1,
  0xb0,
  0x95,
  0x7d,
  0x0f,
  0xfa,
  0xba,
  0xd2,
  0x4b,
  0xdd,
  0xd7,
  0xf9,
  0x86,
  0xa7,
  0x72,
  0x32,
  0xc3,
  0x9c,
  0xbe,
  0x43,
  0xb5,
  0x03,
  0x6f,
  0xec,
  0x17,
  0xec,
  0x1f,
  0x46,
  0x96,
  0x29,
  0x8c,
  0xdf,
  0x3c,
  0xff,
  0x9d,
  0x4e,
  0x4b,
  0xb9,
  0x0a,
  0x7b,
  0xa5,
  0x28,
  0x0d,
  0xf4,
  0x78,
  0x73,
  0x45,
  0xe1,
  0xad,
  0xae,
  0x58,
  0xdf,
  0x2d,
  0xb4,
  0xf6,
  0xf0,
  0xe3,
  0xc8,
  0x40,
  0x06,
  0xf0,
  0xcd,
  0x71,
  0x0e,
  0xc3,
  0x56,
  0xaf,
  0x40,
  0x96,
  0xb7,
  0xba,
  0xc7,
  0xa5,
  0x39,
  0xe7,
  0x23,
  0xda,
  0xf2,
  0x7f,
  0x08,
  0xd6,
  0xfa,
  0xb4,
  0x3e,
  0x87,
  0xa5,
  0x68,
  0xa8,
  0x5a,
  0x2e,
  0xed,
  0x86,
  0xe1,
  0x6d,
  0x6a,
  0x46,
  0xd8,
  0x3b,
  0x60,
  0x9e,
  0xf0,
  0x76,
  0x95,
  0x7e,
  0xb4,
  0xa6,
  0xcb,
  0x31,
  0xd2,
  0x46,
  0x67,
  0x0e,
  0xa5,
  0x50,
  0x5f,
  0x6f,
  0xd2,
  0x53,
  0x7c,
  0x6d,
  0x8f,
  0x07,
  0x1d,
  0xd8,
  0xc3,
  0x05,
  0xd8,
  0x3d,
  0xa7,
  0x2c,
  0x8e,
  0xb9,
  0x1e,
  0x10,
  0x60,
  0x7e,
  0x1c,
  0x5e,
  0x61,
  0x58,
  0xb4,
  0x81,
  0xb1,
  0x26,
  0xd2,
  0xb0,
  0x48,
  0xc2,
  0x1e,
  0x08,
  0x0c,
  0xd2,
  0x2d,
  0x3e,
  0xf8,
  0x92,
  0xf0,
  0xfa,
  0x6c,
  0x31,
  0x0f,
  0xec,
  0x7b,
  0x06,
  0xa5,
  0xea,
  0xb3,
  0xeb,
  0xc3,
  0x4c,
  0xb0,
  0x06,
  0xb4,
  0x0a,
  0x03,
  0x29,
  0x69,
  0x86,
  0x1e,
  0x14,
  0xa4,
  0xde,
  0x39,
  0x75,
  0xa5,
  0x6a,
  0x98,
  0x8e,
  0x3c,
  0x6a,
  0x43,
  0xf9,
  0x0f,
  0x46,
  0x39,
  0xf1,
  0xa5,
  0x1e,
  0x4f,
  0xc6,
  0x78,
  0x18,
  0x67,
  0x4b,
  0xf0,
  0x96,
  0x8f,
  0xac,
  0x5a,
  0xc3,
  0x9e,
  0x93,
  0x4b,
  0xfe,
  0xed,
  0x44,
  0xb4,
  0xff,
  0x7b,
  0x12,
  0xe4,
  0xe1,
  0x6e,
  0xe2,
  0x1e,
  0xe2,
  0x16,
  0xaf,
  0xd2,
  0x22,
  0x8f,
  0x86,
  0x3c,
  0x43,
  0xa5,
  0xc4,
  0x7a,
  0x87,
  0xe2,
  0xa1,
  0xd2,
  0x8f,
  0x48,
  0xdd,
  0x2b,
  0x47,
  0x67,
  0x34,
  0xcb,
  0xa9,
  0x67,
  0xdc,
  0x2d,
  0x97,
  0xf8,
  0x43,
  0xa5,
  0xa3,
  0xfe,
  0x25,
  0xe1,
  0xd1,
  0x98,
  0x12,
  0xd2,
  0x3f,
  0x2a,
  0x4a,
  0x1e,
  0xad,
  0x94,
  0x36,
  0x69,
  0x87,
  0xf0,
  0x49,
  0xb4,
  0xad,
  0x29,
  0xdb,
  0x69,
  0x8f,
  0x90,
  0xdd,
  0x3c,
  0x43,
  0x10,
  0x78,
  0xf0,
  0x23,
  0x52,
  0xe7,
  0x92,
  0x63,
  0x2f,
  0x10,
  0xca,
  0xb9,
  0x6f,
  0x9c,
  0x2d,
  0xe7,
  0xd2,
  0x86,
  0x16,
  0x24,
  0x51,
  0xb1,
  0x87,
  0x4e,
  0x14,
  0xf2,
  0x4b,
  0xa2,
  0x31,
  0xe6,
  0x1e,
  0x46,
  0xb7,
  0x08,
  0xb4,
  0xe3,
  0xbb,
  0x1b,
  0x4b,
  0xf3,
  0x45,
  0x16,
  0xb0,
  0x89,
  0x10,
  0x15,
  0xf0,
  0x89,
  0xf6,
  0x7a,
  0x0f,
  0x6a,
  0x7d,
  0x04,
  0xf0,
  0xa7,
  0x51,
  0x44,
  0xa5,
  0xe9,
  0x65,
  0x73,
  0x96,
  0x6c,
  0x3e,
  0xba,
  0x1e,
  0x9e,
  0x3f,
  0x53,
  0x0f,
  0x7b,
  0xd5,
  0x18,
  0xf2,
  0xb9,
  0xac,
  0xa8,
  0x43,
  0x23,
  0xee,
  0x98,
  0x78,
  0x44,
  0x34,
  0xa8,
  0x78,
  0x75,
  0x94,
  0x8d,
  0x63,
  0x07,
  0xc9,
  0x07,
  0x78,
  0xc2,
  0x6f,
  0xf2,
  0x4b,
  0x3f,
  0xc5,
  0xa6,
  0x58,
  0xb3,
  0x67,
  0x34,
  0xd2,
  0x89,
  0x84,
  0x7e,
  0xa5,
  0xba,
  0xb8,
  0x39,
  0x69,
  0x12,
  0x8e,
  0xb6,
  0xd2,
  0xee,
  0x1f,
  0x87,
  0xe1,
  0x9b,
  0x76,
  0xf7,
  0x0b,
  0x11,
  0x2b,
  0x3e,
  0x94,
  0x5f,
  0x4b,
  0x9a,
  0x78,
  0xce,
  0x67,
  0xd3,
  0x69,
  0x1b,
  0x45,
  0x51,
  0xa5,
  0x7b,
  0x2f,
  0xfe,
  0x1c,
  0x17,
  0xcc,
  0xd3,
  0x5a,
  0xff,
  0xb7,
  0xca,
  0x1e,
  0xe4,
  0x9f,
  0xec,
  0x78,
  0x73,
  0x3d,
  0xe3,
  0x1e,
  0x1b,
  0x95,
  0x83,
  0xf0,
  0x07,
  0x40,
  0x17,
  0xe5,
  0x7e,
  0x8b,
  0xbc,
  0x4b,
  0x7e,
  0xcd,
  0xea,
  0x94,
  0x42,
  0x16,
  0xa0,
  0x5a,
  0xcf,
  0xcf,
  0xff,
  0x2d,
  0x78,
  0xfe,
  0xed,
  0x3c,
  0x7b,
  0x28,
  0x3f,
  0x0f,
  0x62,
  0xa8,
  0xe3,
  0x4b,
  0x1a,
  0xf4,
  0xf4,
  0xa5,
  0x1a,
  0x59,
  0x70,
  0xe1,
  0xe0,
  0xe4,
  0x8f,
  0x70,
  0x62,
  0x3f,
  0x90,
  0x69,
  0x79,
  0xa9,
  0x2d,
  0x0d,
  0x6f,
  0x87,
  0x91,
  0x69,
  0x6a,
  0x2f,
  0x5c,
  0x3c,
  0x88,
  0x00,
  0xeb,
  0xc1,
  0x1b,
  0x17,
  0x3f,
  0xc3,
  0x35,
  0xfa,
  0xa6,
  0x96,
  0x02,
  0x80,
  0xea,
  0x1e,
  0xae,
  0x5d,
  0x41,
  0x96,
  0xea,
  0xe6,
  0xdb,
  0x0e,
  0xdb,
  0x01,
  0x27,
  0x9e,
  0x3b,
  0xe1,
  0x54,
  0x96,
  0x35,
  0x55,
  0xca,
  0x1e,
  0x61,
  0x79,
  0xe4,
  0x1e,
  0xf8,
  0xdf,
  0x39,
  0x69,
  0xc3,
  0xb8,
  0xb9,
  0x4b,
  0xbc,
  0xd9,
  0x13,
  0x69,
  0xb9,
  0xc0,
  0xdd,
  0x2d,
  0xe1,
  0x85,
  0xad,
  0x4b,
  0x26,
  0x8a,
  0x69,
  0x0f,
  0x79,
  0xc0,
  0x7b,
  0x83,
  0xe4,
  0x28,
  0xc5,
  0x5b,
  0x4e,
  0x3d,
  0xf2,
  0x0f,
  0x5d,
  0x53,
  0x31,
  0x97,
  0x9c,
  0x41,
  0x6c,
  0xbc,
  0xc9,
  0x87,
  0x3e,
  0xc2,
  0x02,
  0x15,
  0x80,
  0x69,
  0xe2,
  0xee,
  0xbc,
  0xe0,
  0xd3,
  0x07,
  0xe8,
  0x1e,
  0x94,
  0x52,
  0x7b,
  0x87,
  0x0c,
  0x8b,
  0x47,
  0x2d,
  0x8c,
  0xad,
  0x90,
  0x69,
  0x6a,
  0x5a,
  0xb1,
  0x4b,
  0xf1,
  0x43,
  0x71,
  0x78,
  0xb4,
  0xb7,
  0xfd,
  0x2d,
  0x71,
  0xbd,
  0x87,
  0x3c,
  0x82,
  0x39,
  0x63,
  0x96,
  0x5b,
  0x11,
  0xff,
  0x4b,
  0x76,
  0xf2,
  0x13,
  0xe5,
  0x94,
  0x8a,
  0x48,
  0x5a,
  0x35,
  0xca,
  0xe8,
  0x1f,
  0x11,
  0xdb,
  0x25,
  0x5a,
  0x6a,
  0xc7,
  0x2f,
  0xd0,
  0xa9,
  0x3c,
  0x0d,
  0xf0,
  0x4c,
  0x57,
  0x04,
  0xc3,
  0xcb,
  0x9d,
  0x0b,
  0x78,
  0x94,
  0x23,
  0x22,
  0xda,
  0x6e,
  0x18,
  0xb2,
  0x78,
  0xa3,
  0xdd,
  0xb7,
  0x87,
  0x9c,
  0xb0,
  0x00,
  0xf2,
  0x61,
  0xc8,
  0x4c,
  0x69,
  0x4c,
  0xd8,
  0x3e,
  0x1e,
  0x5d,
  0xff,
  0xc5,
  0x25,
  0x59,
  0xf0,
  0x96,
  0xf0,
  0xff,
  0xf5,
  0xa5,
  0xe1,
  0xc1,
  0x5e,
  0xa1,
  0x78,
  0xe0,
  0xe3,
  0x8a,
  0xd2,
  0xd0,
  0xa3,
  0x9e,
  0x1e,
  0x51,
  0x9e,
  0x8e,
  0x5f,
  0x50,
  0x16,
  0xe4,
  0x3c,
  0xa4,
  0x1d,
  0x78,
  0xf0,
  0x5e,
  0x60,
  0x35,
  0xa5,
  0x03,
  0x34,
  0x31,
  0xe5,
  0x17,
  0x4f,
  0x94,
  0x69,
  0xfc,
  0xf6,
  0xc5,
  0x3e,
  0x0f,
  0x48,
  0x50,
  0x2d,
  0x56,
  0x90,
  0xd7,
  0x87,
  0x81,
  0xb4,
  0xeb,
  0x1f,
  0x1e,
  0x2c,
  0x65,
  0xa5,
  0xb9,
  0x5b,
  0xc8,
  0x78,
  0x06,
  0xdc,
  0xb0,
  0x1e,
  0x4e,
  0x37,
  0x95,
  0x69,
  0xb0,
  0x8c,
  0x9f,
  0x2d,
  0xfd,
  0xab,
  0x06,
  0xe1,
  0x1b,
  0xd4,
  0x65,
  0x1e,
  0x25,
  0x44,
  0xf8,
  0xb4,
  0x1e,
  0x0b,
  0xf0,
  0x2d,
  0x4b,
  0x55,
  0x8b,
  0x69,
  0x44,
  0xbe,
  0x86,
  0x78,
  0xd4,
  0x8b,
  0x6f,
  0x96,
  0x38,
  0xb7,
  0xe6,
  0x1a,
  0xc4,
  0xc7,
  0x8b,
  0x4b,
  0x7c,
  0x31,
  0x6f,
  0x96,
  0x39,
  0xa1,
  0xce,
  0x0f,
  0x96,
  0xe1,
  0x8c,
  0x5a,
  0xe5,
  0x34,
  0xdb,
  0x68,
  0x4e,
  0x2d,
  0x6b,
  0x96,
  0x03,
  0x3d,
  0xcc,
  0x3c,
  0x56,
  0x23,
  0x1c,
  0x87,
  0x0e,
  0x39,
  0x82,
  0x78,
  0x5b,
  0x23,
  0x33,
  0x6d,
  0xdd,
  0xcd,
  0xd8,
  0x69,
  0x29,
  0x22,
  0x58,
  0xe1,
  0x41,
  0x58,
  0xb2,
  0x4b,
  0x86,
  0x4a,
  0xf9,
  0xc3,
  0x8c,
  0x9a,
  0x7b,
  0x1e,
  0x89,
  0x4f,
  0x55,
  0xb0,
  0x80,
  0xd7,
  0xd3,
  0x69,
  0xd1,
  0x83,
  0x37,
  0xc7,
  0x6f,
  0x7a,
  0x45,
  0xb4,
  0x10,
  0xf9,
  0x28,
  0xd2,
  0xee,
  0xdb,
  0x70,
  0x87,
  0x59,
  0x7d,
  0x76,
  0x83,
  0x52,
  0x67,
  0xdd,
  0xe1,
  0x22,
  0x71,
  0x9f,
  0xa4,
  0x69,
  0xa3,
  0x92,
  0xc7,
  0x59,
  0x4f,
  0x2f,
  0xd2,
  0xf7,
  0xf7,
  0x6a,
  0x96,
  0xac,
  0x7f,
  0x23,
  0xd2,
  0x2c,
  0x08,
  0xe4,
  0xb4,
  0x42,
  0x70,
  0xef,
  0x0f,
  0x0d,
  0x03,
  0x57,
  0x30,
  0x7b,
  0x7b,
  0x12,
  0xe1,
  0xab,
  0xa5,
  0x6d,
  0x5a,
  0x6d,
  0xf6,
  0x50,
  0xa5,
  0x4d,
  0x7b,
  0x81,
  0x69,
  0x23,
  0x06,
  0x1f,
  0xa5,
  0x05,
  0x88,
  0xdf,
  0x2d,
  0xc4,
  0x36,
  0xe9,
  0x0f,
  0x67,
  0xb3,
  0x23,
  0xd2,
  0x02,
  0xaa,
  0x48,
  0xe1,
  0x0b,
  0xff,
  0x4d,
  0x3c,
  0xd9,
  0xff,
  0xaa,
  0x5e,
  0x70,
  0x20,
  0x7b,
  0xad,
  0x93,
  0xda,
  0xff,
  0xa5,
  0x4d,
  0x7a,
  0x1f,
  0xd2,
  0x69,
  0x54,
  0x13,
  0xad,
  0x5d,
  0x08,
  0x1a,
  0xe1,
  0x64,
  0x04,
  0x06,
  0xf0,
  0x3e,
  0x6c,
  0x00,
  0xd2,
  0x59,
  0xed,
  0xb9,
  0x69,
  0x80,
  0xff,
  0xdc,
  0x2d,
  0x60,
  0x52,
  0xee,
  0x9f,
  0x24,
  0xec,
  0xe5,
  0x1a,
  0x5d,
  0xc1,
  0x01,
  0xc3,
  0xba,
  0x7a,
  0x72,
  0xc3,
  0x1e,
  0xe8,
  0x80,
  0xb5,
  0xab,
  0xcd,
  0xd6,
  0xa5,
  0xfe,
  0xed,
  0xb9,
  0x4b,
  0x70,
  0x6d,
  0x91,
  0x5a,
  0xcf,
  0x29,
  0x53,
  0x4b,
  0x49,
  0x9e,
  0xa9,
  0x49,
  0xcf,
  0xed,
  0xdd,
  0x2d,
  0x17,
  0x3f,
  0x09,
  0x4b,
  0xf1,
  0x85,
  0x22,
  0xc3,
  0xba,
  0x4c,
  0x14,
  0xa5,
  0x2e,
  0xdb,
  0x5b,
  0xa5,
  0x9e,
  0x0d,
  0x2c,
  0xd0,
  0xf8,
  0x07,
  0x04,
  0xf1,
  0xd4,
  0xba,
  0x73,
  0x0f,
  0xd9,
  0x6e,
  0xb4,
  0xc3,
  0x28,
  0x09,
  0x76,
  0x0f,
  0xea,
  0x81,
  0xc4,
  0x3e,
  0x4a,
  0x42,
  0x70,
  0xbc,
  0x1e,
  0xbc,
  0x1e,
  0xe1,
  0xd1,
  0x96,
  0xfe,
  0x1e,
  0x5b,
  0xa7,
  0x5f,
  0x2d,
  0xd7,
  0x1a,
  0xf7,
  0xa5,
  0x9f,
  0x5c,
  0x15,
  0xe1,
  0xb3,
  0x85,
  0xc3,
  0x69,
  0x4b,
  0x02,
  0x63,
  0x96,
  0x93,
  0xa9,
  0xa2,
  0xd2,
  0x7c,
  0x72,
  0xf0,
  0x87,
  0x83,
  0xb0,
  0x36,
  0x87,
  0x82,
  0x0a,
  0x42,
  0x3c,
  0x12,
  0x58,
  0x19,
  0x2d,
  0x3d,
  0x04,
  0x0e,
  0x79,
  0x6c,
  0x56,
  0x32,
  0xc3,
  0xf6,
  0xe9,
  0x1a,
  0xe1,
  0x62,
  0xc5,
  0xdc,
  0x7a,
  0x5d,
  0x19,
  0x95,
  0x69,
  0x05,
  0x14,
  0x94,
  0x3c,
  0x45,
  0xc4,
  0x5e,
  0xa5,
  0x47,
  0xaa,
  0xdc,
  0x0f,
  0xbb,
  0x10,
  0x4c,
  0x2d,
  0xf4,
  0xfa,
  0x5e,
  0xa5,
  0x70,
  0xdf,
  0x17,
  0xc2,
  0x9b,
  0x08,
  0x33,
  0x8f,
  0xa8,
  0xf7,
  0x47,
  0x87,
  0x16,
  0x87,
  0xcb,
  0xb4,
  0x14,
  0x48,
  0xb0,
  0x4b,
  0xd2,
  0x68,
  0x51,
  0xa5,
  0x97,
  0x37,
  0xb1,
  0x4f,
  0xde,
  0x2c,
  0x9d,
  0xe1,
  0x28,
  0x22,
  0xb6,
  0xd2,
  0xaa,
  0xb5,
  0xd7,
  0x2d,
  0x45,
  0x55,
  0x78,
  0xa7,
  0x42,
  0x6a,
  0x38,
  0xd2,
  0x5d,
  0xf7,
  0xce,
  0x69,
  0x2d,
  0x7f,
  0xd6,
  0x87,
  0x08,
  0xbc,
  0x53,
  0xa5,
  0x86,
  0x2d,
  0x9f,
  0x3c,
  0x0c,
  0x08,
  0x41,
  0xb1,
  0xe3,
  0xbe,
  0x77,
  0x86,
  0x5e,
  0x29,
  0xe6,
  0xb1,
  0x76,
  0x19,
  0xec,
  0x78,
  0x3c,
  0xb2,
  0x04,
  0x78,
  0x03,
  0x69,
  0x02,
  0xf8,
  0xd0,
  0xd9,
  0x03,
  0xe1,
  0x3a,
  0x69,
  0x91,
  0x0f,
  0xcc,
  0xe3,
  0xe4,
  0x3d,
  0x50,
  0xe7,
  0x89,
  0x69,
  0xf0,
  0x92,
  0xaa,
  0x5a,
  0xb0,
  0x8a,
  0xee,
  0x16,
  0xba,
  0xb7,
  0x76,
  0xa5,
  0xbd,
  0x57,
  0xbf,
  0x4b,
  0x6d,
  0xd0,
  0x9c,
  0x1e,
  0x9e,
  0x2f,
  0x7a,
  0x86,
  0x4e,
  0x94,
  0xb9,
  0x68,
  0x2a,
  0xaa,
  0x58,
  0x5a,
  0x21,
  0x77,
  0x63,
  0x96,
  0xde,
  0x72,
  0x3f,
  0x0f,
  0xe2,
  0xd4,
  0x1b,
  0xe1,
  0x71,
  0xe3,
  0x5b,
  0x87,
  0xcb,
  0xca,
  0x0e,
  0xd2,
  0x62,
  0x8b,
  0x48,
  0xe1,
  0xec,
  0x16,
  0x16,
  0x78,
  0x60,
  0x84,
  0xe7,
  0x1e,
  0x06,
  0xc0,
  0xaa,
  0x58,
  0x33,
  0x49,
  0x0f,
  0xb4,
  0xfe,
  0x5f,
  0x68,
  0x78,
  0xa7,
  0x1e,
  0x1c,
  0x87,
  0x21,
  0x26,
  0x7d,
  0xa5,
  0xc0,
  0xd2,
  0xf6,
  0x2d,
  0x7a,
  0xbd,
  0xde,
  0x1e,
  0x84,
  0xdd,
  0x4f,
  0x87,
  0xa3,
  0xfe,
  0xb8,
  0x4b,
  0x0d,
  0x2a,
  0xd6,
  0x69,
  0x5c,
  0xc7,
  0x9c,
  0xf0,
  0x91,
  0x2b,
  0x8c,
  0xf0,
  0x46,
  0x59,
  0x07,
  0x5a,
  0xf6,
  0xa0,
  0x82,
  0xf1,
  0xdb,
  0x28,
  0x96,
  0xe1,
  0x37,
  0x85,
  0x3c,
  0xd2,
  0x54,
  0x2e,
  0xd8,
  0x69,
  0xe0,
  0x1a,
  0x61,
  0xf0,
  0xda,
  0x6e,
  0xb1,
  0xc3,
  0x0f,
  0x4a,
  0xdd,
  0x29,
  0x91,
  0x58,
  0x1b,
  0xe1,
  0xf7,
  0xfb,
  0x3a,
  0x4b,
  0xda,
  0x63,
  0xd8,
  0x87,
  0x39,
  0x73,
  0xec,
  0xb4,
  0x6a,
  0x58,
  0x8e,
  0xb4,
  0xca,
  0xf5,
  0x5e,
  0xc3,
  0x17,
  0x0b,
  0x64,
  0x96,
  0x48,
  0x9e,
  0xd1,
  0x69,
  0xa6,
  0x97,
  0x08,
  0xf3,
  0xb6,
  0x5f,
  0xc2,
  0x25,
  0x69,
  0x38,
  0xee,
  0x96,
  0xd5,
  0x18,
  0xc4,
  0x3c,
  0xee,
  0xa3,
  0xa6,
  0xd0,
  0x68,
  0xf7,
  0xbf,
  0x4b,
  0x68,
  0x9e,
  0xfe,
  0x0d,
  0x7f,
  0xac,
  0x69,
  0xc3,
  0xba,
  0x32,
  0x8e,
  0x87,
  0x9a,
  0x94,
  0x49,
  0x92,
  0x0b,
  0xc3,
  0x6a,
  0x96,
  0xbc,
  0x23,
  0x5f,
  0x83,
  0xfc,
  0x9f,
  0x5f,
  0x0f,
  0xe8,
  0xb4,
  0x1a,
  0xe1,
  0x65,
  0x91,
  0x61,
  0xd2,
  0x28,
  0xbb,
  0xef,
  0x3c,
  0x54,
  0xbe,
  0x68,
  0x96,
  0xda,
  0x20,
  0xd7,
  0xd2,
  0xe8,
  0x9c,
  0x48,
  0x79,
  0xf8,
  0x16,
  0xa4,
  0xd2,
  0x28,
  0x78,
  0x02,
  0xf8,
  0x83,
  0x68,
  0xff,
  0x0d,
  0x50,
  0x6c,
  0xb2,
  0x5a,
  0x98,
  0x46,
  0xcc,
  0xb0,
  0xa8,
  0x7d,
  0x3e,
  0x87,
  0x2a,
  0xd2,
  0x9f,
  0xe1,
  0x66,
  0x74,
  0xa3,
  0xf0,
  0x64,
  0x4c,
  0x09,
  0xf2,
  0x64,
  0x8d,
  0xb1,
  0x0f,
  0xfb,
  0xca,
  0xbc,
  0x70,
  0xb0,
  0x28,
  0x50,
  0xa5,
  0xd5,
  0xc6,
  0x61,
  0xb4,
  0xc8,
  0xc8,
  0x4a,
  0x3c,
  0x5a,
  0xb2,
  0x27,
  0xc3,
  0xd0,
  0xc0,
  0x33,
  0xe1,
  0x37,
  0x08,
  0xa0,
  0x1d,
  0x23,
  0xa7,
  0x3a,
  0xd2,
  0x6a,
  0xe3,
  0x89,
  0x0f,
  0x93,
  0x84,
  0xaa,
  0x5a,
  0x97,
  0x8f,
  0xae,
  0x1e,
  0x88,
  0x21,
  0x1c,
  0x0f,
  0xd9,
  0x63,
  0xf2,
  0x87,
  0xf3,
  0xba,
  0xc8,
  0x1e,
  0xce,
  0x58,
  0x9a,
  0x69,
  0x7f,
  0xc4,
  0xda,
  0x3c,
  0x9e,
  0xa5,
  0xbc,
  0x87,
  0x3c,
  0x04,
  0xbb,
  0x4b,
  0xb6,
  0x68,
  0x4d,
  0x87,
  0x58,
  0x44,
  0xf8,
  0x38,
  0xe5,
  0x3d,
  0x05,
  0xe1,
  0x15,
  0x9b,
  0xc6,
  0x1e,
  0xc8,
  0x9a,
  0xea,
  0x5a,
  0x6e,
  0xf9,
  0xd2,
  0xa5,
  0x2b,
  0x42,
  0x0c,
  0xa5,
  0x6c,
  0x4b,
  0x50,
  0xa2,
  0xcd,
  0xb3,
  0x8f,
  0xd3,
  0xbd,
  0xc4,
  0x98,
  0x2d,
  0xcc,
  0x2e,
  0xd1,
  0x2d,
  0x0c,
  0x8d,
  0xb1,
  0x69,
  0xdc,
  0x94,
  0xa2,
  0x96,
  0x09,
  0x3b,
  0x11,
  0xe5,
  0x47,
  0x9b,
  0x0e,
  0x1e,
  0xc1,
  0x1d,
  0xe0,
  0xf0,
  0xc0,
  0xc1,
  0x56,
  0x1e,
  0x90,
  0xba,
  0x16,
  0xa5,
  0x0d,
  0x0d,
  0xe8,
  0x34,
  0x0f,
  0xb3,
  0x28,
  0xf0,
  0x04,
  0xe6,
  0x35,
  0xe1,
  0x44,
  0x4e,
  0xaf,
  0x78,
  0x44,
  0xb1,
  0xea,
  0x4e,
  0xfd,
  0x48,
  0x27,
  0xad,
  0x17,
  0x27,
  0x1f,
  0x69,
  0x25,
  0x29,
  0x69,
  0xd2,
  0x1d,
  0x23,
  0xee,
  0x3c,
  0x54,
  0x23,
  0x14,
  0xd6,
  0x4f,
  0x69,
  0xe8,
  0x78,
  0xa7,
  0x0d,
  0x38,
  0xc3,
  0x08,
  0xf2,
  0x7f,
  0x85,
  0xbd,
  0x7d,
  0x7d,
  0x85,
  0xb6,
  0x0e,
  0xc8,
  0x1a,
  0x49,
  0xd5,
  0x7e,
  0x0f,
  0xb7,
  0x00,
  0xec,
  0xb4,
  0x45,
  0x1a,
  0x3b,
  0xc3,
  0xb4,
  0x05,
  0x1f,
  0x3c,
  0x5c,
  0xd2,
  0x0d,
  0xe1,
  0x3a,
  0xf2,
  0x6b,
  0x5a,
  0x77,
  0x3b,
  0x64,
  0x96,
  0xf2,
  0x01,
  0xa6,
  0x5a,
  0x4e,
  0x24,
  0x3e,
  0xf0,
  0xbb,
  0xda,
  0x22,
  0x96,
  0x84,
  0xd2,
  0x2c,
  0x38,
  0x7f,
  0x4f,
  0x60,
  0x0f,
  0x42,
  0xdf,
  0xd6,
  0xe1,
  0x8c,
  0x9e,
  0xc1,
  0x2d,
  0x65,
  0x38,
  0x2c,
  0x78,
  0x84,
  0x77,
  0x5e,
  0x96,
  0xb7,
  0x49,
  0xb2,
  0x58,
  0x7d,
  0x5c,
  0xa7,
  0x96,
  0x42,
  0x76,
  0x2d,
  0x0f,
  0xc4,
  0x91,
  0x1e,
  0x2d,
  0xca,
  0x4c,
  0x14,
  0xe1,
  0x75,
  0x36,
  0x28,
  0xd2,
  0xae,
  0xfe,
  0x15,
  0xa5,
  0x60,
  0x29,
  0x1e,
  0xe5,
  0xe8,
  0xd9,
  0x35,
  0xc3,
  0x15,
  0xa1,
  0xe1,
  0x96,
  0x23,
  0x86,
  0xfd,
  0x07,
  0xa4,
  0x7d,
  0xb1,
  0xd2,
  0x31,
  0x5a,
  0x27,
  0x9e,
  0xd0,
  0x3d,
  0x7e,
  0x87,
  0x7d,
  0x7b,
  0x24,
  0xd2,
  0xfd,
  0x71,
  0xbc,
  0x4b,
  0x16,
  0x39,
  0x97,
  0x78,
  0x35,
  0x10,
  0xba,
  0x5a,
  0xc2,
  0x95,
  0xf6,
  0x29,
  0x29,
  0xdf,
  0x01,
  0xf0,
  0xb6,
  0x15,
  0x17,
  0xcf,
  0xe5,
  0xd2,
  0x1e,
  0xa5,
  0xfe,
  0x81,
  0x35,
  0x49,
  0xbd,
  0x66,
  0xe5,
  0x96,
  0x84,
  0xf3,
  0x59,
  0xa5,
  0xa5,
  0xa2,
  0x9e,
  0xd2,
  0x97,
  0x53,
  0x6e,
  0x1e,
  0x44,
  0xda,
  0xdf,
  0x85,
  0xe4,
  0x8e,
  0xb0,
  0x4b,
  0xc7,
  0x25,
  0xd8,
  0x1e,
  0xfc,
  0x6b,
  0x51,
  0x2f,
  0x40,
  0x78,
  0x71,
  0x87,
  0x85,
  0x8a,
  0xb4,
  0x4b,
  0xdc,
  0xa6,
  0x76,
  0x9e,
  0x33,
  0x79,
  0xfb,
  0x4b,
  0xd1,
  0xac,
  0x6c,
  0x5a,
  0xfb,
  0x44,
  0xa9,
  0x69,
  0xe7,
  0xda,
  0x19,
  0xc3,
  0x3f,
  0x10,
  0x0a,
  0xf2,
  0x43,
  0xc9,
  0x61,
  0xc3,
  0x08,
  0xbb,
  0x2f,
  0x0f,
  0x27,
  0xac,
  0x40,
  0x3c,
  0xff,
  0x75,
  0x89,
  0x3c
};

