#define STIM_W_SIZE 4096
// weights [64 x 2 x 8 x 4]
L2_DATA uint8_t ne16_weights_no_normquant[] = {
  0x49,
  0x38,
  0x0c,
  0x3c,
  0xce,
  0x16,
  0xc3,
  0x3c,
  0x21,
  0x20,
  0xc9,
  0xc3,
  0x43,
  0x21,
  0x2c,
  0xd2,
  0xf1,
  0xe6,
  0x73,
  0xc3,
  0x5d,
  0x11,
  0x20,
  0xf0,
  0x84,
  0xb6,
  0x62,
  0xd2,
  0xa5,
  0xf7,
  0x03,
  0xf0,
  0x32,
  0x98,
  0x45,
  0x0f,
  0xad,
  0x49,
  0xeb,
  0xb4,
  0x63,
  0x08,
  0xc9,
  0x78,
  0xa5,
  0x5f,
  0x67,
  0x96,
  0xc7,
  0x85,
  0xa0,
  0x78,
  0xe0,
  0xd3,
  0x52,
  0xad,
  0x17,
  0xb5,
  0xf6,
  0x87,
  0x0b,
  0xe3,
  0xb3,
  0x0f,
  0x3e,
  0x31,
  0x0f,
  0x69,
  0x4c,
  0x2d,
  0x34,
  0xc3,
  0xd7,
  0x29,
  0x3a,
  0xf0,
  0xa8,
  0x6f,
  0x81,
  0xe1,
  0x01,
  0x7e,
  0xe4,
  0x1e,
  0x86,
  0x56,
  0xb6,
  0x4b,
  0xb7,
  0x61,
  0xf1,
  0x3c,
  0xcc,
  0x98,
  0x22,
  0xf4,
  0xdc,
  0x14,
  0x16,
  0x8f,
  0x26,
  0x1f,
  0xdc,
  0x78,
  0x99,
  0x85,
  0x05,
  0xb4,
  0x6d,
  0x73,
  0x00,
  0x5a,
  0xab,
  0xe7,
  0x1b,
  0xc3,
  0x90,
  0xed,
  0xc4,
  0x3c,
  0x0b,
  0x5d,
  0x8d,
  0xb4,
  0x99,
  0xc6,
  0x16,
  0xf0,
  0xb6,
  0xb1,
  0x86,
  0xf0,
  0xd7,
  0x91,
  0x3f,
  0x0e,
  0x49,
  0x1e,
  0x25,
  0x78,
  0xc2,
  0x09,
  0x8f,
  0x69,
  0xa5,
  0xad,
  0xbf,
  0x87,
  0x4c,
  0x6b,
  0x4e,
  0x87,
  0x18,
  0x0c,
  0xb3,
  0xc3,
  0x2f,
  0x3c,
  0x31,
  0xc7,
  0x5e,
  0x10,
  0xe2,
  0x1e,
  0x06,
  0x32,
  0x30,
  0xc3,
  0x51,
  0xf8,
  0xff,
  0x0f,
  0xb3,
  0x9a,
  0x86,
  0x78,
  0x15,
  0x30,
  0x18,
  0xe5,
  0x42,
  0x6e,
  0x7a,
  0xa5,
  0x66,
  0x34,
  0x2d,
  0xa5,
  0x9e,
  0xab,
  0x44,
  0xb4,
  0x48,
  0x84,
  0x6c,
  0x96,
  0x6b,
  0x03,
  0x06,
  0x96,
  0xb0,
  0x57,
  0x38,
  0xc3,
  0xf2,
  0xa0,
  0x02,
  0xd2,
  0x1e,
  0x87,
  0x38,
  0xc3,
  0xea,
  0x17,
  0xbb,
  0x5a,
  0xfa,
  0xe7,
  0xe4,
  0x96,
  0xd8,
  0xbb,
  0x60,
  0xf0,
  0x0f,
  0x17,
  0x8e,
  0x3c,
  0x3a,
  0x84,
  0x04,
  0xb5,
  0xc3,
  0x74,
  0x6c,
  0xbc,
  0xfe,
  0x6b,
  0xe1,
  0x1c,
  0x58,
  0x24,
  0x2e,
  0xcb,
  0x5c,
  0x3b,
  0x61,
  0xc3,
  0x64,
  0xff,
  0x3b,
  0x4b,
  0x73,
  0x15,
  0xaf,
  0x1e,
  0x5a,
  0x81,
  0xe0,
  0x1e,
  0xed,
  0x0f,
  0xae,
  0xb4,
  0x8c,
  0xa1,
  0x81,
  0x7a,
  0x56,
  0x7c,
  0xaa,
  0x58,
  0x7b,
  0x0e,
  0x88,
  0xf0,
  0x18,
  0x83,
  0x4f,
  0x78,
  0x6e,
  0x27,
  0xcd,
  0x3c,
  0xa5,
  0x6b,
  0x44,
  0x9e,
  0xfc,
  0xeb,
  0x35,
  0xf0,
  0x82,
  0x76,
  0x2c,
  0x5a,
  0xa5,
  0x4b,
  0x4b,
  0x78,
  0xcf,
  0xc7,
  0x9e,
  0x2d,
  0x6c,
  0x3a,
  0x8a,
  0x5b,
  0x88,
  0xa6,
  0x38,
  0xd2,
  0x04,
  0x5f,
  0x1f,
  0xe1,
  0xdc,
  0xe6,
  0xf1,
  0x0f,
  0x15,
  0xac,
  0x91,
  0x69,
  0x28,
  0xe1,
  0x02,
  0x96,
  0x34,
  0xf3,
  0x13,
  0xe0,
  0x01,
  0x71,
  0x56,
  0x8f,
  0x9d,
  0x8d,
  0xb0,
  0xf0,
  0xcc,
  0x5e,
  0x0e,
  0x96,
  0xf1,
  0xf9,
  0x65,
  0x96,
  0xd3,
  0xb7,
  0x27,
  0xd2,
  0xd1,
  0x25,
  0xf1,
  0xc3,
  0x48,
  0xbb,
  0xe5,
  0xb4,
  0x11,
  0x03,
  0x72,
  0xc1,
  0x9c,
  0x52,
  0x12,
  0xf0,
  0xc0,
  0x79,
  0x9f,
  0x69,
  0x27,
  0x91,
  0x1a,
  0xc7,
  0x06,
  0xf6,
  0xba,
  0x4b,
  0x25,
  0xfb,
  0x76,
  0x87,
  0x14,
  0x39,
  0xc0,
  0x78,
  0x8e,
  0xb3,
  0x06,
  0xd2,
  0xf3,
  0x21,
  0xb4,
  0x78,
  0xf4,
  0x03,
  0x37,
  0x87,
  0xc6,
  0x15,
  0xf1,
  0xa5,
  0x44,
  0xfd,
  0xd8,
  0xa5,
  0x9f,
  0x73,
  0x70,
  0x87,
  0xfe,
  0xf9,
  0x89,
  0x70,
  0x4e,
  0xab,
  0x4d,
  0xa5,
  0x2f,
  0xe9,
  0x70,
  0x94,
  0x69,
  0x89,
  0x7c,
  0x87,
  0x78,
  0xd2,
  0xe9,
  0x5a,
  0x76,
  0xdb,
  0x16,
  0x0f,
  0x02,
  0x59,
  0x3c,
  0xc3,
  0x67,
  0x96,
  0x22,
  0xd2,
  0x43,
  0xa7,
  0x55,
  0xb4,
  0xf9,
  0x18,
  0x53,
  0x2f,
  0x60,
  0x4a,
  0x68,
  0xb4,
  0xc1,
  0x6f,
  0x33,
  0xd2,
  0x87,
  0x1c,
  0x6e,
  0xd2,
  0xe0,
  0xab,
  0xca,
  0x78,
  0x7a,
  0x05,
  0x29,
  0x3c,
  0xeb,
  0x81,
  0x97,
  0xf0,
  0x54,
  0x7a,
  0xcb,
  0x3c,
  0xff,
  0x9f,
  0xf5,
  0x86,
  0x36,
  0x44,
  0x2b,
  0xe1,
  0x38,
  0x63,
  0x27,
  0xe1,
  0x2f,
  0x23,
  0x4f,
  0xc3,
  0x23,
  0x92,
  0xe3,
  0x5a,
  0xdf,
  0x09,
  0x3b,
  0x4b,
  0xeb,
  0x18,
  0x16,
  0xe1,
  0x1f,
  0x24,
  0x00,
  0xc3,
  0x4a,
  0x7d,
  0xe5,
  0x87,
  0xc4,
  0xb4,
  0x32,
  0xc3,
  0xfe,
  0x01,
  0x94,
  0x2d,
  0x7a,
  0x52,
  0x5b,
  0xe1,
  0x4d,
  0xe9,
  0x7c,
  0x87,
  0xe9,
  0x20,
  0x79,
  0xa5,
  0x28,
  0xc7,
  0x5e,
  0x96,
  0x8c,
  0x61,
  0x52,
  0xa5,
  0x4e,
  0xa5,
  0x2e,
  0x5a,
  0x24,
  0xe3,
  0xf0,
  0xe1,
  0x74,
  0x21,
  0x2f,
  0xe1,
  0x16,
  0x08,
  0xa9,
  0x5a,
  0x19,
  0xe0,
  0xef,
  0x4b,
  0x4a,
  0xe1,
  0x28,
  0xd2,
  0xb0,
  0xa4,
  0x35,
  0xc3,
  0xd9,
  0x59,
  0xf7,
  0x28,
  0x24,
  0x65,
  0xdb,
  0x0f,
  0x54,
  0x32,
  0x7f,
  0xc3,
  0x4e,
  0xb8,
  0x4c,
  0xb5,
  0x20,
  0x0a,
  0xe7,
  0xa1,
  0xad,
  0x8a,
  0x6a,
  0x1e,
  0x98,
  0x3a,
  0x90,
  0xe1,
  0x29,
  0x90,
  0xc2,
  0x78,
  0x22,
  0xdb,
  0x33,
  0xc3,
  0x38,
  0x51,
  0xba,
  0x0f,
  0x4a,
  0x99,
  0xce,
  0x5a,
  0x1f,
  0xbe,
  0xb6,
  0x0f,
  0x93,
  0xaa,
  0x42,
  0xc3,
  0x00,
  0xa8,
  0xd3,
  0x0f,
  0x72,
  0x79,
  0xde,
  0x2f,
  0xca,
  0x2f,
  0x7a,
  0x69,
  0xbd,
  0xfd,
  0xd6,
  0xa5,
  0x1a,
  0xb9,
  0x29,
  0xd2,
  0xbc,
  0x91,
  0x8f,
  0x6a,
  0xc8,
  0xd1,
  0xdc,
  0xb4,
  0x0b,
  0x77,
  0xb8,
  0x1e,
  0x0e,
  0x63,
  0xcd,
  0xe1,
  0x09,
  0x19,
  0x25,
  0x78,
  0xb6,
  0xd6,
  0x52,
  0x0b,
  0xd5,
  0x32,
  0x8f,
  0xf0,
  0x91,
  0xc5,
  0xbf,
  0x70,
  0x13,
  0xc2,
  0x25,
  0x9a,
  0xb1,
  0x00,
  0xff,
  0x2d,
  0xb5,
  0xd1,
  0x68,
  0x1e,
  0x9f,
  0xed,
  0x37,
  0xc3,
  0xc8,
  0x6d,
  0x34,
  0xa5,
  0x72,
  0xee,
  0x3c,
  0xc3,
  0x04,
  0x14,
  0x37,
  0x4b,
  0xb9,
  0xcb,
  0xed,
  0x3c,
  0xd3,
  0x3f,
  0x76,
  0xa5,
  0xae,
  0x1f,
  0xc9,
  0x3c,
  0x91,
  0xcc,
  0xbd,
  0x69,
  0x9f,
  0x9a,
  0x3f,
  0x4b,
  0x78,
  0x8a,
  0xec,
  0x0f,
  0xa9,
  0x99,
  0x45,
  0xe9,
  0x29,
  0x41,
  0xae,
  0x5a,
  0xcb,
  0xf4,
  0x9a,
  0x25,
  0x2c,
  0xb9,
  0x5b,
  0x69,
  0x11,
  0xb3,
  0xf7,
  0x29,
  0x64,
  0x9f,
  0x80,
  0x79,
  0x46,
  0x20,
  0xba,
  0xd2,
  0x6b,
  0x87,
  0xcd,
  0x3c,
  0x34,
  0x4b,
  0x62,
  0x1e,
  0x0c,
  0x31,
  0x45,
  0xa5,
  0xbb,
  0xeb,
  0x3a,
  0x4b,
  0xd6,
  0x41,
  0x33,
  0xc3,
  0x9b,
  0x12,
  0x91,
  0xe1,
  0xb8,
  0x2c,
  0x27,
  0xd2,
  0xef,
  0xa4,
  0x74,
  0x92,
  0xef,
  0x80,
  0xe5,
  0xb4,
  0x7e,
  0xbe,
  0x99,
  0x69,
  0x4d,
  0x1d,
  0x02,
  0xb4,
  0x65,
  0x24,
  0x93,
  0xc3,
  0xc3,
  0x30,
  0xe9,
  0x5a,
  0x09,
  0xa4,
  0x7d,
  0x2d,
  0x87,
  0x3c,
  0x22,
  0xd2,
  0xc5,
  0x69,
  0x4b,
  0xa5,
  0x26,
  0xa4,
  0x47,
  0x1e,
  0xd0,
  0x2e,
  0x85,
  0x78,
  0x33,
  0xfd,
  0x21,
  0xe1,
  0xbb,
  0xeb,
  0x59,
  0x69,
  0x4f,
  0x70,
  0xfe,
  0x94,
  0x25,
  0xb4,
  0xbb,
  0x4b,
  0x65,
  0x66,
  0x18,
  0xf0,
  0x54,
  0x54,
  0x85,
  0x3c,
  0x25,
  0x78,
  0x5d,
  0xb6,
  0x95,
  0x26,
  0xfa,
  0x0f,
  0x94,
  0x9e,
  0xed,
  0x2d,
  0xcb,
  0xa9,
  0xfb,
  0xa5,
  0x6d,
  0x92,
  0x61,
  0x96,
  0xc6,
  0x6a,
  0x48,
  0xb4,
  0xa7,
  0x88,
  0xeb,
  0x1e,
  0x1f,
  0xdf,
  0x1a,
  0x68,
  0x0b,
  0x9e,
  0xe3,
  0x1e,
  0xb5,
  0x82,
  0xab,
  0x78,
  0x54,
  0x80,
  0xf4,
  0x2d,
  0x61,
  0x12,
  0xc1,
  0xf0,
  0x8d,
  0x7d,
  0xe6,
  0x78,
  0xa7,
  0xfa,
  0x3a,
  0xd6,
  0x8e,
  0xe6,
  0x73,
  0x0f,
  0xac,
  0x87,
  0x6f,
  0x1e,
  0xde,
  0xb4,
  0xc3,
  0xb4,
  0x2f,
  0xb6,
  0xfd,
  0x96,
  0x65,
  0x4b,
  0xaa,
  0xd2,
  0xdd,
  0xa9,
  0xa9,
  0x5a,
  0xd6,
  0x18,
  0x47,
  0x1e,
  0x52,
  0xc7,
  0xae,
  0x4b,
  0xfa,
  0xd7,
  0x7a,
  0x96,
  0xbb,
  0x24,
  0x01,
  0xf1,
  0x8b,
  0x84,
  0x9f,
  0x69,
  0x45,
  0xbe,
  0x05,
  0xe1,
  0x52,
  0xe1,
  0xb8,
  0x4b,
  0x88,
  0x48,
  0xa3,
  0x4f,
  0xb8,
  0x9d,
  0x3d,
  0x69,
  0x0e,
  0x58,
  0xa7,
  0x69,
  0x75,
  0x4f,
  0x65,
  0x9e,
  0x49,
  0xd2,
  0x6e,
  0x5a,
  0xad,
  0x4c,
  0x01,
  0xf8,
  0x61,
  0x81,
  0x6a,
  0x96,
  0xfd,
  0x50,
  0xac,
  0x3c,
  0xb3,
  0x82,
  0x73,
  0xcb,
  0xee,
  0x6d,
  0x7a,
  0x96,
  0xfe,
  0x67,
  0x51,
  0x2f,
  0x8c,
  0x41,
  0x90,
  0xf0,
  0xb8,
  0xe3,
  0x4b,
  0x5a,
  0x4a,
  0x24,
  0x1c,
  0xe9,
  0xa3,
  0x74,
  0x92,
  0x0f,
  0x44,
  0xf3,
  0x42,
  0xb4,
  0x2a,
  0x09,
  0x70,
  0x49,
  0x51,
  0xef,
  0x79,
  0x87,
  0xfc,
  0xf3,
  0xf8,
  0x0f,
  0xda,
  0x82,
  0xc4,
  0x3d,
  0xd1,
  0x39,
  0x68,
  0x3c,
  0xd1,
  0x94,
  0x89,
  0x5e,
  0x41,
  0x38,
  0xf1,
  0x38,
  0x89,
  0xef,
  0x0e,
  0x3c,
  0xfe,
  0x5f,
  0xbb,
  0xc1,
  0xe4,
  0xe1,
  0x04,
  0xb4,
  0x6b,
  0x7b,
  0x80,
  0x7b,
  0xa1,
  0xe1,
  0x86,
  0x1e,
  0x2f,
  0x6c,
  0x95,
  0xe0,
  0x67,
  0xdb,
  0x26,
  0x96,
  0x3a,
  0x13,
  0x85,
  0x78,
  0x59,
  0x50,
  0x29,
  0x6d,
  0xcb,
  0x8e,
  0x49,
  0xe1,
  0x2b,
  0x0a,
  0x4e,
  0x78,
  0x56,
  0xc5,
  0x3d,
  0x78,
  0xa3,
  0x4f,
  0x0b,
  0x5e,
  0xcd,
  0x9b,
  0x97,
  0x78,
  0x3a,
  0x3b,
  0x6c,
  0x96,
  0xee,
  0x32,
  0xf6,
  0x83,
  0xa0,
  0xd0,
  0x2a,
  0xc3,
  0xd3,
  0x3d,
  0xb1,
  0x68,
  0xb6,
  0x60,
  0x49,
  0xa5,
  0x41,
  0x0b,
  0x1b,
  0xd2,
  0xd5,
  0xab,
  0x47,
  0xa5,
  0x51,
  0x8b,
  0xc0,
  0x78,
  0xae,
  0x8f,
  0xdd,
  0x3c,
  0x21,
  0xcd,
  0x4b,
  0x3c,
  0x1b,
  0xfa,
  0xf0,
  0xc3,
  0x50,
  0xa3,
  0x90,
  0xa5,
  0x6f,
  0xeb,
  0xb2,
  0xc3,
  0x4e,
  0x3a,
  0xc1,
  0x87,
  0xdb,
  0x9f,
  0x64,
  0x78,
  0x6d,
  0x54,
  0xb0,
  0xd2,
  0x26,
  0x59,
  0x4f,
  0x3c,
  0x65,
  0xe7,
  0x1f,
  0x87,
  0xaa,
  0xe8,
  0x73,
  0xf0,
  0xaa,
  0xbc,
  0x40,
  0xd2,
  0xd7,
  0x9b,
  0xad,
  0x4b,
  0x65,
  0x8a,
  0x23,
  0x96,
  0xaa,
  0x46,
  0x5b,
  0xc3,
  0xbb,
  0x85,
  0xba,
  0x0f,
  0x3b,
  0x55,
  0xcf,
  0x69,
  0x80,
  0x3a,
  0xcc,
  0x78,
  0x02,
  0x94,
  0x35,
  0xe9,
  0x69,
  0x3b,
  0xbd,
  0x4b,
  0x4a,
  0x5d,
  0x99,
  0xa5,
  0x0e,
  0x59,
  0x51,
  0xc2,
  0xdf,
  0xe4,
  0xd5,
  0x2d,
  0xdf,
  0xe4,
  0x24,
  0x87,
  0x48,
  0xfb,
  0x62,
  0x96,
  0x63,
  0x7d,
  0x30,
  0xd2,
  0xc1,
  0x3e,
  0xc1,
  0x3c,
  0x7a,
  0x01,
  0x3b,
  0x87,
  0x35,
  0x76,
  0x4e,
  0x87,
  0xc8,
  0x0b,
  0xca,
  0x78,
  0x74,
  0xb1,
  0x8e,
  0x3c,
  0xaf,
  0xc6,
  0x96,
  0x2c,
  0x7b,
  0xf0,
  0x8b,
  0x56,
  0xf4,
  0x21,
  0xfb,
  0xd2,
  0x82,
  0x20,
  0xd4,
  0x1e,
  0xa0,
  0xc1,
  0x32,
  0xc1,
  0x4f,
  0xfc,
  0x14,
  0x2d,
  0xbe,
  0xf1,
  0x97,
  0xd2,
  0x39,
  0xd4,
  0x45,
  0x2d,
  0xb5,
  0xe4,
  0xe4,
  0x3c,
  0x5d,
  0xd8,
  0xa3,
  0x69,
  0x81,
  0x12,
  0x81,
  0xf4,
  0x02,
  0x3c,
  0xfb,
  0x69,
  0xed,
  0xff,
  0xf9,
  0x4b,
  0xaa,
  0x33,
  0x08,
  0x78,
  0x1a,
  0x61,
  0xb1,
  0x5a,
  0x36,
  0x37,
  0xb8,
  0xc1,
  0xfa,
  0x83,
  0x09,
  0xf0,
  0x83,
  0x22,
  0x6c,
  0xd2,
  0x31,
  0xf7,
  0x08,
  0x5a,
  0x79,
  0xcb,
  0x2b,
  0x4b,
  0xb1,
  0x84,
  0x47,
  0xa5,
  0xc6,
  0xf6,
  0x1f,
  0xe1,
  0x72,
  0xab,
  0x02,
  0xb4,
  0xc6,
  0x31,
  0xfd,
  0x2d,
  0xae,
  0xef,
  0x82,
  0xb4,
  0x35,
  0x51,
  0xc4,
  0x2d,
  0xf8,
  0x1a,
  0xc6,
  0x96,
  0xcb,
  0xe4,
  0x71,
  0x1e,
  0x88,
  0x05,
  0xd2,
  0xf0,
  0x3a,
  0x21,
  0xe8,
  0x69,
  0xb2,
  0x26,
  0x9b,
  0x4b,
  0x7f,
  0xfe,
  0x2d,
  0xe1,
  0x93,
  0x6f,
  0x61,
  0xc1,
  0xa7,
  0x71,
  0xb6,
  0x78,
  0x90,
  0x32,
  0xbf,
  0x4b,
  0x5d,
  0xcf,
  0x44,
  0x69,
  0x12,
  0xa8,
  0xc0,
  0xf0,
  0x3a,
  0x70,
  0x0b,
  0xf0,
  0x83,
  0x65,
  0x48,
  0x1e,
  0x72,
  0xc9,
  0x44,
  0xb4,
  0xb6,
  0xae,
  0xf7,
  0x0f,
  0x3c,
  0xf9,
  0x03,
  0xf0,
  0xbf,
  0x12,
  0xf5,
  0x4b,
  0xd1,
  0xf6,
  0xd0,
  0xf0,
  0x8a,
  0x49,
  0xfe,
  0x6b,
  0x72,
  0x18,
  0x06,
  0x69,
  0xb8,
  0x3b,
  0x40,
  0xe1,
  0x64,
  0xfa,
  0x69,
  0x1e,
  0xfc,
  0x2c,
  0x6f,
  0x1e,
  0x50,
  0x07,
  0xb4,
  0x6b,
  0x0a,
  0x1c,
  0x12,
  0xf2,
  0xcc,
  0x48,
  0x43,
  0x87,
  0x8e,
  0xb9,
  0x64,
  0xb4,
  0x2f,
  0x65,
  0x85,
  0x3c,
  0xef,
  0x64,
  0x61,
  0xc3,
  0x2a,
  0x33,
  0x8b,
  0x3c,
  0xb5,
  0x74,
  0x2c,
  0x5a,
  0x10,
  0x0c,
  0x3b,
  0xc3,
  0x78,
  0x0e,
  0x25,
  0xb4,
  0xc3,
  0x28,
  0xd7,
  0x2d,
  0x25,
  0xbb,
  0x85,
  0x78,
  0xe1,
  0x8b,
  0x30,
  0xc3,
  0xab,
  0xf8,
  0x81,
  0x7c,
  0xb3,
  0x38,
  0x9b,
  0x69,
  0x4b,
  0x61,
  0x7f,
  0x83,
  0xae,
  0x07,
  0x07,
  0xb4,
  0xd2,
  0x49,
  0x00,
  0xf0,
  0x2b,
  0x53,
  0x2d,
  0xd2,
  0x25,
  0x82,
  0x4b,
  0x78,
  0xfa,
  0x36,
  0xfb,
  0x0f,
  0x72,
  0x43,
  0x95,
  0x0f,
  0xb3,
  0x8f,
  0x7b,
  0xa4,
  0x61,
  0x52,
  0x30,
  0x87,
  0xf3,
  0x4f,
  0xfa,
  0x5a,
  0xf3,
  0xd2,
  0x6f,
  0x87,
  0x1b,
  0x60,
  0x90,
  0x1e,
  0x3a,
  0x11,
  0xb8,
  0xe0,
  0x67,
  0x85,
  0xa9,
  0x16,
  0xa5,
  0x75,
  0x48,
  0xb4,
  0x8f,
  0xbe,
  0x87,
  0x78,
  0xb3,
  0xfe,
  0xb7,
  0x5a,
  0x15,
  0x65,
  0xa8,
  0x70,
  0xdf,
  0x91,
  0x34,
  0x69,
  0xaa,
  0x7f,
  0x04,
  0xb4,
  0x13,
  0xe0,
  0xe5,
  0x3c,
  0xfd,
  0x1e,
  0x70,
  0x96,
  0x99,
  0x59,
  0x7f,
  0x87,
  0x3e,
  0xe4,
  0x04,
  0xb4,
  0xb1,
  0xf9,
  0x76,
  0x87,
  0x73,
  0xa7,
  0x86,
  0xc3,
  0x01,
  0xf2,
  0x71,
  0x87,
  0xd8,
  0xd9,
  0xdb,
  0x2d,
  0xcb,
  0xa6,
  0x87,
  0x0f,
  0x05,
  0xbf,
  0x36,
  0xd2,
  0xea,
  0xd4,
  0x10,
  0xe5,
  0x53,
  0x21,
  0xd5,
  0xa5,
  0x48,
  0x2b,
  0xe3,
  0x1e,
  0xfc,
  0x82,
  0x9b,
  0x4b,
  0xff,
  0x98,
  0x7b,
  0x1e,
  0x9e,
  0x54,
  0x08,
  0x78,
  0x99,
  0xfa,
  0xc2,
  0xf0,
  0x53,
  0x0e,
  0x62,
  0x96,
  0xf3,
  0xce,
  0x0c,
  0x3e,
  0x65,
  0x8d,
  0x80,
  0xf0,
  0xe4,
  0x92,
  0x28,
  0xc3,
  0x3f,
  0x39,
  0x93,
  0x69,
  0x1c,
  0x09,
  0x4e,
  0x78,
  0x76,
  0xcb,
  0x3c,
  0xad,
  0x68,
  0x7d,
  0x38,
  0x4b,
  0xb4,
  0x24,
  0xc6,
  0x96,
  0x08,
  0xd7,
  0x5d,
  0x2d,
  0x8d,
  0x7c,
  0x14,
  0xe5,
  0x36,
  0x5d,
  0xbd,
  0x2d,
  0x99,
  0x41,
  0x9c,
  0x69,
  0xc2,
  0x60,
  0x44,
  0x1e,
  0xf2,
  0x51,
  0x10,
  0x3c,
  0x7c,
  0x81,
  0x84,
  0xa5,
  0xf9,
  0x97,
  0x7d,
  0x4b,
  0xd6,
  0x82,
  0x3d,
  0xc3,
  0x97,
  0x0c,
  0xfe,
  0x3e,
  0x75,
  0x28,
  0xf1,
  0x86,
  0xf3,
  0x54,
  0x58,
  0xe3,
  0xf1,
  0xe3,
  0x16,
  0xd2,
  0x6a,
  0x1b,
  0x94,
  0x78,
  0xec,
  0xc3,
  0x51,
  0xa5,
  0x7b,
  0xa4,
  0x3c,
  0xf0,
  0xd0,
  0x2e,
  0x59,
  0xa5,
  0x04,
  0x1f,
  0x72,
  0x2d,
  0xac,
  0xf1,
  0x35,
  0x87,
  0xfa,
  0x77,
  0xd3,
  0x92,
  0x95,
  0xf6,
  0x1c,
  0x96,
  0x1b,
  0x23,
  0x66,
  0x87,
  0x22,
  0xb8,
  0xf4,
  0x68,
  0x5f,
  0x03,
  0xa2,
  0xc3,
  0x16,
  0x07,
  0xbb,
  0x43,
  0xfe,
  0x4b,
  0xa7,
  0xc3,
  0x0e,
  0x13,
  0xdb,
  0x69,
  0x7a,
  0xbd,
  0xdd,
  0x3c,
  0xd0,
  0x64,
  0x2f,
  0x4b,
  0xc6,
  0x68,
  0x03,
  0xf0,
  0x9f,
  0x92,
  0x1b,
  0x4b,
  0x98,
  0xb7,
  0xc6,
  0x2d,
  0xff,
  0x2b,
  0x03,
  0xf0,
  0x87,
  0x95,
  0x67,
  0x96,
  0x16,
  0x1f,
  0x81,
  0xf1,
  0x06,
  0x22,
  0xd3,
  0x78,
  0x3f,
  0x58,
  0x7c,
  0xa5,
  0xc7,
  0x2f,
  0x52,
  0xe5,
  0x9c,
  0x07,
  0xb4,
  0xf0,
  0x61,
  0x28,
  0xa3,
  0x69,
  0x7b,
  0xf1,
  0xde,
  0x2f,
  0xa9,
  0x95,
  0x52,
  0x4b,
  0x41,
  0xf8,
  0x99,
  0x69,
  0x9c,
  0x49,
  0xec,
  0x0f,
  0xfd,
  0x2a,
  0x58,
  0x78,
  0x75,
  0x15,
  0xa1,
  0x78,
  0x0a,
  0xea,
  0xdb,
  0x2d,
  0x62,
  0x6d,
  0x44,
  0xb5,
  0xc5,
  0x60,
  0x55,
  0xb4,
  0xd6,
  0x01,
  0xd0,
  0xb4,
  0xf3,
  0x45,
  0x22,
  0xd0,
  0x90,
  0x51,
  0x5c,
  0xa5,
  0xe9,
  0x03,
  0x9c,
  0x43,
  0x6a,
  0x7a,
  0x44,
  0xb6,
  0xf4,
  0x11,
  0x34,
  0xc3,
  0x46,
  0x03,
  0x3a,
  0xd2,
  0xc3,
  0xf1,
  0x09,
  0xe1,
  0x90,
  0x30,
  0xd5,
  0xa5,
  0xf7,
  0xce,
  0x04,
  0x5a,
  0x03,
  0x0c,
  0x86,
  0x78,
  0xc2,
  0xa9,
  0x90,
  0x5a,
  0x79,
  0xa2,
  0xe1,
  0xe1,
  0xbe,
  0x11,
  0xc9,
  0x2d,
  0x36,
  0x9a,
  0x65,
  0x96,
  0x7b,
  0x55,
  0x8d,
  0xd2,
  0xa8,
  0x2f,
  0xe9,
  0x1e,
  0x4e,
  0x1c,
  0x53,
  0xc3,
  0x13,
  0x66,
  0x1a,
  0xd2,
  0xf1,
  0xb0,
  0x17,
  0xe0,
  0x57,
  0xf4,
  0xc1,
  0xb4,
  0xc1,
  0xab,
  0x5e,
  0x3c,
  0x37,
  0xf3,
  0x97,
  0xa4,
  0xd1,
  0x5c,
  0xaf,
  0x5a,
  0xed,
  0xf3,
  0xf0,
  0x2d,
  0xb5,
  0xe7,
  0xa5,
  0x0f,
  0xbf,
  0x34,
  0x58,
  0x83,
  0x71,
  0xe7,
  0xe1,
  0xa5,
  0xd1,
  0x32,
  0x19,
  0xc3,
  0x1b,
  0x7e,
  0x52,
  0xd2,
  0x93,
  0x39,
  0xfd,
  0x0f,
  0x3d,
  0xee,
  0xba,
  0x4b,
  0xe0,
  0x81,
  0xa3,
  0xd2,
  0xbe,
  0xd8,
  0x98,
  0x78,
  0x13,
  0x34,
  0x41,
  0x78,
  0xbf,
  0x3d,
  0x2d,
  0xad,
  0xc2,
  0x45,
  0x3d,
  0x8b,
  0xea,
  0xbe,
  0x8a,
  0x3d,
  0x0d,
  0xf9,
  0x81,
  0x6f,
  0x85,
  0x7d,
  0x03,
  0xe1,
  0x24,
  0x87,
  0x62,
  0x5b,
  0xdd,
  0x3c,
  0x65,
  0x0f,
  0x58,
  0xb9,
  0x43,
  0xf2,
  0xec,
  0xda,
  0x44,
  0x3c,
  0x55,
  0x03,
  0x42,
  0x96,
  0x60,
  0x2a,
  0x60,
  0xb4,
  0x2c,
  0xdb,
  0xf9,
  0x96,
  0x80,
  0x9f,
  0xaa,
  0x5a,
  0x6f,
  0x45,
  0x66,
  0x9d,
  0x85,
  0x9b,
  0xf3,
  0x4b,
  0x04,
  0x77,
  0xdb,
  0x69,
  0xfc,
  0xac,
  0x17,
  0xb4,
  0x72,
  0x41,
  0xeb,
  0x07,
  0xe1,
  0xed,
  0xe9,
  0x1e,
  0xc9,
  0x09,
  0x1b,
  0x2d,
  0x9c,
  0x2b,
  0x66,
  0x92,
  0x5c,
  0xf2,
  0x8e,
  0xf1,
  0x4a,
  0xf0,
  0x75,
  0xa4,
  0xab,
  0x00,
  0x27,
  0xd2,
  0x19,
  0x51,
  0x55,
  0xa5,
  0xb0,
  0xf7,
  0xc4,
  0x1e,
  0x3d,
  0xc0,
  0xe0,
  0x87,
  0xa0,
  0x16,
  0x6a,
  0xd2,
  0x19,
  0x7d,
  0x0f,
  0x5a,
  0xbb,
  0xf2,
  0x8c,
  0x6b,
  0x6d,
  0x80,
  0xf2,
  0x78,
  0xa3,
  0x1e,
  0x7a,
  0x5a,
  0x9f,
  0xbf,
  0xc4,
  0x3c,
  0xf9,
  0xa5,
  0x28,
  0xc3,
  0x23,
  0xc5,
  0xaa,
  0x5a,
  0xcb,
  0x76,
  0x06,
  0xc3,
  0xf3,
  0xe6,
  0x77,
  0xa5,
  0x1f,
  0x97,
  0x9f,
  0x69,
  0xbb,
  0x89,
  0x3d,
  0xc3,
  0x17,
  0xa6,
  0xca,
  0xf0,
  0x74,
  0x85,
  0xf4,
  0x87,
  0x56,
  0xb8,
  0xa4,
  0xc3,
  0x2f,
  0x91,
  0x62,
  0x1e,
  0xb6,
  0xbe,
  0xcc,
  0xb4,
  0xb4,
  0x70,
  0x54,
  0x87,
  0x1b,
  0xcf,
  0xd7,
  0x1a,
  0xbf,
  0x3e,
  0xc8,
  0x3c,
  0x9e,
  0xdc,
  0xa3,
  0x1e,
  0x41,
  0x62,
  0x1b,
  0xd0,
  0x5b,
  0x98,
  0x63,
  0xd3,
  0x80,
  0xee,
  0xbb,
  0x4f,
  0x0d,
  0x65,
  0x33,
  0xa5,
  0x1b,
  0x90,
  0x55,
  0xa1,
  0x90,
  0xbf,
  0xaf,
  0x58,
  0x05,
  0x9a,
  0xa8,
  0x4b,
  0x66,
  0xd8,
  0x44,
  0x79,
  0xd1,
  0x2a,
  0x53,
  0x3e,
  0xa9,
  0x5b,
  0x2f,
  0x1e,
  0xb5,
  0xc2,
  0xc5,
  0x1e,
  0xdc,
  0xac,
  0xa2,
  0x5a,
  0xa3,
  0x04,
  0x1e,
  0x69,
  0x75,
  0xc9,
  0x78,
  0x78,
  0x0d,
  0xc4,
  0x6f,
  0x2d,
  0x0d,
  0x10,
  0xd4,
  0xe1,
  0xb4,
  0x84,
  0x4c,
  0x1f,
  0x53,
  0xae,
  0xa5,
  0xa5,
  0xeb,
  0x7b,
  0x6d,
  0x1e,
  0x79,
  0x82,
  0xb0,
  0x78,
  0x2e,
  0x0e,
  0x20,
  0xd2,
  0xe0,
  0xf3,
  0x2d,
  0xc1,
  0x14,
  0x9d,
  0xfe,
  0x2d,
  0x92,
  0x33,
  0x2c,
  0xd2,
  0xc5,
  0x87,
  0xc0,
  0x3e,
  0xbe,
  0x06,
  0xc3,
  0xf4,
  0xe0,
  0x05,
  0x47,
  0x96,
  0xbb,
  0x4e,
  0x90,
  0xe1,
  0xa1,
  0xc1,
  0x14,
  0xbc,
  0x1b,
  0x08,
  0xe4,
  0x3c,
  0x0a,
  0xed,
  0xed,
  0x0f,
  0x8a,
  0x23,
  0x7f,
  0x87,
  0x1c,
  0xdc,
  0xe3,
  0x5a,
  0x30,
  0x69,
  0x4f,
  0xd2,
  0xad,
  0xc8,
  0x55,
  0xe1,
  0x73,
  0x09,
  0x69,
  0x2d,
  0x6c,
  0x71,
  0x3f,
  0x86,
  0xaa,
  0x0e,
  0x84,
  0x7a,
  0xb3,
  0xe9,
  0x70,
  0xb4,
  0x11,
  0x27,
  0xe1,
  0x78,
  0x2f,
  0x79,
  0xa3,
  0x16,
  0xd7,
  0xd6,
  0x76,
  0x87,
  0x19,
  0x93,
  0x1c,
  0xe1,
  0x1f,
  0x33,
  0xee,
  0x1e,
  0x65,
  0xbc,
  0x25,
  0xb4,
  0x34,
  0x29,
  0x39,
  0x2d,
  0x82,
  0x78,
  0xb2,
  0xc3,
  0xa4,
  0x7f,
  0xb8,
  0xc3,
  0xe0,
  0x84,
  0xcc,
  0x3f,
  0x65,
  0x74,
  0xcc,
  0x29,
  0xed,
  0x32,
  0xd5,
  0x1e,
  0xf1,
  0x61,
  0x7e,
  0x87,
  0xde,
  0x91,
  0xca,
  0x78,
  0x69,
  0x5e,
  0x45,
  0xf0,
  0x94,
  0x70,
  0xf4,
  0x1e,
  0xc8,
  0x43,
  0x72,
  0x87,
  0xb7,
  0xe0,
  0x11,
  0xac,
  0xa2,
  0x82,
  0x8d,
  0x5a,
  0x05,
  0x03,
  0x60,
  0x96,
  0xdd,
  0x98,
  0xe9,
  0x07,
  0x15,
  0xa7,
  0xc9,
  0x69,
  0xba,
  0x5e,
  0x35,
  0x87,
  0xbf,
  0xa3,
  0x08,
  0x78,
  0x63,
  0x5f,
  0xa9,
  0xc3,
  0xef,
  0xcf,
  0x2e,
  0x1e,
  0xc6,
  0x8c,
  0xad,
  0x0f,
  0xb4,
  0xab,
  0x3a,
  0x4b,
  0x71,
  0x7b,
  0x73,
  0x87,
  0x67,
  0x17,
  0xb8,
  0x78,
  0x5d,
  0x90,
  0x29,
  0xe5,
  0xae,
  0x58,
  0x0c,
  0x78,
  0x97,
  0x6a,
  0x54,
  0xa5,
  0x87,
  0x3b,
  0x2d,
  0x69,
  0xa6,
  0xd4,
  0x66,
  0xb4,
  0x39,
  0xe2,
  0x02,
  0xd6,
  0x25,
  0x56,
  0xe0,
  0xb4,
  0x76,
  0x2f,
  0x3e,
  0xd2,
  0x4d,
  0x68,
  0x10,
  0xe1,
  0x4c,
  0xd6,
  0x32,
  0xd2,
  0x44,
  0x38,
  0x60,
  0xb5,
  0xa6,
  0x26,
  0x5b,
  0xb4,
  0x8c,
  0x00,
  0xf6,
  0x1e,
  0xcd,
  0xc0,
  0xb4,
  0x61,
  0x99,
  0x55,
  0xe1,
  0x4b,
  0x36,
  0x60,
  0xa3,
  0x4b,
  0xbb,
  0x5d,
  0xf7,
  0x87,
  0x5d,
  0x71,
  0xaf,
  0x3c,
  0x9e,
  0xfc,
  0x9f,
  0x0f,
  0xd3,
  0x17,
  0x13,
  0xf4,
  0x56,
  0x13,
  0x7a,
  0xd2,
  0xc7,
  0x72,
  0x30,
  0xc3,
  0x4d,
  0x5d,
  0xfd,
  0xe1,
  0x5b,
  0x74,
  0xa7,
  0x87,
  0x37,
  0x36,
  0xaf,
  0x7a,
  0xcb,
  0xa7,
  0xc7,
  0xf0,
  0x19,
  0xe9,
  0xc0,
  0xb4,
  0xd8,
  0x48,
  0x0a,
  0xf0,
  0xc4,
  0xa2,
  0xdd,
  0x69,
  0xf6,
  0xa2,
  0xe1,
  0x3c,
  0x97,
  0xfd,
  0x2b,
  0x0f,
  0x95,
  0xbb,
  0xda,
  0x2d,
  0xe9,
  0x39,
  0x61,
  0xf0,
  0xb2,
  0x2c,
  0x23,
  0xf0,
  0x70,
  0x08,
  0x66,
  0xb5,
  0x4b,
  0xd6,
  0x10,
  0x6b,
  0x47,
  0xd0,
  0x64,
  0xb4,
  0x7a,
  0x65,
  0xc6,
  0x96,
  0xcb,
  0x49,
  0x69,
  0x96,
  0x72,
  0xfc,
  0xd7,
  0x0f,
  0xe6,
  0xa5,
  0xaf,
  0xd2,
  0x7b,
  0x40,
  0x81,
  0xf0,
  0x71,
  0x53,
  0xaf,
  0x58,
  0x81,
  0x63,
  0x76,
  0x0f,
  0x8f,
  0xba,
  0x4d,
  0x69,
  0x90,
  0x1e,
  0x95,
  0xd2,
  0x5c,
  0x9b,
  0x75,
  0x96,
  0xcc,
  0x20,
  0x51,
  0xa5,
  0x91,
  0xe3,
  0xa0,
  0xe1,
  0x93,
  0xda,
  0x7c,
  0xa5,
  0x43,
  0x26,
  0x75,
  0x87,
  0x16,
  0xea,
  0x30,
  0x5a,
  0x56,
  0x0c,
  0x51,
  0x96,
  0x94,
  0x0c,
  0xdc,
  0x38,
  0xbb,
  0xce,
  0x30,
  0x4b,
  0xf8,
  0xe2,
  0x9a,
  0xe1,
  0xa8,
  0x49,
  0x13,
  0xc3,
  0x42,
  0x75,
  0x97,
  0x4b,
  0x89,
  0x15,
  0xe3,
  0x1e,
  0x9d,
  0xa4,
  0x63,
  0x87,
  0x88,
  0xe9,
  0x53,
  0x2d,
  0x4f,
  0xa5,
  0x64,
  0x96,
  0x7f,
  0x08,
  0xbc,
  0xe1,
  0xcc,
  0x7f,
  0xcf,
  0x3c,
  0x59,
  0x35,
  0xa3,
  0x5a,
  0x84,
  0x50,
  0x64,
  0xd2,
  0xfb,
  0x93,
  0xa7,
  0xd2,
  0x29,
  0x9f,
  0xa1,
  0x7a,
  0xe7,
  0x8d,
  0x87,
  0xf0,
  0x90,
  0x95,
  0xc2,
  0x69,
  0x1f,
  0x1e,
  0x0b,
  0x78,
  0x62,
  0x83,
  0x2d,
  0x78,
  0x38,
  0xe8,
  0x19,
  0xe1,
  0x31,
  0x4f,
  0x51,
  0x78,
  0xdf,
  0xc0,
  0xe3,
  0x4b,
  0xf4,
  0xd6,
  0xdc,
  0x69,
  0xa9,
  0x3b,
  0xde,
  0x07,
  0x20,
  0x4b,
  0xa1,
  0xe1,
  0xed,
  0xda,
  0x59,
  0x96,
  0xb4,
  0x99,
  0x08,
  0xf0,
  0x52,
  0xf4,
  0x65,
  0xc3,
  0xde,
  0x2e,
  0x96,
  0xc3,
  0x71,
  0x03,
  0xae,
  0x69,
  0x29,
  0x53,
  0xb7,
  0xd2,
  0x60,
  0x35,
  0x91,
  0x0f,
  0xa8,
  0xa1,
  0xf9,
  0x2d,
  0x0f,
  0xab,
  0x85,
  0x7e,
  0x5d,
  0x72,
  0x92,
  0xfa,
  0xb9,
  0x23,
  0x75,
  0xa5,
  0xe3,
  0x16,
  0x43,
  0xb4,
  0x63,
  0x81,
  0x3f,
  0xe1,
  0xbe,
  0xe1,
  0x29,
  0x69,
  0x53,
  0x22,
  0x94,
  0xd2,
  0xd2,
  0xfb,
  0x88,
  0x96,
  0xdc,
  0x33,
  0x9b,
  0x4b,
  0xb4,
  0x49,
  0xf3,
  0x0f,
  0x85,
  0x17,
  0xa3,
  0x69,
  0x98,
  0x44,
  0x5d,
  0xb4,
  0x01,
  0x11,
  0xb5,
  0x58,
  0xa7,
  0xeb,
  0xeb,
  0x3c,
  0x5f,
  0x1d,
  0x8c,
  0xf0,
  0x4b,
  0xd6,
  0x72,
  0x87,
  0xd4,
  0xef,
  0xef,
  0x14,
  0xb6,
  0x04,
  0x72,
  0xf4,
  0x64,
  0x1d,
  0xfc,
  0x3c,
  0x49,
  0x30,
  0xda,
  0x3c,
  0x01,
  0x4f,
  0x9d,
  0xc3,
  0xcd,
  0x5b,
  0x73,
  0x96,
  0x8d,
  0xbb,
  0x0f,
  0x96,
  0x17,
  0x59,
  0x77,
  0x86,
  0xd7,
  0xec,
  0x27,
  0x96,
  0x50,
  0x45,
  0x0c,
  0x78,
  0x63,
  0x55,
  0x88,
  0x69,
  0x50,
  0xf5,
  0xfb,
  0x2d,
  0x3c,
  0x33,
  0xb5,
  0x4b,
  0x99,
  0xd7,
  0xf5,
  0x87,
  0xe2,
  0x18,
  0xd9,
  0x1e,
  0x5f,
  0xd6,
  0xbb,
  0x4b,
  0xb9,
  0x06,
  0xde,
  0x3c,
  0x4a,
  0xc6,
  0x8d,
  0xe1,
  0x47,
  0x99,
  0xa2,
  0xd2,
  0xed,
  0xa9,
  0xbe,
  0x1c,
  0x81,
  0xdc,
  0x44,
  0x3d,
  0x4d,
  0x60,
  0xcb,
  0x21,
  0x61,
  0x91,
  0x7e,
  0xd2,
  0x2c,
  0x55,
  0xcb,
  0x5a,
  0xe4,
  0x5c,
  0x22,
  0x5a,
  0x8c,
  0xbb,
  0x34,
  0x3c,
  0x0d,
  0x5a,
  0xd8,
  0xa5,
  0x75,
  0xb3,
  0xa3,
  0xc3,
  0xe7,
  0x80,
  0x56,
  0xb4,
  0xe4,
  0xca,
  0x4e,
  0x78,
  0x77,
  0xe0,
  0x4b,
  0x3c,
  0x7d,
  0x0a,
  0xe9,
  0x96,
  0x1a,
  0x03,
  0x05,
  0xe0,
  0x82,
  0x35,
  0xa4,
  0xb4,
  0x0e,
  0x8b,
  0xe5,
  0x69,
  0x4b,
  0x6d,
  0xb4,
  0x5a,
  0x3c,
  0x73,
  0xc7,
  0x0f,
  0xb9,
  0xdc,
  0x4b,
  0x87,
  0x16,
  0x3d,
  0x03,
  0xf0,
  0x6e,
  0x7f,
  0x14,
  0xa5,
  0x7a,
  0xbb,
  0x85,
  0xf0,
  0x31,
  0x53,
  0x2a,
  0x49,
  0xc3,
  0xab,
  0xa4,
  0x1e,
  0x82,
  0xbc,
  0x97,
  0x4b,
  0x38,
  0x60,
  0xb5,
  0x4b,
  0xa2,
  0xc8,
  0xe5,
  0x1e,
  0xd5,
  0xc2,
  0x06,
  0xf0,
  0x08,
  0xee,
  0x2d,
  0x1a,
  0x56,
  0x21,
  0x04,
  0xd2,
  0x57,
  0x97,
  0x77,
  0x3c,
  0x48,
  0xa4,
  0x99,
  0x70,
  0x39,
  0x81,
  0x2c,
  0x1e,
  0x21,
  0xc7,
  0x5c,
  0xd2,
  0x07,
  0xa1,
  0x71,
  0x0f,
  0x6d,
  0x5e,
  0xea,
  0x78,
  0x56,
  0x6b,
  0x76,
  0xf0,
  0x18,
  0xeb,
  0xed,
  0x2d,
  0x99,
  0xc6,
  0x70,
  0xa9,
  0xa1,
  0x2b,
  0x77,
  0x87,
  0x83,
  0xfb,
  0x62,
  0x1c,
  0xea,
  0xd7,
  0x47,
  0xad,
  0x91,
  0xb9,
  0x3f,
  0x4b,
  0xeb,
  0xe5,
  0x55,
  0xa5,
  0x8b,
  0x30,
  0x0b,
  0xd2,
  0x99,
  0xb6,
  0x4f,
  0xb4,
  0xae,
  0xe4,
  0x02,
  0x96,
  0x85,
  0xbe,
  0x20,
  0xe1,
  0x6a,
  0x81,
  0x77,
  0x87,
  0x08,
  0xcb,
  0x4b,
  0xf1,
  0xa4,
  0x96,
  0x7f,
  0x8f,
  0xc9,
  0x2a,
  0xb2,
  0x96,
  0x92,
  0x12,
  0xc2,
  0xa5,
  0xf2,
  0x9c,
  0x48,
  0xb7,
  0xff,
  0x5e,
  0x26,
  0xd2,
  0xd6,
  0x81,
  0x35,
  0xc3,
  0xa6,
  0x64,
  0x5a,
  0xb0,
  0x6c,
  0x13,
  0x53,
  0x87,
  0xce,
  0x04,
  0xd6,
  0x96,
  0x8b,
  0x18,
  0x2d,
  0xc3,
  0x60,
  0x52,
  0x6f,
  0x96,
  0x58,
  0x92,
  0x3e,
  0xc7,
  0x1f,
  0xac,
  0x27,
  0xa5,
  0x51,
  0x59,
  0x82,
  0x70,
  0x42,
  0x92,
  0x0e,
  0x58,
  0x36,
  0x05,
  0xce,
  0x1e,
  0x77,
  0xf4,
  0x11,
  0xc3,
  0x7d,
  0x8c,
  0x04,
  0x3e,
  0xa4,
  0x9a,
  0x3f,
  0x2d,
  0x18,
  0xe1,
  0x30,
  0x6b,
  0x41,
  0xd0,
  0xa9,
  0x4b,
  0x7b,
  0x79,
  0xb0,
  0x5a,
  0x44,
  0x9d,
  0x7b,
  0x0f,
  0x64,
  0x8a,
  0x8e,
  0x2d,
  0x0b,
  0x87,
  0xbf,
  0x4b,
  0x9c,
  0x51,
  0xf2,
  0x96,
  0x51,
  0x32,
  0x70,
  0x96,
  0x16,
  0x05,
  0x90,
  0x69,
  0x87,
  0x48,
  0x4e,
  0xb4,
  0x77,
  0xc5,
  0xa7,
  0xe1,
  0x70,
  0x3a,
  0x80,
  0x69,
  0x8f,
  0xb6,
  0x0f,
  0x69,
  0x6d,
  0x5f,
  0x95,
  0x69,
  0xa7,
  0xd5,
  0x25,
  0xd2,
  0x3d,
  0x76,
  0x7b,
  0x2d,
  0xe5,
  0xfe,
  0x22,
  0x94,
  0xc6,
  0x55,
  0x71,
  0xe1,
  0x12,
  0x8b,
  0x17,
  0x69,
  0x8f,
  0x19,
  0xa1,
  0xf0,
  0x9d,
  0xb9,
  0xbc,
  0x0f,
  0x08,
  0xb8,
  0x52,
  0xc3,
  0xbe,
  0x4d,
  0x79,
  0x96,
  0xe1,
  0x5c,
  0xbc,
  0x1e,
  0xcf,
  0xf6,
  0xb1,
  0x3c,
  0xd1,
  0x6f,
  0x1d,
  0xe1,
  0xcd,
  0x81,
  0xa8,
  0xb6,
  0xe9,
  0x91,
  0xa1,
  0x5a,
  0xd1,
  0x9b,
  0x0c,
  0xf0,
  0xc8,
  0x75,
  0x09,
  0x78,
  0x04,
  0xbf,
  0x10,
  0x6b,
  0x24,
  0xe7,
  0x47,
  0xa5,
  0x78,
  0xdb,
  0x35,
  0xc3,
  0xd0,
  0x22,
  0x0f,
  0x5a,
  0x7f,
  0x1a,
  0xfe,
  0x0f,
  0x3f,
  0x2d,
  0xe2,
  0xd3,
  0x4a,
  0x99,
  0x76,
  0x94,
  0xec,
  0x34,
  0x57,
  0x96,
  0xa9,
  0x6e,
  0xc5,
  0x78,
  0x40,
  0xc4,
  0x44,
  0x2f,
  0xbf,
  0x90,
  0x61,
  0xa5,
  0x21,
  0x17,
  0x67,
  0x87,
  0x11,
  0x5a,
  0x4c,
  0x3c,
  0xf2,
  0xea,
  0xab,
  0x5a,
  0xb4,
  0x01,
  0x59,
  0xc3,
  0x42,
  0xb9,
  0x3d,
  0x87,
  0x03,
  0x06,
  0xef,
  0x96,
  0x4c,
  0x6e,
  0x23,
  0x5a,
  0x73,
  0x70,
  0x72,
  0x8d,
  0x6f,
  0x42,
  0x9d,
  0x69,
  0xbd,
  0x58,
  0x0e,
  0xf0,
  0xb3,
  0x39,
  0x23,
  0xd2,
  0x9a,
  0xc7,
  0x3a,
  0xc3,
  0x0d,
  0xc7,
  0x8f,
  0x9e,
  0x0e,
  0x27,
  0xd7,
  0x0f,
  0x28,
  0xa3,
  0xe2,
  0xd2,
  0x8a,
  0x83,
  0x1f,
  0xa5,
  0x89,
  0x27,
  0x83,
  0x78,
  0x73,
  0xa2,
  0x33,
  0xd2,
  0x5b,
  0x98,
  0x14,
  0x87,
  0xd7,
  0x0d,
  0x0a,
  0x69,
  0xe3,
  0x84,
  0x2b,
  0xd2,
  0x8b,
  0x12,
  0x95,
  0x69,
  0xf0,
  0x7f,
  0xe1,
  0x5a,
  0xe0,
  0x0a,
  0xcb,
  0xa5,
  0xfc,
  0x03,
  0x26,
  0xd2,
  0x52,
  0x30,
  0xf9,
  0xb5,
  0x08,
  0xb2,
  0x45,
  0x2d,
  0x87,
  0x87,
  0x2a,
  0x4f,
  0x18,
  0x48,
  0xa4,
  0x3d,
  0xc1,
  0x4b,
  0x83,
  0xf0,
  0x0b,
  0xf3,
  0xed,
  0xb4,
  0xe0,
  0x31,
  0xa3,
  0x58,
  0x5d,
  0xf1,
  0xb3,
  0x0e,
  0xef,
  0xd7,
  0x23,
  0xcb,
  0xa3,
  0xad,
  0xee,
  0x0f,
  0xac,
  0x5f,
  0x3c,
  0x96,
  0xd9,
  0x49,
  0x29,
  0xc3,
  0x12,
  0x15,
  0xe1,
  0x0f,
  0x7f,
  0xb9,
  0x5a,
  0xb4,
  0x80,
  0xa3,
  0x79,
  0x0f,
  0x69,
  0xd5,
  0x6c,
  0xa5,
  0xf1,
  0x0a,
  0x39,
  0xe1,
  0xf4,
  0x20,
  0x28,
  0xd2,
  0x69,
  0x97,
  0x88,
  0x78,
  0xa2,
  0xec,
  0xe8,
  0xb4,
  0xd8,
  0x18,
  0x6d,
  0x96,
  0xad,
  0x63,
  0x4f,
  0x4b,
  0x0e,
  0x8c,
  0x12,
  0x7c,
  0xee,
  0x19,
  0x29,
  0x5a,
  0x92,
  0xb8,
  0xc7,
  0xe1,
  0x14,
  0x9d,
  0xff,
  0x4b,
  0x1a,
  0x34,
  0x4d,
  0xa5,
  0xbe,
  0x21,
  0x07,
  0xe1,
  0xca,
  0xdd,
  0xef,
  0x2d,
  0xa4,
  0x22,
  0x96,
  0xe1,
  0x67,
  0xfa,
  0x54,
  0x2d,
  0xf9,
  0x3d,
  0x35,
  0x69,
  0x19,
  0x66,
  0x74,
  0xb4,
  0xf7,
  0xa0,
  0x84,
  0x78,
  0x10,
  0x0c,
  0x2e,
  0xf0,
  0xee,
  0x43,
  0xe0,
  0x5a,
  0xb5,
  0x5f,
  0x70,
  0xd2,
  0x38,
  0xb0,
  0xf5,
  0xc2,
  0x6a,
  0x41,
  0xc0,
  0x3c,
  0x45,
  0xc1,
  0x10,
  0xb4,
  0x74,
  0xdf,
  0x79,
  0x87,
  0x06,
  0xd3,
  0x81,
  0xd2,
  0x5e,
  0x4b,
  0x11,
  0xe0,
  0x24,
  0x09,
  0x4c,
  0xf0,
  0x2a,
  0x8d,
  0x73,
  0x1e,
  0x45,
  0xd4,
  0x1a,
  0xf5,
  0x64,
  0x5c,
  0x29,
  0x0f,
  0x26,
  0x30,
  0xb2,
  0xc3,
  0x93,
  0x00,
  0xd2,
  0x0f,
  0xb1,
  0x31,
  0x89,
  0xc3,
  0x83,
  0xac,
  0x73,
  0x86,
  0x76,
  0x1e,
  0x81,
  0xf0,
  0x10,
  0x3a,
  0xa1,
  0xb4,
  0x12,
  0xcf,
  0xc1,
  0xd2,
  0x40,
  0x4c,
  0x63,
  0x96,
  0xa9,
  0x86,
  0x5b,
  0x2d,
  0x5c,
  0x7b,
  0x3a,
  0xc3,
  0x71,
  0x1b,
  0x98,
  0x2d,
  0xa8,
  0xf1,
  0x58,
  0x78,
  0x2c,
  0xaa,
  0x26,
  0x96,
  0x3b,
  0x82,
  0x66,
  0x9e,
  0x74,
  0x9a,
  0x98,
  0x6a,
  0x51,
  0x92,
  0x1a,
  0xe1,
  0x3c,
  0x1b,
  0x2f,
  0x4b,
  0x96,
  0x4b,
  0xeb,
  0x0f,
  0xca,
  0x2c,
  0xaf,
  0x2d,
  0x61,
  0x31,
  0x78,
  0xc3,
  0x31,
  0xe2,
  0xed,
  0x70,
  0xea,
  0x28,
  0xe8,
  0x96,
  0xbf,
  0xfa,
  0xfb,
  0x87,
  0x39,
  0xeb,
  0x63,
  0xd0,
  0x7e,
  0xde,
  0x76,
  0x86,
  0xef,
  0x1f,
  0x74,
  0xd2,
  0x29,
  0x6a,
  0x73,
  0x87,
  0xb4,
  0xb4,
  0xa5,
  0xc3,
  0xac,
  0x0a,
  0xa3,
  0x5a,
  0xd4,
  0x4f,
  0x8c,
  0xf0,
  0x08,
  0x53,
  0x6e,
  0xf0,
  0x87,
  0xbd,
  0x9b,
  0x5a,
  0x5c,
  0x85,
  0x67,
  0x96,
  0xca,
  0xad,
  0x0a,
  0x5a,
  0x35,
  0xcc,
  0xcf,
  0x38,
  0x44,
  0xd1,
  0x12,
  0xf0,
  0x5b,
  0x7f,
  0x93,
  0xc2,
  0xe9,
  0x8b,
  0x65,
  0x3c,
  0xb7,
  0x34,
  0xa8,
  0x69,
  0x50,
  0x75,
  0x45,
  0xa1,
  0xaf,
  0x51,
  0xae,
  0x5a,
  0x3e,
  0x03,
  0x61,
  0xd2,
  0xb0,
  0x76,
  0x7f,
  0x8f,
  0x40,
  0xd8,
  0xdc,
  0x2a,
  0xf6,
  0x48,
  0xdc,
  0x2f,
  0xa1,
  0x5d,
  0x1a,
  0x3c,
  0xe2,
  0xb1,
  0xf1,
  0xa5,
  0x8f,
  0x9b,
  0x7c,
  0xc3,
  0xef,
  0x93,
  0x97,
  0x2c,
  0x58,
  0xd1,
  0xcc,
  0x78,
  0x6e,
  0x1e,
  0x5b,
  0x4a,
  0x6e,
  0x34,
  0x3f,
  0x86,
  0xb6,
  0xb7,
  0xce,
  0x1e,
  0x70,
  0xc5,
  0x4c,
  0xa5,
  0xab,
  0xb5,
  0xc5,
  0xa5,
  0x5e,
  0xb2,
  0x8c,
  0x1e,
  0x12,
  0xec,
  0x4b,
  0xb4,
  0x54,
  0x12,
  0xb1,
  0x5a,
  0x81,
  0xe5,
  0xed,
  0x3c,
  0x3e,
  0x52,
  0x4a,
  0x3c,
  0xef,
  0xbc,
  0xe8,
  0x16,
  0x56,
  0x5d,
  0x40,
  0xb0,
  0x74,
  0x29,
  0x79,
  0x69,
  0xb5,
  0x63,
  0x95,
  0x69,
  0xbd,
  0xb6,
  0xd3,
  0xa5,
  0x34,
  0x9d,
  0x27,
  0x1f,
  0xfa,
  0x71,
  0xac,
  0xf0,
  0xaf,
  0x2f,
  0x73,
  0x96,
  0xb9,
  0x93,
  0xea,
  0x07,
  0xc5,
  0x1d,
  0x12,
  0xf4,
  0xd9,
  0x64,
  0x0a,
  0xf5,
  0xa1,
  0xad,
  0x89,
  0x78,
  0xe6,
  0xe2,
  0x96,
  0x69,
  0x6c,
  0xc1,
  0x15,
  0xa5,
  0x19,
  0xe4,
  0x96,
  0x25,
  0x63,
  0x54,
  0xf9,
  0x2d,
  0xd5,
  0x38,
  0x56,
  0xa5,
  0x33,
  0x09,
  0xae,
  0x5a,
  0x2d,
  0x81,
  0xfe,
  0x0f,
  0x91,
  0xbf,
  0x7a,
  0xf0,
  0x77,
  0x4c,
  0x58,
  0x2d,
  0xb3,
  0xb8,
  0x94,
  0x69,
  0xda,
  0xe6,
  0x72,
  0xc3,
  0xc8,
  0x11,
  0xfb,
  0x0f,
  0x7c,
  0xc5,
  0x48,
  0x3c,
  0x4a,
  0x4c,
  0x31,
  0x0f,
  0x4d,
  0x95,
  0x14,
  0x2d,
  0xc6,
  0x46,
  0x58,
  0xb0,
  0xf6,
  0x3c,
  0x04,
  0xf8,
  0x97,
  0x6d,
  0x12,
  0x96,
  0xb8,
  0xf2,
  0x7a,
  0x95,
  0x12,
  0x6b,
  0x91,
  0xe1,
  0x1e,
  0x14,
  0x26,
  0xb4,
  0x96,
  0x14,
  0x68,
  0xb4
};

