#define STIM_W_SIZE 4096
// weights [64 x 2 x 8 x 4]
L2_DATA uint8_t ne16_weights_no_normquant[] = {
  0x8a,
  0x84,
  0xb7,
  0x0f,
  0x59,
  0xf5,
  0x11,
  0xa5,
  0x28,
  0x87,
  0x84,
  0x78,
  0x1d,
  0x49,
  0x99,
  0x69,
  0x47,
  0x15,
  0xd1,
  0x2d,
  0xd5,
  0x94,
  0xde,
  0x2f,
  0xa8,
  0x83,
  0x08,
  0x7a,
  0xc4,
  0x28,
  0xa3,
  0xd0,
  0xd9,
  0x95,
  0x64,
  0x1e,
  0xbe,
  0xd1,
  0x09,
  0x78,
  0xf5,
  0x87,
  0x61,
  0xf0,
  0x9f,
  0x38,
  0xcd,
  0x69,
  0xe1,
  0xb2,
  0x99,
  0xca,
  0x07,
  0x9e,
  0xfa,
  0x4b,
  0xd2,
  0x57,
  0x19,
  0x68,
  0x85,
  0x8c,
  0x81,
  0xe1,
  0x8e,
  0xc6,
  0xe6,
  0xb4,
  0x68,
  0x78,
  0x99,
  0x69,
  0xe9,
  0x57,
  0xe2,
  0xc3,
  0xe0,
  0xbe,
  0xce,
  0x0f,
  0x49,
  0x83,
  0x41,
  0xb6,
  0xbf,
  0xa8,
  0xc7,
  0x2d,
  0x87,
  0xcb,
  0x1d,
  0x69,
  0x2b,
  0xbb,
  0x39,
  0x69,
  0xd6,
  0xe8,
  0x3d,
  0x4b,
  0xa0,
  0xa3,
  0x26,
  0xd2,
  0xb5,
  0x4d,
  0x52,
  0xa9,
  0x12,
  0x6b,
  0x09,
  0x78,
  0x43,
  0x30,
  0xce,
  0x5a,
  0x02,
  0x9a,
  0x00,
  0xf0,
  0x91,
  0x1d,
  0xe0,
  0x87,
  0x4b,
  0xf8,
  0x77,
  0x87,
  0xd5,
  0x07,
  0x5b,
  0x25,
  0xfa,
  0xa7,
  0xab,
  0x52,
  0x25,
  0x8e,
  0x57,
  0x0f,
  0x11,
  0x69,
  0x7d,
  0x96,
  0x14,
  0x6f,
  0x80,
  0xd2,
  0xd9,
  0xf9,
  0x1c,
  0x4b,
  0x6d,
  0xda,
  0xac,
  0x5b,
  0x61,
  0xc9,
  0x6a,
  0xd2,
  0x1b,
  0xc2,
  0xe4,
  0x1e,
  0x5b,
  0x1a,
  0x64,
  0xe1,
  0x60,
  0x31,
  0x9e,
  0x69,
  0xfc,
  0xec,
  0xea,
  0x5a,
  0xae,
  0x21,
  0x8e,
  0x70,
  0x8a,
  0x7b,
  0x6f,
  0x1a,
  0xf9,
  0x1e,
  0x0c,
  0x78,
  0x13,
  0x6e,
  0x77,
  0x85,
  0xce,
  0xef,
  0x68,
  0x1e,
  0xbb,
  0x9d,
  0x60,
  0xf0,
  0xd6,
  0xf9,
  0x70,
  0xb4,
  0xa3,
  0x08,
  0x53,
  0xe1,
  0x54,
  0xf3,
  0x70,
  0x4b,
  0x6e,
  0x1a,
  0x10,
  0xf0,
  0x4d,
  0x8c,
  0x54,
  0x25,
  0xfa,
  0xf2,
  0xc7,
  0xd2,
  0xbb,
  0xa6,
  0x93,
  0x4b,
  0x01,
  0xcc,
  0x5d,
  0xa5,
  0x39,
  0x78,
  0x5c,
  0x3d,
  0x82,
  0xd3,
  0x9c,
  0x2d,
  0x46,
  0x03,
  0xb7,
  0x4d,
  0x91,
  0xab,
  0x77,
  0x0f,
  0x09,
  0xd6,
  0x9f,
  0x6d,
  0xf9,
  0x78,
  0x95,
  0x96,
  0x45,
  0xbd,
  0xcc,
  0x3c,
  0x41,
  0x9e,
  0xa1,
  0x3c,
  0xbc,
  0x50,
  0x04,
  0xad,
  0x6f,
  0x6b,
  0xf3,
  0x1e,
  0x2e,
  0xea,
  0x79,
  0x87,
  0xa0,
  0x0a,
  0x89,
  0x5e,
  0xa3,
  0xcc,
  0x51,
  0x87,
  0xfb,
  0x91,
  0x00,
  0xe1,
  0x18,
  0xb0,
  0x66,
  0x94,
  0xb9,
  0xd3,
  0xbf,
  0x0f,
  0xd1,
  0xf3,
  0x68,
  0x0f,
  0x0a,
  0x5a,
  0xca,
  0x3c,
  0x13,
  0x28,
  0x3a,
  0xd2,
  0xc1,
  0x38,
  0xa7,
  0x5a,
  0xba,
  0x32,
  0x22,
  0x5a,
  0x96,
  0xa6,
  0x6b,
  0xda,
  0xe9,
  0x83,
  0x9f,
  0x4b,
  0x4c,
  0x27,
  0xe1,
  0x96,
  0xff,
  0xe5,
  0x86,
  0xd2,
  0x76,
  0xb9,
  0x6d,
  0x1e,
  0xe2,
  0xaa,
  0xa4,
  0x5a,
  0xeb,
  0xb0,
  0x4a,
  0x97,
  0xb3,
  0xfb,
  0xb0,
  0x0f,
  0x7f,
  0xb0,
  0xd3,
  0x87,
  0xb7,
  0x4f,
  0xe8,
  0x1e,
  0xb6,
  0x09,
  0xa0,
  0x1e,
  0xc4,
  0xd4,
  0xed,
  0x3d,
  0x18,
  0x1c,
  0x6d,
  0x2d,
  0x49,
  0x32,
  0x57,
  0x3c,
  0xf7,
  0xab,
  0x6c,
  0x3c,
  0xbe,
  0xa7,
  0xcc,
  0x1e,
  0x2c,
  0x07,
  0x1f,
  0xe1,
  0x75,
  0x7c,
  0x21,
  0xc3,
  0x7c,
  0x70,
  0xa7,
  0x87,
  0x6e,
  0x13,
  0xfd,
  0x87,
  0xcb,
  0x65,
  0x7e,
  0x1e,
  0xf0,
  0xe2,
  0xb2,
  0x4b,
  0x31,
  0xc6,
  0x1d,
  0xe1,
  0xe9,
  0x89,
  0x57,
  0xa5,
  0x71,
  0xa0,
  0xde,
  0x2d,
  0xc8,
  0x51,
  0xa2,
  0x1e,
  0x43,
  0x73,
  0xda,
  0x96,
  0x99,
  0x3d,
  0x18,
  0xc3,
  0xbb,
  0x97,
  0xc1,
  0x3c,
  0x15,
  0x79,
  0x87,
  0xc3,
  0x5e,
  0xc1,
  0x3d,
  0x69,
  0xc8,
  0x08,
  0x1d,
  0xf0,
  0x48,
  0x4d,
  0xaa,
  0x5a,
  0x74,
  0xaa,
  0x7c,
  0xa5,
  0xd7,
  0xc0,
  0x92,
  0xd2,
  0xb2,
  0xa5,
  0x08,
  0xb4,
  0x5f,
  0x0d,
  0x9c,
  0x2d,
  0x50,
  0x78,
  0x20,
  0xc3,
  0x13,
  0x76,
  0x4a,
  0x3c,
  0xfe,
  0x6e,
  0xa4,
  0x78,
  0x14,
  0xbf,
  0xd4,
  0x7a,
  0xc1,
  0x2c,
  0x86,
  0x3c,
  0x5a,
  0x1f,
  0x37,
  0xd2,
  0x43,
  0x6b,
  0xcb,
  0x96,
  0x91,
  0xca,
  0x0f,
  0x5a,
  0x81,
  0x7d,
  0x19,
  0xe1,
  0xa4,
  0xba,
  0xe5,
  0xd2,
  0xa6,
  0x12,
  0x6a,
  0xd2,
  0x78,
  0x52,
  0xb0,
  0xd3,
  0x51,
  0xa1,
  0x88,
  0x78,
  0x15,
  0xdf,
  0x8e,
  0x3c,
  0xb1,
  0xb2,
  0xdd,
  0x0f,
  0xb6,
  0x44,
  0x51,
  0xb4,
  0xc5,
  0x5b,
  0x4f,
  0x96,
  0x1d,
  0xba,
  0x68,
  0x70,
  0x94,
  0x77,
  0x1b,
  0x2d,
  0xdd,
  0x38,
  0xbf,
  0x0f,
  0x7a,
  0xdc,
  0xa4,
  0x1e,
  0x60,
  0xf2,
  0xd1,
  0xe1,
  0xcd,
  0x33,
  0x5a,
  0x0f,
  0xe8,
  0xde,
  0xd0,
  0x0f,
  0xa0,
  0x8e,
  0xb7,
  0xc3,
  0xb3,
  0x4a,
  0x21,
  0xb4,
  0xcf,
  0x02,
  0x01,
  0x78,
  0x88,
  0x8f,
  0x44,
  0xb4,
  0x4b,
  0x5e,
  0x1f,
  0xe1,
  0x2c,
  0xfd,
  0x4e,
  0x5a,
  0x4f,
  0x35,
  0x76,
  0x8f,
  0x4f,
  0xe7,
  0x92,
  0x69,
  0x43,
  0xdd,
  0x32,
  0xc3,
  0x30,
  0x2e,
  0x5e,
  0x0f,
  0x46,
  0xba,
  0xdc,
  0x69,
  0xbd,
  0x53,
  0x8e,
  0x3c,
  0x01,
  0xf2,
  0x9b,
  0xe7,
  0x2a,
  0x11,
  0x88,
  0xa5,
  0x08,
  0xc2,
  0x7b,
  0x0f,
  0xad,
  0xb1,
  0x1f,
  0xf0,
  0x47,
  0x0b,
  0x59,
  0x4b,
  0x51,
  0x5d,
  0x05,
  0xf8,
  0x54,
  0x25,
  0x18,
  0x78,
  0x7c,
  0xc0,
  0xe8,
  0x1f,
  0x2a,
  0x92,
  0x85,
  0x78,
  0xd4,
  0x23,
  0xda,
  0x87,
  0x6a,
  0xc6,
  0x52,
  0xc3,
  0x17,
  0xde,
  0xb6,
  0x69,
  0x42,
  0xf3,
  0x05,
  0xb4,
  0xc2,
  0xd0,
  0xdc,
  0x3c,
  0x22,
  0x6a,
  0x64,
  0xb4,
  0xfb,
  0xb6,
  0x17,
  0x96,
  0xbe,
  0x50,
  0xf4,
  0x3c,
  0xbc,
  0xda,
  0xcd,
  0x0f,
  0x18,
  0x37,
  0x61,
  0x8f,
  0xf6,
  0xb6,
  0x08,
  0x3c,
  0x1e,
  0xc4,
  0xb1,
  0xe1,
  0x28,
  0x3b,
  0x99,
  0x5a,
  0xf9,
  0xec,
  0xcd,
  0x1e,
  0x50,
  0x22,
  0x7a,
  0xd2,
  0xd6,
  0x64,
  0x89,
  0x3c,
  0x21,
  0x34,
  0x09,
  0xe3,
  0xe8,
  0xd3,
  0x0f,
  0x69,
  0x11,
  0x56,
  0xd1,
  0xa5,
  0x22,
  0x87,
  0xb3,
  0xe1,
  0x29,
  0x1d,
  0x71,
  0xc1,
  0x7d,
  0xe6,
  0xf4,
  0x78,
  0x5e,
  0xfa,
  0x73,
  0x87,
  0x70,
  0xd6,
  0x70,
  0x1e,
  0xd2,
  0x81,
  0x15,
  0xe1,
  0x3f,
  0xd6,
  0x8e,
  0x2d,
  0x10,
  0xeb,
  0xa0,
  0x94,
  0x10,
  0xc9,
  0x08,
  0x78,
  0x17,
  0x72,
  0xad,
  0x5a,
  0x0c,
  0xbd,
  0xd2,
  0xb4,
  0x05,
  0xf4,
  0xfc,
  0x7c,
  0xde,
  0xa7,
  0x52,
  0xa1,
  0x6c,
  0xde,
  0xcf,
  0x29,
  0x21,
  0x9b,
  0x7a,
  0x87,
  0x37,
  0x39,
  0x55,
  0x87,
  0x96,
  0x4d,
  0x4f,
  0x38,
  0x86,
  0xa4,
  0x26,
  0xd2,
  0x86,
  0x23,
  0x7c,
  0x0f,
  0x7c,
  0x1d,
  0xa1,
  0x5a,
  0xbe,
  0x39,
  0x7e,
  0xc1,
  0xd3,
  0xc0,
  0x4f,
  0xb4,
  0x59,
  0xc6,
  0x71,
  0x0f,
  0xf4,
  0x21,
  0x96,
  0x96,
  0x4a,
  0x68,
  0x95,
  0xa7,
  0x32,
  0xfa,
  0x3f,
  0x5a,
  0x1e,
  0x43,
  0x76,
  0xe0,
  0xb0,
  0x6e,
  0x8c,
  0x34,
  0x97,
  0x32,
  0x21,
  0xf0,
  0x33,
  0x1f,
  0xee,
  0x1e,
  0x7b,
  0xf1,
  0x29,
  0x1e,
  0xae,
  0xcd,
  0x5f,
  0xb4,
  0x60,
  0x71,
  0x4d,
  0xb4,
  0x5b,
  0xca,
  0x81,
  0x2d,
  0x51,
  0x9b,
  0xf0,
  0xf0,
  0x97,
  0xbd,
  0x2d,
  0x87,
  0x06,
  0x97,
  0x78,
  0xe1,
  0x9a,
  0x71,
  0x3f,
  0xc1,
  0x24,
  0x36,
  0xc6,
  0x38,
  0x40,
  0x4d,
  0x17,
  0xa5,
  0x18,
  0x7e,
  0xde,
  0x0f,
  0x40,
  0x2e,
  0x96,
  0x69,
  0x2a,
  0xb2,
  0x05,
  0xf1,
  0x3f,
  0x02,
  0xe8,
  0x96,
  0x1c,
  0xcf,
  0xa3,
  0x59,
  0xec,
  0x43,
  0x52,
  0x2d,
  0xa2,
  0xb5,
  0xa6,
  0x0f,
  0x4b,
  0xe8,
  0xd1,
  0x0e,
  0x0b,
  0xa4,
  0x5b,
  0xc3,
  0x90,
  0x25,
  0x99,
  0x69,
  0x27,
  0xb7,
  0x1e,
  0x2d,
  0x61,
  0x5a,
  0xb5,
  0x68,
  0x07,
  0x73,
  0x28,
  0xd2,
  0xcb,
  0xac,
  0xfb,
  0x3c,
  0x2c,
  0x47,
  0x70,
  0xf8,
  0x76,
  0xc9,
  0xd8,
  0x69,
  0xaf,
  0xcb,
  0xe3,
  0xf1,
  0x14,
  0x45,
  0xc4,
  0x3c,
  0xb9,
  0x4d,
  0xc8,
  0x07,
  0xd0,
  0x34,
  0x7a,
  0x83,
  0x9b,
  0xad,
  0x2f,
  0x4b,
  0xcc,
  0x25,
  0xf5,
  0xb4,
  0xe2,
  0xc0,
  0xb1,
  0x7c,
  0x54,
  0x51,
  0xee,
  0x1e,
  0xdd,
  0x04,
  0x45,
  0xa5,
  0xd0,
  0x73,
  0x2e,
  0x87,
  0xb4,
  0x60,
  0xab,
  0x5a,
  0xa9,
  0x34,
  0x18,
  0x2d,
  0xb8,
  0xa0,
  0x64,
  0x5a,
  0x60,
  0x71,
  0xc2,
  0x39,
  0x4d,
  0x29,
  0xac,
  0x78,
  0xeb,
  0xff,
  0x35,
  0x87,
  0xc4,
  0xdc,
  0xf2,
  0xc3,
  0x84,
  0xbd,
  0x21,
  0x87,
  0xa0,
  0x68,
  0x45,
  0x96,
  0xf1,
  0x0a,
  0x55,
  0xa5,
  0xf5,
  0xf8,
  0x8b,
  0x43,
  0x3f,
  0x45,
  0x39,
  0x2d,
  0x35,
  0x76,
  0xcd,
  0x3c,
  0x01,
  0xe2,
  0xcb,
  0xf0,
  0x59,
  0xb7,
  0x97,
  0xe1,
  0x69,
  0xac,
  0x47,
  0x96,
  0x17,
  0xb4,
  0x37,
  0xe9,
  0x9b,
  0x25,
  0xe1,
  0x78,
  0x04,
  0x46,
  0xbd,
  0xb4,
  0x52,
  0x40,
  0x28,
  0xd2,
  0xb7,
  0x5d,
  0x38,
  0x61,
  0x32,
  0x5b,
  0xa7,
  0xcb,
  0x7c,
  0xcc,
  0x4d,
  0xa7,
  0xf9,
  0xf4,
  0x40,
  0xf0,
  0x6c,
  0x6a,
  0xa2,
  0xf0,
  0x78,
  0x75,
  0x55,
  0xad,
  0xb6,
  0x70,
  0x48,
  0x1f,
  0x39,
  0x9f,
  0x06,
  0xd2,
  0xb8,
  0x2f,
  0x97,
  0x78,
  0x43,
  0x3a,
  0xaf,
  0xd2,
  0x6f,
  0x5f,
  0x37,
  0x1e,
  0xd8,
  0xee,
  0x20,
  0x0f,
  0x28,
  0xfb,
  0xad,
  0x2d,
  0x2b,
  0x21,
  0x73,
  0xd2,
  0x9d,
  0x45,
  0x70,
  0x96,
  0x52,
  0x3c,
  0x80,
  0x78,
  0x93,
  0x1f,
  0xed,
  0xf2,
  0xde,
  0xc2,
  0x7f,
  0xc3,
  0x32,
  0x47,
  0x0e,
  0xb4,
  0xfc,
  0x0d,
  0xdd,
  0x3c,
  0x15,
  0x20,
  0xe6,
  0x39,
  0xc8,
  0x64,
  0x9b,
  0x4b,
  0x28,
  0xfd,
  0x3c,
  0x87,
  0x82,
  0x8f,
  0x30,
  0xc3,
  0x99,
  0x72,
  0x4e,
  0x1e,
  0x46,
  0xba,
  0x1b,
  0xb4,
  0xa8,
  0xce,
  0xda,
  0x2d,
  0xbd,
  0x07,
  0x4f,
  0xb4,
  0xe9,
  0xfc,
  0x64,
  0xb4,
  0xb3,
  0x19,
  0x70,
  0x87,
  0x00,
  0x72,
  0x35,
  0xa5,
  0xc6,
  0x4d,
  0x99,
  0x6b,
  0xb3,
  0x85,
  0x6b,
  0xf0,
  0x02,
  0x42,
  0x33,
  0x4b,
  0xe1,
  0x7b,
  0x98,
  0x69,
  0x97,
  0xc6,
  0x33,
  0xcb,
  0x60,
  0xa5,
  0x29,
  0xc3,
  0x78,
  0x5b,
  0xc5,
  0x2d,
  0x9a,
  0x8a,
  0x5b,
  0x2f,
  0x5d,
  0x8c,
  0xf5,
  0x87,
  0xc2,
  0xe5,
  0x45,
  0x78,
  0x97,
  0xc2,
  0x12,
  0xf0,
  0xdf,
  0xd3,
  0x97,
  0x69,
  0xb1,
  0xb1,
  0x0c,
  0xd2,
  0x9b,
  0x83,
  0x46,
  0xb4,
  0x48,
  0xfc,
  0x06,
  0x1e,
  0xbe,
  0x17,
  0x0c,
  0x7c,
  0xd0,
  0x9e,
  0x60,
  0xa5,
  0x4a,
  0xf9,
  0x6b,
  0x5a,
  0x03,
  0x3b,
  0xd6,
  0x2d,
  0x03,
  0xeb,
  0x98,
  0x78,
  0x9e,
  0x4f,
  0x55,
  0xa7,
  0xf5,
  0xbd,
  0xa9,
  0x58,
  0xdf,
  0x1a,
  0xb9,
  0x5a,
  0x3b,
  0x16,
  0x0f,
  0xd2,
  0x68,
  0x71,
  0x71,
  0xa4,
  0x71,
  0xe3,
  0x88,
  0x78,
  0xf7,
  0x87,
  0xd1,
  0x69,
  0x7e,
  0x29,
  0xfe,
  0x0f,
  0x92,
  0xda,
  0xda,
  0x43,
  0x07,
  0xf7,
  0x65,
  0x96,
  0xe9,
  0xa9,
  0xf7,
  0xa4,
  0xd2,
  0x26,
  0x25,
  0xd2,
  0x6c,
  0x42,
  0xdf,
  0x87,
  0x40,
  0x42,
  0xb1,
  0x5a,
  0xac,
  0xba,
  0x2e,
  0x1e,
  0x4e,
  0xdf,
  0x67,
  0xa5,
  0x4a,
  0xba,
  0xe0,
  0x0f,
  0xda,
  0x95,
  0xd8,
  0x2d,
  0x91,
  0x1d,
  0xc0,
  0xb4,
  0x52,
  0x14,
  0xb7,
  0xc3,
  0xf9,
  0xcd,
  0xb8,
  0x2d,
  0x68,
  0xc7,
  0x02,
  0xed,
  0x8d,
  0x11,
  0x83,
  0x5a,
  0x3f,
  0x3c,
  0x60,
  0xc3,
  0x14,
  0x4f,
  0x11,
  0xc3,
  0xe3,
  0x2e,
  0x48,
  0xb4,
  0x9e,
  0x0a,
  0x62,
  0x95,
  0x72,
  0x3c,
  0x21,
  0xf0,
  0xc7,
  0xe1,
  0xd6,
  0x2d,
  0x58,
  0xbe,
  0x88,
  0x2d,
  0xf0,
  0xbf,
  0x26,
  0x96,
  0x6f,
  0x68,
  0x51,
  0xad,
  0xa9,
  0x89,
  0xd2,
  0x5a,
  0x07,
  0x4a,
  0x8a,
  0x3e,
  0x3f,
  0xd5,
  0xe1,
  0x1a,
  0x04,
  0xc9,
  0x39,
  0xa5,
  0x96,
  0x14,
  0xec,
  0x3c,
  0x00,
  0x31,
  0xb1,
  0xc3,
  0x5d,
  0x15,
  0xd0,
  0xa5,
  0x96,
  0xa6,
  0x6a,
  0x5a,
  0x2d,
  0x01,
  0xc3,
  0x69,
  0x8d,
  0xe5,
  0x50,
  0xb4,
  0xd6,
  0x17,
  0x72,
  0xa5,
  0x1e,
  0x81,
  0x6b,
  0xb4,
  0xc7,
  0xba,
  0x19,
  0x69,
  0x52,
  0x92,
  0xbb,
  0x4b,
  0xa2,
  0x72,
  0x3e,
  0x87,
  0x6a,
  0xe8,
  0xf2,
  0x96,
  0xdb,
  0x74,
  0xcd,
  0x3c,
  0xd4,
  0xaf,
  0x3f,
  0xd2,
  0x35,
  0x26,
  0x5d,
  0x0f,
  0x69,
  0x2f,
  0x63,
  0xd3,
  0xbf,
  0x1b,
  0x2c,
  0x4b,
  0x0b,
  0xf3,
  0x11,
  0x69,
  0x21,
  0x27,
  0xfc,
  0x1e,
  0x71,
  0x81,
  0xdb,
  0x69,
  0xa9,
  0x6c,
  0xdd,
  0x87,
  0xa4,
  0x48,
  0x3c,
  0xd2,
  0x62,
  0xe2,
  0x9f,
  0x0f,
  0xef,
  0x14,
  0x1e,
  0xe1,
  0x8b,
  0x4d,
  0x01,
  0xf0,
  0x2d,
  0xa6,
  0x9e,
  0x49,
  0x1a,
  0x0a,
  0x53,
  0xa5,
  0x06,
  0x96,
  0xb1,
  0x4b,
  0x4f,
  0x66,
  0xf5,
  0x87,
  0x26,
  0x20,
  0x6b,
  0x5a,
  0x19,
  0xa5,
  0x34,
  0xe9,
  0x51,
  0xee,
  0xbe,
  0xc3,
  0x06,
  0xf2,
  0xe4,
  0x1e,
  0xa1,
  0xc3,
  0x95,
  0xf0,
  0x91,
  0x31,
  0x2f,
  0xe1,
  0x37,
  0x30,
  0xa3,
  0x85,
  0x53,
  0x77,
  0xad,
  0xe1,
  0x61,
  0xf7,
  0x2a,
  0x5a,
  0xf4,
  0xa5,
  0x0e,
  0x1f,
  0x03,
  0xfe,
  0x46,
  0xb4,
  0x11,
  0x6c,
  0xcf,
  0xd2,
  0x41,
  0x70,
  0xd2,
  0x4b,
  0x8a,
  0x35,
  0x29,
  0xc3,
  0xea,
  0xf4,
  0xf6,
  0x87,
  0xa4,
  0x9a,
  0x0f,
  0x5a,
  0x21,
  0xc4,
  0x8c,
  0x7a,
  0x4b,
  0x7f,
  0x2b,
  0x96,
  0x3b,
  0xa0,
  0x68,
  0x96,
  0x95,
  0x36,
  0x7d,
  0x0f,
  0x22,
  0xbc,
  0xe9,
  0x1e,
  0x44,
  0xa0,
  0x1d,
  0xf8,
  0x41,
  0x71,
  0x13,
  0xe4,
  0xe0,
  0x66,
  0xab,
  0x0f,
  0x6c,
  0xf2,
  0xfc,
  0x4b,
  0x3a,
  0x87,
  0xb4,
  0x16,
  0x95,
  0x0e,
  0x52,
  0x96,
  0xfc,
  0x41,
  0x41,
  0xb6,
  0xc9,
  0x69,
  0x10,
  0xf0,
  0x4d,
  0xba,
  0x32,
  0xc3,
  0xf0,
  0x78,
  0x42,
  0x69,
  0xec,
  0x93,
  0x01,
  0xe1,
  0x0a,
  0xa1,
  0x18,
  0xf0,
  0x73,
  0xaf,
  0x32,
  0xd2,
  0x17,
  0x3e,
  0xc1,
  0x2d,
  0x21,
  0x39,
  0xf2,
  0x0f,
  0x49,
  0xbd,
  0xb0,
  0x1e,
  0xa7,
  0xee,
  0x6c,
  0x3c,
  0x07,
  0x07,
  0x4a,
  0xf0,
  0x69,
  0xcb,
  0x50,
  0x3c,
  0x73,
  0x7c,
  0x74,
  0x83,
  0x4a,
  0x0e,
  0x63,
  0x96,
  0x4e,
  0x3f,
  0x7a,
  0x96,
  0xc2,
  0x7a,
  0x0c,
  0x7c,
  0x18,
  0x97,
  0xb6,
  0x86,
  0x0c,
  0xa6,
  0x73,
  0x87,
  0x8b,
  0xe5,
  0xbc,
  0x4b,
  0x4c,
  0x41,
  0xae,
  0x78,
  0x5d,
  0x11,
  0x88,
  0x78,
  0x7f,
  0xb3,
  0x24,
  0x4b,
  0x58,
  0xab,
  0x38,
  0xd2,
  0x5a,
  0x65,
  0x85,
  0x79,
  0xab,
  0x7a,
  0x4b,
  0x2d,
  0x7c,
  0xfd,
  0xa9,
  0x69,
  0x8d,
  0x94,
  0x13,
  0x69,
  0x14,
  0xf5,
  0xa0,
  0xd2,
  0xa1,
  0x8c,
  0x0e,
  0xf2,
  0xf3,
  0x08,
  0x41,
  0xf0,
  0xc8,
  0x09,
  0x22,
  0xf0,
  0x42,
  0xed,
  0x71,
  0x87,
  0x2e,
  0xc0,
  0x59,
  0xe3,
  0x35,
  0xe6,
  0xb6,
  0x58,
  0x94,
  0xdc,
  0x8f,
  0x2d,
  0x9c,
  0x46,
  0xd1,
  0x2d,
  0xaa,
  0xcd,
  0xde,
  0x29,
  0x51,
  0x16,
  0x96,
  0x3c,
  0x14,
  0xff,
  0x54,
  0xe1,
  0x09,
  0x50,
  0x9c,
  0x2d,
  0xd8,
  0x4e,
  0xfa,
  0x0f,
  0x66,
  0x62,
  0xc6,
  0xb4,
  0xd9,
  0xf8,
  0x0b,
  0xf0,
  0x28,
  0x96,
  0xb3,
  0x87,
  0xbc,
  0xc3,
  0x34,
  0xe1,
  0xdc,
  0xe7,
  0x5e,
  0xa5,
  0x10,
  0x94,
  0xb1,
  0xa5,
  0x3e,
  0x68,
  0x9a,
  0x2d,
  0xf9,
  0x9b,
  0xe1,
  0x0f,
  0x1a,
  0x63,
  0xf3,
  0x0f,
  0xe6,
  0x8c,
  0xba,
  0x61,
  0xda,
  0x5f,
  0x00,
  0xf0,
  0xc4,
  0x82,
  0x63,
  0x87,
  0xbc,
  0x0b,
  0xe7,
  0x2d,
  0x78,
  0xe3,
  0xbf,
  0x5a,
  0xd3,
  0x32,
  0xa6,
  0x1e,
  0x95,
  0x96,
  0x41,
  0xe1,
  0x4c,
  0x1e,
  0x89,
  0x7a,
  0x52,
  0x1c,
  0xd4,
  0xc3,
  0x76,
  0xbd,
  0xf2,
  0x4b,
  0xb0,
  0xbd,
  0x2a,
  0xda,
  0xa3,
  0x34,
  0x32,
  0x78,
  0xbf,
  0x94,
  0xa5,
  0x2d,
  0x69,
  0x38,
  0x6f,
  0x96,
  0xfa,
  0x34,
  0x80,
  0xd2,
  0xc3,
  0xbc,
  0x23,
  0xd2,
  0x36,
  0xeb,
  0xdc,
  0xa5,
  0xd1,
  0xda,
  0xfc,
  0x0f,
  0xfe,
  0x00,
  0x33,
  0x69,
  0x74,
  0x51,
  0xd1,
  0x2d,
  0xba,
  0x89,
  0xd4,
  0x2d,
  0xbe,
  0x0f,
  0x73,
  0x96,
  0xda,
  0xf5,
  0xff,
  0x0f,
  0x8e,
  0x84,
  0x2d,
  0xc3,
  0x33,
  0xf3,
  0x14,
  0xe9,
  0x5e,
  0xa3,
  0x59,
  0xe1,
  0x19,
  0xd6,
  0x7a,
  0x1e,
  0x56,
  0xab,
  0x7c,
  0x0b,
  0x5f,
  0xce,
  0x0d,
  0xe1,
  0xc6,
  0xdd,
  0x04,
  0xe3,
  0x2a,
  0xc4,
  0x8f,
  0x3c,
  0x16,
  0x77,
  0x34,
  0x87,
  0x71,
  0xdb,
  0x2f,
  0xf0,
  0x7e,
  0xcb,
  0xae,
  0x1e,
  0x08,
  0x84,
  0x99,
  0xe3,
  0x56,
  0x87,
  0xf6,
  0x0f,
  0x4d,
  0xfc,
  0x7e,
  0x5a,
  0xc5,
  0xac,
  0x33,
  0xd6,
  0xec,
  0x26,
  0xd4,
  0x96,
  0x21,
  0x27,
  0x0d,
  0x4b,
  0x5d,
  0x58,
  0xbf,
  0x4a,
  0xe2,
  0x97,
  0xfc,
  0x96,
  0x24,
  0xe4,
  0x06,
  0x96,
  0xf7,
  0xc1,
  0xa5,
  0xb4,
  0x4b,
  0xdd,
  0xf5,
  0xe1,
  0x77,
  0x03,
  0x7a,
  0xe1,
  0xf7,
  0x58,
  0xee,
  0x16,
  0xdf,
  0x8f,
  0xda,
  0x69,
  0x72,
  0xe6,
  0xda,
  0x2d,
  0x03,
  0x51,
  0x16,
  0xe1,
  0x29,
  0xb2,
  0x42,
  0x2d,
  0x0b,
  0xdf,
  0x3b,
  0x69,
  0x7e,
  0xc2,
  0xd8,
  0x3c,
  0x94,
  0x5e,
  0x82,
  0x2d,
  0x09,
  0x9a,
  0xa8,
  0x7d,
  0x2a,
  0xad,
  0xd6,
  0x3e,
  0x0f,
  0x80,
  0x08,
  0x3c,
  0x12,
  0xa5,
  0x18,
  0x4b,
  0x32,
  0x9d,
  0x83,
  0x69,
  0xf1,
  0x57,
  0x18,
  0x69,
  0xc4,
  0x89,
  0x76,
  0x96,
  0x0b,
  0x36,
  0x2d,
  0xf0,
  0x80,
  0x27,
  0x90,
  0xb4,
  0xa2,
  0x6a,
  0x51,
  0xb4,
  0x5b,
  0x0a,
  0xb6,
  0xd2,
  0xdf,
  0x1e,
  0xf9,
  0x29,
  0x25,
  0x65,
  0x5b,
  0x4b,
  0x79,
  0x7a,
  0xe8,
  0xc1,
  0x9e,
  0xd2,
  0x8b,
  0xc3,
  0xa5,
  0xe6,
  0xbf,
  0x5a,
  0x76,
  0xe1,
  0x07,
  0x2d,
  0xc8,
  0xbc,
  0x26,
  0xc7,
  0xdb,
  0x98,
  0x0d,
  0x78,
  0x22,
  0x5c,
  0x8a,
  0x3c,
  0x2f,
  0x1f,
  0x20,
  0xf0,
  0x65,
  0x7d,
  0xb9,
  0xe0,
  0x41,
  0x68,
  0x6d,
  0xb4,
  0x06,
  0x70,
  0x38,
  0xc3,
  0x60,
  0x4d,
  0xbd,
  0xa5,
  0x12,
  0x26,
  0x16,
  0xe1,
  0xf1,
  0x00,
  0xf3,
  0xc1,
  0xf1,
  0x3d,
  0x01,
  0xc3,
  0xfc,
  0x1b,
  0xa8,
  0x78,
  0x30,
  0x00,
  0xee,
  0x4b,
  0x3c,
  0xbd,
  0xad,
  0x0f,
  0xdf,
  0x3d,
  0x70,
  0xe1,
  0x56,
  0x22,
  0x2a,
  0x94,
  0x4a,
  0xed,
  0xa6,
  0x78,
  0x4a,
  0xa6,
  0x65,
  0xd2,
  0x4d,
  0xd3,
  0x32,
  0x78,
  0xed,
  0x0e,
  0xb8,
  0x58,
  0x3a,
  0xb8,
  0xdc,
  0xe1,
  0xed,
  0x76,
  0xd0,
  0xe1,
  0xc5,
  0xed,
  0xc6,
  0x3c,
  0xc1,
  0xfb,
  0xa3,
  0x5a,
  0x07,
  0xa4,
  0x42,
  0xe1,
  0xbb,
  0xbf,
  0xda,
  0x2d,
  0x44,
  0xd8,
  0x8c,
  0xf0,
  0x8b,
  0x36,
  0x66,
  0x96,
  0xe0,
  0x3e,
  0xde,
  0x2f,
  0x0d,
  0xf3,
  0xe9,
  0x0f,
  0x5c,
  0x3a,
  0x47,
  0xb4,
  0x99,
  0x1f,
  0x4e,
  0x1e,
  0x22,
  0xc5,
  0x61,
  0x92,
  0xb9,
  0xd8,
  0x08,
  0x2d,
  0xf1,
  0x28,
  0x07,
  0xb4,
  0x29,
  0xba,
  0xcc,
  0x79,
  0x0b,
  0xe5,
  0xd2,
  0x96,
  0x34,
  0xc8,
  0x71,
  0xe1,
  0xb4,
  0xd2,
  0x9e,
  0x43,
  0x98,
  0x70,
  0xd1,
  0xe1,
  0x32,
  0x47,
  0xc2,
  0x4b,
  0xb3,
  0xb6,
  0x62,
  0x9e,
  0x39,
  0xb8,
  0x09,
  0xf2,
  0x19,
  0x7a,
  0x51,
  0xf0,
  0xb7,
  0x87,
  0xcd,
  0x3c,
  0x4a,
  0x04,
  0x8c,
  0x79,
  0xe7,
  0x78,
  0x3e,
  0x87,
  0xcb,
  0x0a,
  0xac,
  0x78,
  0xf9,
  0xc0,
  0x2d,
  0x5a,
  0xc0,
  0x3a,
  0x9e,
  0x25,
  0xb7,
  0xb7,
  0xb3,
  0x85,
  0x24,
  0xc8,
  0xb4,
  0x96,
  0x7b,
  0xd7,
  0xbd,
  0xa5,
  0xe8,
  0x15,
  0x38,
  0x92,
  0x40,
  0x84,
  0xa0,
  0x5a,
  0x9b,
  0x87,
  0x0b,
  0x69,
  0x74,
  0xa6,
  0x0e,
  0x78,
  0x10,
  0x2d,
  0xb3,
  0x4b,
  0xbf,
  0x7c,
  0x73,
  0x87,
  0x41,
  0x77,
  0xcf,
  0xa5,
  0x86,
  0xa2,
  0x64,
  0x0f,
  0x57,
  0x32,
  0xc6,
  0x94,
  0x6e,
  0xd8,
  0xac,
  0x78,
  0x3a,
  0x45,
  0x90,
  0xf0,
  0x8b,
  0x6f,
  0x5f,
  0xe0,
  0xb5,
  0x0d,
  0xf0,
  0x2c,
  0xbc,
  0x1d,
  0xf3,
  0x5e,
  0xb4,
  0x31,
  0x50,
  0xb4,
  0x27,
  0xe5,
  0x7b,
  0xc2,
  0xb3,
  0x52,
  0x59,
  0xa5,
  0x93,
  0x6c,
  0xf0,
  0xb4,
  0xb9,
  0xbc,
  0x6a,
  0x96,
  0xea,
  0x21,
  0xb8,
  0x3c,
  0x24,
  0xd7,
  0x45,
  0xf0,
  0x4a,
  0x8c,
  0x3c,
  0xbc,
  0x3d,
  0xd7,
  0x51,
  0xa5,
  0xf9,
  0x0d,
  0xf2,
  0x1e,
  0x83,
  0x52,
  0x68,
  0xe1,
  0x87,
  0xa0,
  0x7f,
  0x85,
  0x68,
  0x34,
  0x23,
  0xe1,
  0x0a,
  0x62,
  0x85,
  0x78,
  0x91,
  0x48,
  0x17,
  0xc3,
  0xf1,
  0xde,
  0x76,
  0xa5,
  0xa5,
  0x23,
  0x94,
  0x4b,
  0x57,
  0x69,
  0xf0,
  0x3c,
  0x8c,
  0xde,
  0x88,
  0x78,
  0x2d,
  0x38,
  0xa9,
  0x5a,
  0xf6,
  0x53,
  0x32,
  0x96,
  0xba,
  0xaf,
  0xe7,
  0xb4,
  0x4b,
  0x92,
  0x6f,
  0x0f,
  0xa2,
  0x35,
  0x73,
  0xc7,
  0xce,
  0x56,
  0xa9,
  0x2d,
  0x19,
  0xdd,
  0xf9,
  0x2d,
  0xfc,
  0xf1,
  0x73,
  0xa5,
  0x29,
  0xf7,
  0x52,
  0xb6,
  0xcc,
  0x15,
  0x87,
  0x78,
  0x8f,
  0x55,
  0x5b,
  0x92,
  0x19,
  0xd2,
  0x2e,
  0xd2,
  0x86,
  0x1a,
  0x67,
  0x97,
  0xa2,
  0x8c,
  0x48,
  0x3c,
  0x7e,
  0x5b,
  0xe7,
  0xa5,
  0xcb,
  0x5f,
  0x4d,
  0xb0,
  0xb5,
  0x1b,
  0xd5,
  0x4b,
  0x98,
  0x14,
  0x04,
  0xf8,
  0x2d,
  0x37,
  0x63,
  0x96,
  0x49,
  0x1f,
  0x33,
  0x87,
  0xbf,
  0x97,
  0x9a,
  0x3c,
  0x9a,
  0x79,
  0xf2,
  0x4b,
  0xf0,
  0xf6,
  0x6e,
  0x1e,
  0x1b,
  0x4b,
  0xb1,
  0x4a,
  0xd8,
  0xae,
  0x6f,
  0xc3,
  0x46,
  0xcd,
  0xc4,
  0xb4,
  0x5a,
  0x33,
  0xc6,
  0x1e,
  0x7f,
  0xb4,
  0x5c,
  0xa5,
  0x66,
  0x74,
  0xb4,
  0x69,
  0x52,
  0x94,
  0x2a,
  0x5a,
  0x50,
  0xcc,
  0x48,
  0x3c,
  0x9b,
  0x1a,
  0xd3,
  0x4b,
  0x1c,
  0x96,
  0xb4,
  0x4b,
  0xca,
  0x3f,
  0x87,
  0x69,
  0x02,
  0x68,
  0x7d,
  0x69,
  0x61,
  0x31,
  0x8e,
  0x3c,
  0x66,
  0x36,
  0x6e,
  0x94,
  0xc1,
  0xdf,
  0x3a,
  0xd2,
  0x49,
  0x51,
  0xa5,
  0xa5,
  0x67,
  0x7a,
  0x97,
  0x2d,
  0x71,
  0x12,
  0x34,
  0x2d,
  0x1b,
  0x9c,
  0x17,
  0xb4,
  0x56,
  0xfa,
  0x19,
  0xe1,
  0x3d,
  0x2e,
  0x20,
  0xd6,
  0x2f,
  0x10,
  0xa2,
  0xf0,
  0x1d,
  0x2a,
  0xd4,
  0x30,
  0x54,
  0x8f,
  0x3c,
  0x87,
  0x90,
  0xd8,
  0xa4,
  0x1e,
  0x6d,
  0xc8,
  0xa9,
  0x4b,
  0x36,
  0x6d,
  0xe8,
  0xd2,
  0x88,
  0x6c,
  0xdf,
  0x2d,
  0x1e,
  0xc1,
  0xff,
  0x0f,
  0x06,
  0x3b,
  0xe9,
  0x78,
  0x16,
  0x08,
  0xff,
  0x0f,
  0x52,
  0xac,
  0x42,
  0x3c,
  0xde,
  0x41,
  0x65,
  0xb4,
  0x87,
  0x24,
  0x1b,
  0x69,
  0xaa,
  0xbd,
  0x14,
  0x5a,
  0xd9,
  0x42,
  0x68,
  0xa5,
  0xd9,
  0xd3,
  0x8f,
  0x78,
  0x52,
  0x63,
  0xa9,
  0xc3,
  0x08,
  0xd7,
  0xca,
  0xf1,
  0x12,
  0xb7,
  0x4f,
  0xb4,
  0xbd,
  0x4a,
  0x4a,
  0xd2,
  0x42,
  0xda,
  0x03,
  0xb4,
  0x9d,
  0x8f,
  0x83,
  0x4b,
  0x0d,
  0x36,
  0x80,
  0x7c,
  0xa1,
  0xb6,
  0xb5,
  0x4a,
  0x44,
  0x2b,
  0xef,
  0x0f,
  0x68,
  0x28,
  0x9f,
  0x69,
  0x95,
  0x8f,
  0xd7,
  0x5a,
  0x2b,
  0x05,
  0x26,
  0xd2,
  0x10,
  0xd4,
  0x37,
  0x87,
  0xfe,
  0x7e,
  0x26,
  0x96,
  0x9f,
  0x12,
  0x9a,
  0x69,
  0x3c,
  0x25,
  0xa3,
  0xd3,
  0xec,
  0x14,
  0xe3,
  0x78,
  0x19,
  0x2d,
  0xda,
  0x5a,
  0xc4,
  0x88,
  0x05,
  0xb4,
  0x66,
  0x4a,
  0x56,
  0xa5,
  0x68,
  0x97,
  0xb5,
  0x2d,
  0xe4,
  0x60,
  0x02,
  0xd2,
  0x02,
  0x20,
  0xf5,
  0x4b,
  0x06,
  0x12,
  0xc3,
  0xe1,
  0xb0,
  0x4e,
  0x26,
  0xf0,
  0x0b,
  0x0b,
  0x39,
  0x4b,
  0xef,
  0x05,
  0xce,
  0x78,
  0x06,
  0x29,
  0xc5,
  0x3f,
  0x5f,
  0x65,
  0x3e,
  0xc3,
  0x9a,
  0xa8,
  0x56,
  0x87,
  0x3d,
  0xce,
  0xf9,
  0x1e,
  0xc1,
  0x2c,
  0x6d,
  0xd2,
  0x99,
  0x75,
  0xe7,
  0x1e,
  0x92,
  0xb3,
  0x48,
  0x2c,
  0x99,
  0x81,
  0x02,
  0xc3,
  0xe7,
  0x1a,
  0x28,
  0xd2,
  0x7b,
  0x41,
  0x86,
  0xf0,
  0x13,
  0x02,
  0xfd,
  0xa5,
  0x0b,
  0x62,
  0xc1,
  0xb4,
  0x0f,
  0x08,
  0x4a,
  0x96,
  0x53,
  0xef,
  0x4c,
  0xb4,
  0xb4,
  0x8b,
  0xae,
  0x43,
  0xb0,
  0x00,
  0xea,
  0x97,
  0xbf,
  0xd1,
  0x5b,
  0xe1,
  0xf0,
  0xd0,
  0x3b,
  0xd2,
  0x6c,
  0x46,
  0x4e,
  0x5a,
  0x28,
  0xdd,
  0xe7,
  0xc3,
  0x0a,
  0xdd,
  0x50,
  0x86,
  0x41,
  0x68,
  0x89,
  0x7a,
  0x1b,
  0x91,
  0x2b,
  0x1f,
  0x6b,
  0x07,
  0x0b,
  0xf0,
  0x56,
  0x5d,
  0xb1,
  0xd2,
  0x9f,
  0xab,
  0x5b,
  0x0f,
  0x73,
  0x07,
  0xd8,
  0xb4,
  0x76,
  0x03,
  0x3d,
  0x96,
  0x45,
  0xbb,
  0xf1,
  0x4a,
  0x74,
  0x08,
  0x1b,
  0xe1,
  0xe6,
  0xfd,
  0x54,
  0x0f,
  0x15,
  0x0c,
  0x4e,
  0x9a,
  0x45,
  0x98,
  0x61,
  0x49,
  0x49,
  0x90,
  0x73,
  0x83,
  0x00,
  0x35,
  0x8f,
  0x69,
  0x4e,
  0xdc,
  0xc8,
  0x34,
  0x9f,
  0x26,
  0x67,
  0x96,
  0x83,
  0x47,
  0x60,
  0x79,
  0xf6,
  0xd4,
  0x02,
  0xe3,
  0xd7,
  0xde,
  0xc3,
  0x3c,
  0xdd,
  0x82,
  0xfd,
  0xc3,
  0x26,
  0x0f,
  0x16,
  0x5a,
  0x22,
  0x4e,
  0x21,
  0xd2,
  0x8f,
  0x48,
  0xdd,
  0x2d,
  0x6e,
  0x8e,
  0x83,
  0x78,
  0x1d,
  0x9e,
  0x3a,
  0x1e,
  0x1a,
  0x9f,
  0xd8,
  0x78,
  0xcb,
  0x72,
  0x21,
  0xd2,
  0xcf,
  0x82,
  0xa9,
  0x1e,
  0x8b,
  0x47,
  0xfc,
  0x2d,
  0x8e,
  0x06,
  0xa5,
  0xd2,
  0xd5,
  0x7b,
  0x06,
  0x87,
  0x9f,
  0x2f,
  0xa2,
  0x4b,
  0x49,
  0x19,
  0x77,
  0x87,
  0x9e,
  0x79,
  0xcf,
  0x96,
  0x44,
  0x6b,
  0xb0,
  0x69,
  0xcc,
  0xc1,
  0x53,
  0xc3,
  0xe5,
  0x66,
  0x2a,
  0xd2,
  0xf9,
  0x4c,
  0x13,
  0xe1,
  0x39,
  0x2f,
  0xb4,
  0x52,
  0xf6,
  0xa8,
  0x07,
  0x1e,
  0x93,
  0x20,
  0xcb,
  0xc3,
  0x55,
  0xc6,
  0xf4,
  0x96,
  0xbf,
  0xbe,
  0xc5,
  0x25,
  0x0f,
  0xad,
  0x91,
  0xe1,
  0xbe,
  0xca,
  0x0d,
  0x78,
  0x97,
  0xef,
  0x2d,
  0xc2,
  0xc1,
  0x33,
  0x5e,
  0xa5,
  0xac,
  0xce,
  0xea,
  0x1a,
  0xe6,
  0x5d,
  0xbd,
  0x0b,
  0xa8,
  0x74,
  0x95,
  0x69,
  0x64,
  0x98,
  0x71,
  0xa5,
  0x40,
  0x99,
  0x36,
  0xe1,
  0x53,
  0xac,
  0x38,
  0x78,
  0xae,
  0x7d,
  0xd1,
  0xa5,
  0x3e,
  0x00,
  0x40,
  0x96,
  0x76,
  0x20,
  0xe4,
  0x3c,
  0xb6,
  0x2f,
  0xe5,
  0x1a,
  0x79,
  0x12,
  0x11,
  0x4b,
  0xc4,
  0x99,
  0xdf,
  0x3c,
  0xd0,
  0x24,
  0xb6,
  0xe1,
  0xe8,
  0x40,
  0x3d,
  0x69,
  0x5f,
  0x73,
  0x30,
  0xc1,
  0xe7,
  0x40,
  0x85,
  0xd2,
  0x59,
  0xb3,
  0xbc,
  0xd2,
  0x2c,
  0x0a,
  0x12,
  0xcb,
  0x8e,
  0x6c,
  0x1e,
  0x78,
  0x4f,
  0x6f,
  0x70,
  0xa5,
  0x7b,
  0x0d,
  0xf5,
  0xa5,
  0xb3,
  0xec,
  0x98,
  0x69,
  0x20,
  0x5d,
  0xb8,
  0x4b,
  0x88,
  0xa5,
  0xa4,
  0x2d,
  0x79,
  0xef,
  0x7e,
  0xd2,
  0x1a,
  0x63,
  0x32,
  0xd2,
  0x5f,
  0x95,
  0x80,
  0xf0,
  0x08,
  0x24,
  0x13,
  0x69,
  0xa5,
  0xa6,
  0x77,
  0x1e,
  0xd6,
  0xdd,
  0x0c,
  0xe1,
  0xef,
  0xef,
  0xf5,
  0x0f,
  0x02,
  0xa0,
  0x43,
  0xc3,
  0xb0,
  0x05,
  0x82,
  0x69,
  0xb7,
  0xab,
  0xfd,
  0x0f,
  0x2f,
  0x1c,
  0xcb,
  0x78,
  0x16,
  0xa1,
  0x1c,
  0x1f,
  0x2a,
  0x96,
  0x31,
  0x4e,
  0x9d,
  0x0a,
  0x0a,
  0xf9,
  0xe8,
  0x21,
  0xc1,
  0x69,
  0x3b,
  0xe5,
  0xe3,
  0x87,
  0xa8,
  0xbd,
  0xe0,
  0xf0,
  0x69,
  0x34,
  0xc0,
  0x78,
  0x67,
  0x99,
  0x95,
  0xf4,
  0x08,
  0xd4,
  0xf9,
  0x0f,
  0xd1,
  0xbb,
  0x79,
  0xf1,
  0xe6,
  0xd3,
  0xd6,
  0xa5,
  0x8e,
  0x99,
  0x22,
  0x1e,
  0x1c,
  0x64,
  0x6d,
  0xa5,
  0x8e,
  0xfa,
  0x4c,
  0xf0,
  0x75,
  0x75,
  0x5b,
  0xa5,
  0x20,
  0xf0,
  0xa8,
  0x5a,
  0x0c,
  0xeb,
  0x35,
  0x4b,
  0x6d,
  0x17,
  0x17,
  0x87,
  0x4c,
  0x87,
  0x55,
  0xa5,
  0xc5,
  0xb6,
  0xb7,
  0x87,
  0x71,
  0xa2,
  0xb7,
  0x4b,
  0x18,
  0xf2,
  0x15,
  0xf0,
  0x79,
  0x9c,
  0xed,
  0x3c,
  0x76,
  0xd0,
  0x94,
  0x7a,
  0x12,
  0x1f,
  0x03,
  0xf0,
  0x30,
  0xb1,
  0x21,
  0xf0,
  0x02,
  0x47,
  0xae,
  0x5a,
  0xe4,
  0x6f,
  0xec,
  0x1e,
  0x0d,
  0x81,
  0xf6,
  0x58,
  0x6b,
  0x18,
  0xfe,
  0x0f,
  0x84,
  0xf6,
  0x94,
  0x34,
  0xed,
  0x26,
  0xbb,
  0x4b,
  0x4f,
  0xb4,
  0xf0,
  0x0f,
  0xaa,
  0xfb,
  0x52,
  0xf0,
  0xdd,
  0x5d,
  0xcf,
  0x1e,
  0x66,
  0x60,
  0x5b,
  0xa5,
  0xa9,
  0xf0,
  0x7d,
  0x87,
  0x9e,
  0x5b,
  0x01,
  0x69,
  0xf2,
  0x7f,
  0x2b,
  0xf0,
  0xc9,
  0x4b,
  0x31,
  0x87,
  0x19,
  0xba,
  0xfe,
  0x4b,
  0xc0,
  0xd5,
  0x5e,
  0xd2,
  0x42,
  0xfe,
  0x86,
  0x69,
  0xf4,
  0xe1,
  0xdb,
  0x38,
  0x0f,
  0x04,
  0xef,
  0x87,
  0x6b,
  0x55,
  0x69,
  0x3c,
  0xb3,
  0x74,
  0xe4,
  0x52,
  0xf2,
  0xe7,
  0x62,
  0x83,
  0x9e,
  0x33,
  0x6b,
  0xc3,
  0x92,
  0x79,
  0x2c,
  0xa5,
  0xe5,
  0xcc,
  0x82,
  0xb6,
  0x54,
  0x05,
  0x9f,
  0x6b,
  0xb8,
  0xcf,
  0x2e,
  0x96,
  0x72,
  0xd5,
  0x87,
  0x78,
  0xf2,
  0x6a,
  0x6d,
  0x5a,
  0xa1,
  0xa7,
  0x7d,
  0x1e,
  0x9e,
  0xd1,
  0x7e,
  0x87,
  0xf5,
  0xb8,
  0x8f,
  0x69,
  0x54,
  0x04,
  0x43,
  0xc3,
  0x97,
  0xc3,
  0xfe,
  0x0f,
  0x02,
  0xcd,
  0x84,
  0x69,
  0xcf,
  0x13,
  0xea,
  0x1d,
  0xe0,
  0x37,
  0x69,
  0x94,
  0x3e,
  0xa8,
  0x85,
  0xb4,
  0x26,
  0x3b,
  0x33,
  0xc3,
  0x3e,
  0xe1,
  0x44,
  0x3c,
  0x80,
  0xee,
  0x7e,
  0x8f,
  0x2f,
  0xc5,
  0xe7,
  0x1e,
  0xad,
  0x8c,
  0x28,
  0xc3,
  0x7b,
  0xc8,
  0x6e,
  0xb4,
  0x45,
  0xae,
  0xc8,
  0x78,
  0x23,
  0xf9,
  0x41,
  0xb6,
  0xf8,
  0x7d,
  0xe0,
  0x87,
  0x0d,
  0x9d,
  0xab,
  0x52,
  0x9e,
  0xfc,
  0x71,
  0x87,
  0x25,
  0xc1,
  0x34,
  0x78,
  0xbe,
  0x6f,
  0x9c,
  0x96,
  0x61,
  0xe4,
  0x97,
  0xa5,
  0x8a,
  0x90,
  0x45,
  0xb4,
  0x07,
  0xa2,
  0x94,
  0x2d,
  0xfa,
  0x79,
  0xcb,
  0x96,
  0xd0,
  0xad,
  0xb3,
  0x69,
  0xb9,
  0x7e,
  0x4e,
  0x29,
  0xc3,
  0xb2,
  0x53,
  0xb4,
  0x1f,
  0xd7,
  0x6d,
  0x3c,
  0xe7,
  0x6e,
  0x27,
  0xd2,
  0xe1,
  0x4e,
  0x97,
  0xad,
  0x51,
  0x5c,
  0x8c,
  0x5a,
  0xc4,
  0xe3,
  0x66,
  0x96,
  0x0e,
  0x88,
  0x9d,
  0x69,
  0x56,
  0x1c,
  0xea,
  0x92,
  0x54,
  0xb3,
  0x1f,
  0xc7,
  0xa9,
  0xe6,
  0xc5,
  0x3e,
  0x56,
  0xc1,
  0x83,
  0x78,
  0x0c,
  0xfe,
  0x77,
  0x87,
  0xce,
  0xd1,
  0x2a,
  0x78,
  0x79,
  0x45,
  0xff,
  0xc3,
  0xea,
  0xf2,
  0x4b,
  0xb4,
  0x1b,
  0xc0,
  0xe6,
  0x96,
  0x35,
  0xb0,
  0x9d,
  0x87,
  0xe0,
  0xd5,
  0x41,
  0x68,
  0x9d,
  0xe7,
  0xfb,
  0x2d,
  0xa7,
  0x80,
  0x0c,
  0xf2,
  0x94,
  0x71,
  0x86,
  0xb4,
  0x85,
  0xbb,
  0x1b,
  0x5a,
  0xd5,
  0x12,
  0x6e,
  0xc3,
  0x07,
  0x67,
  0xa8,
  0x96,
  0x6e,
  0x41,
  0x8c,
  0x78,
  0x25,
  0x1f,
  0x21,
  0xe1,
  0x5c,
  0x46,
  0x2b,
  0xd2,
  0xac,
  0xd3,
  0x8c,
  0x7c,
  0x20,
  0x1c,
  0xdf,
  0xa5,
  0xd3,
  0x9d,
  0x21,
  0xc3,
  0x8c,
  0xbb,
  0x41,
  0xb4,
  0x1d,
  0x15,
  0x09,
  0x2d,
  0xe6,
  0x2e,
  0x5e,
  0x8d,
  0x18,
  0x96,
  0xd4,
  0xa5,
  0xf1,
  0xaf,
  0xcc,
  0xa5,
  0x53,
  0xa5,
  0xb4,
  0x0f,
  0x73,
  0x10,
  0x56,
  0xe3,
  0xe1,
  0xe2,
  0x3f,
  0x4b,
  0x83,
  0xa8,
  0x61,
  0x5b,
  0x96,
  0x9e,
  0x3e,
  0x4a,
  0x6e,
  0x75,
  0xd0,
  0xa5,
  0x37,
  0x46,
  0x91,
  0xc3,
  0x91,
  0x1e,
  0x49,
  0xb4,
  0x11,
  0x17,
  0x4a,
  0x1a,
  0x48,
  0xcc,
  0xc7,
  0x3c,
  0x10,
  0x1e,
  0x50,
  0x69,
  0xfb,
  0xad,
  0x11,
  0xe1,
  0x92,
  0xe4,
  0x10,
  0xa5,
  0x17,
  0xbb,
  0x2b,
  0x7c,
  0xef,
  0xc0,
  0x69,
  0x5a,
  0x1e,
  0x71,
  0xdb,
  0x2d,
  0x37,
  0x1e,
  0xb4,
  0x1e,
  0x5f,
  0xb6,
  0xdd,
  0x0f,
  0xb6,
  0x83,
  0xca,
  0x1e,
  0xaf,
  0x58,
  0x81,
  0x7c,
  0xa4,
  0x54,
  0x88,
  0xe3,
  0xe0,
  0x21,
  0x88,
  0x7b,
  0x5e,
  0xf6,
  0xc7,
  0x3c,
  0x40,
  0xab,
  0x39,
  0xc3,
  0xa2,
  0xfe,
  0xcd,
  0x69,
  0xe3,
  0x99,
  0xb0,
  0xf0,
  0x44,
  0x19,
  0x74,
  0x96,
  0x43,
  0xbf,
  0xee,
  0x07,
  0x4d,
  0x99,
  0x8d,
  0x2c,
  0x64,
  0xa9,
  0x7c,
  0x2d,
  0xa5,
  0x03,
  0x1e,
  0xf4,
  0x89,
  0x37,
  0xf4,
  0x87,
  0x83,
  0xbf,
  0x13,
  0xa5,
  0x35,
  0x04,
  0x2a,
  0x5a,
  0x6d,
  0x56,
  0xbe,
  0xc3,
  0xe4,
  0xc3,
  0xe7,
  0x1a,
  0x7e,
  0xba,
  0x7d,
  0x0f,
  0x4c,
  0x64,
  0x9e,
  0x4b,
  0xcf,
  0x1f,
  0x2b,
  0xf0,
  0x03,
  0x9a,
  0x90,
  0x78,
  0xcf,
  0xdf,
  0xf6,
  0x30,
  0x4a,
  0x6b,
  0x40,
  0xf0,
  0x5a,
  0xc2,
  0xd4,
  0xa5,
  0xe7,
  0xbe,
  0xb0,
  0xc3,
  0x1a,
  0x1d,
  0xe8,
  0x36,
  0x86,
  0x8b,
  0x09,
  0xf0,
  0xe7,
  0x0c,
  0x8f,
  0x2d,
  0xbd,
  0x0d,
  0xa9,
  0x4f,
  0xca,
  0xd2,
  0xa7,
  0x78,
  0x66,
  0x18,
  0x34,
  0xf0,
  0x76,
  0x11,
  0x60,
  0xd2,
  0x7c,
  0x15,
  0xf9,
  0xe0,
  0x35,
  0x6c,
  0x06,
  0xb4,
  0xaf,
  0x93,
  0x03,
  0xf0,
  0x8c,
  0xf2,
  0x12,
  0xc7,
  0x73,
  0x3f,
  0x2a,
  0x5e,
  0x3e,
  0x73,
  0x49,
  0x5a,
  0x30,
  0x55,
  0x3a,
  0x87,
  0xf5,
  0x23,
  0x9d,
  0xc3,
  0x22,
  0x43,
  0x09,
  0xf0,
  0x64,
  0xac,
  0xf5,
  0xa5,
  0x7f,
  0x15,
  0xba,
  0x58,
  0x04,
  0xd8,
  0xea,
  0x4b,
  0x9e,
  0xb6,
  0x81,
  0xf4,
  0x5c,
  0xfc,
  0xd8,
  0x69,
  0xef,
  0xbb,
  0x78,
  0xc3,
  0x2d,
  0xf5,
  0xca,
  0x3c,
  0x63,
  0xb8,
  0xad,
  0xc3,
  0xef,
  0xd6,
  0xfa,
  0x0f,
  0x30,
  0x03,
  0x71,
  0xe1,
  0x17,
  0x97,
  0x63,
  0x1e,
  0x41,
  0xa3,
  0xdd,
  0xa5,
  0xea,
  0x05,
  0x50,
  0x78,
  0x6b,
  0xc9,
  0xfe,
  0x1e,
  0x6f,
  0x78,
  0x8c,
  0x2d,
  0x8f,
  0xed,
  0x21,
  0xe1,
  0xe4,
  0x49,
  0x11,
  0xe1,
  0xd3,
  0x3d,
  0x4a,
  0xe1,
  0xdf,
  0xe5,
  0x75,
  0xa5,
  0xc4,
  0xc4,
  0xd3,
  0x3c,
  0x17,
  0x5f,
  0xa0,
  0x69,
  0x00,
  0xd5,
  0x17,
  0xe1,
  0xc7,
  0xa5,
  0xbe,
  0x49,
  0x3d,
  0x12,
  0xbc,
  0xe9,
  0x9a,
  0x32,
  0x97,
  0xe1,
  0xae,
  0x73,
  0xe5,
  0x96,
  0x20,
  0xf1,
  0xdf,
  0x3c,
  0xae,
  0x95,
  0xc2,
  0x1e,
  0xcf,
  0xf2,
  0xec,
  0x3c,
  0x0d,
  0xa9,
  0xac,
  0x5a,
  0xb9,
  0xdf,
  0xc7,
  0x2f,
  0x3e,
  0x08,
  0xe5,
  0x5a,
  0x43,
  0xe0,
  0x95,
  0x3c,
  0x44,
  0xfe,
  0x08,
  0x78,
  0xdb,
  0x92,
  0xdd,
  0x69,
  0x24,
  0x92,
  0x60,
  0x1f,
  0xfb,
  0x9b,
  0xb5,
  0x69,
  0xda,
  0x13,
  0xb6,
  0xc1,
  0x48,
  0xc8,
  0xc8,
  0x36
};

